#version: 0.2
Ġ ì
ì Ŀ
Ġ ë
Ġ t
h e
i n
Ġ a
e r
í ķ
o n
Ġ ê
Ġt he
ì Ĺ
r e
a n
ë ĭ
o r
e n
a t
Ġ o
e d
Ġ í
s t
a l
a r
Ġ w
ìĿ ´
i t
ìĿ ĺ
ëĭ ¤
Ġo f
Ġ 1
n d
Ġ s
Ġ in
i s
ìĹ Ĳ
e s
Ġ c
Ġ f
ê ³
ì Ħ
ë Ĭ
Ġ b
ë ¡
i c
ëĬ Ķ
Ġ p
in g
Ġa nd
ì ł
ê °
ì ŀ
ë¡ ľ
i on
r o
a s
ê µ
Ġì Ŀ
ë ħ
íķ ĺ
Ġ 2
Ġ S
l e
ë ¦
ì §
Ġ (
Ġt o
ëħ Ħ
Ġ m
ë ¥
Ġ C
ì ľ
ì ĭ
ìĿ Ħ
Ġ d
Ġ A
o u
Ġì ŀ
íķ ľ
Ĥ ¬
Ġ T
Į Ģ
ì Ĭ
i l
ì ķ
ë ı
¸ °
Ġ h
en t
Ġì ł
ì Ľ
Ġ M
ë¦ ¬
ê³ ł
ë ĵ
a m
ê° Ģ
ìĦ ľ
Ġ1 9
e l
ìĬ ¤
o l
o m
Ġ2 0
ìĿ Ģ
ì ļ
ì§ Ģ
Ġ Ċ
Ġ B
Ġê °
Ġ re
Ġë °
a c
Ġì ķ
Ī ëĭ¤
Ġì Ĺ
Ī ĺ
ìľ ¼
Ġ l
Ġì Ħ
ê ¸°
ĠìĿ ´
ì ĺ
a d
Ġ P
ì ĸ
ë¥ ¼
ë §
ë Ĥ
u r
Ŀ ¼
ê ²
e t
ë ¶
e c
ëı Ħ
ë ł
Ġ H
Ġ n
at ion
i v
ìĭ ľ
er s
ìĿ ¸
Ġ I
ë Ŀ¼
i g
£ ¼
i d
ìĿ ¼
Ġ e
Ġ R
Ġì ĭ
Ġt h
Ġw as
ë °
o t
ë ©
u s
i r
Ġê ²
Ġë §
Ġ D
ì Ĥ¬
ì ĥ
a y
êµ Ń
Ġ L
l y
ë Ĳ
i m
ë ĮĢ
ìŀ Ĳ
Ġì ĺ
Ġf or
ìľ¼ ë¡ľ
Ġ F
Ġ on
ì ¹
· ¸
ìĹĲ ìĦľ
ìĸ ´
â Ģ
ë ŀ
Ġê ³
c h
u t
ì Ļ
í Ļ
ë ³
Ġ g
i st
Ġ G
Ġ is
ë ¬
Ġ N
ë ¯
o w
Ġì §
ë¶ Ģ
e m
ìĽ Ķ
Ġì Ĥ¬
ĠT he
Ġ W
íķ ´
Ġa s
1 9
u n
ìķ Ħ
í ĸ
ã Ģ
Ġë ĮĢ
Ġê µ
it h
0 0
í Ĭ
Ġë ĭ
ê³ ¼
t er
Ġ st
í ĺ
t h
íķ Ļ
ëĤ ĺ
Ġì ľ
an d
he r
u l
ì Īĺ
Ġë Ĥ
c t
Ġ E
a g
Ġë ı
c e
ì £¼
Ġ J
ë ²
Ġw ith
Ġ -
ë ª
í ĥ
ì ²
u m
íĬ ¸
Ġb y
Ġë ³
Ġa l
êµ ¬
ì Ĩ
o s
Ġë ¶
ìŀ ¥
Ġê ·¸
íĻ Ķ
Ġ "
r a
ëĵ ľ
Ġb e
' s
v er
ro m
o p
ìł ķ
ë į
ëĵ ¤
ìĽ Ĳ
âĢ ĵ
Ġ20 0
¡ °
ìĥ ģ
ëĲ ĺ
Ġë ª
Ġ O
ë Ł
Ġ 3
ìĻ Ģ
Ġa t
Ġì ¶
¹ Ħ
Ġ K
r i
ìĦ ±
ìł Ħ
Ġw h
Ġì Īĺ
Ġa n
¤ ĳ
ļ Į
o c
Ġìĭ ľ
Ġ20 1
Ġc on
ìł ģ
Ġìķ Ħ
êµ Ĳ
ìĿ´ ëĭ¤
o d
Ġf rom
Ġ he
Ġ v
Ġê ¸°
Ġì§ Ģ
Ġ U
ìļ °
Ġê° Ģ
2 0
í Ķ
a in
Ġth at
Ġìł ľ
i an
e st
Ġìł Ħ
a v
al l
ë¥ ´
a b
ëı Ļ
it y
ìł ľ
í Ħ
´ Ģ
ìĹ Īëĭ¤
re s
e w
Ġì ĥ
i a
t s
ê² Į
i es
í ļĮ
Ġë ĵ
i f
ģ ¬
at e
u p
Ġc om
Ġìŀ Ī
il l
ìĺ Ģ
ì Ĥ
b er
Ġp ro
ì °
Ġì ļ
í Ĩ
ë© °
ì¹ ĺ
ë§ Ī
Ġ íķĺ
u d
ar d
ar t
ĠS t
Ġ it
ìĹ ¬
Ġì Ĩ
Ġí ĺ
ë¯ ¼
Ġë ¬
Ľ Ħ
ig h
Ġì Ĭ
íĦ °
ĠìĦ ł
a k
Ġd e
) ,
a p
u b
Ġí Ļ
Ġë ¯
Ġìł ķ
Ġp l
ë £
Ġ íķľ
i p
ë¯ ¸
Ġ 4
Ġh is
Ġì ²
e ar
ic h
ëĭ Ī
Ġ or
o re
a st
ĠìĿ ¼
Ġí Ķ
Ġ r
or t
ë¬ ¸
Ġë ²
ìĦ ł
ë© ´
es s
í ģ¬
Ġìŀ Īëĭ¤
l d
ë§ Į
o v
Ġìĺ ģ
í Į
Ġëĭ ¤
ĠI n
q u
T he
Ġ íķ
Ġì ¤ĳ
ìļ ©
ëª ħ
ìĭ ł
ìĹ Ń
± °
at ed
ê³ Ħ
is h
Ġ V
Ġ :
ar y
Ġê³ µ
ëł Ī
ë ¹Ħ
Ġì ĸ
Ġìŀ Ĳ
Ġa re
Ġ19 9
Ġë³ ´
ou r
m ent
g e
ĠC h
iv e
Ġí ı
ìĦ ¸
on g
m er
Ġì £¼
ĠìĿ ¸
íĥ Ģ
Ġê² ½
ê ¸
Ġ ãĢ
Ġì °
ìľ Ħ
Ġìľ ł
Ġ 5
o g
ĠìĹ Ń
en d
íĸ Īëĭ¤
Ġc h
i al
u g
í ı
n t
ìĤ °
ìĺ ¤
íķĺ ëĬĶ
ìĨ Į
Ġë¯ ¸
Ġe x
in e
r an
íķĺ ìĺĢ
ì¹ ´
ì ¡°
s e
ëĲ ľ
el l
ëŁ ¬
k s
ì ¦
Ġëı Ļ
Ġê² ĥ
ì ¶
u nd
e p
ê³ µ
ì§ Ħ
er e
u st
Ġìľ Ħ
or d
ë³ ´
ãĢ ĭ
am e
½ Ķ
an t
u c
êµ °
Ġë¶ Ģ
êµŃ ìĿĺ
Ġ1 8
Ġì ¹
f er
Ġë§ Ī
Ġs e
Ġ âĢĵ
í Ĥ
ê ·¸
ë Ħ
Ġë Ĳ
s o
Ġì Ļ
Ġí Į
ê² ½
Ġí ĥ
ec t
u re
Ġìĺ ¤
o st
ĠìĬ ¤
ìĹ °
i re
ĠìĹ °
Ġì ¡°
Ġw ere
íķĻ êµĲ
í ĭ
ĠìĨ Į
ê ´Ģ
2 00
ìĥ Ŀ
Ġê° ľ
¢ ħ
ic al
Ġ le
Ġ 6
ìĭ Ŀ
u e
ac k
Ġëĵ ±
ion s
Ķ Ķ
ìŀ ¬
ĠëĤ ĺ
Ġì Ľ
ĠãĢ Ĭ
Ġë į
íĶ Ħ
íķĺ ê³ł
Ġwh ich
ìĺ ģ
Ġêµ Ń
i e
Ġs p
Ġëª ¨
ê° Ħ
Ġì¶ ľ
íĺ ¸
t her
Ġal so
Ġê³ ł
en c
ig n
Ġ k
ĠìĿ ĺ
ĠH e
ĠU n
Ġs h
a re
Ġ y
ĠìĹ ¬
ëĭ ¨
Ġëı Ħ
ì² ´
ìŀ ĳ
Ġ 7
r y
Ġêµ ¬
f f
Ġ19 8
r it
íĤ ¤
20 1
ìĹ ħ
Ġcom p
ê ·
Ġí Ĩ
ĳ ľ
ì ¡
ëĭ ¹
Ġë° ľ
ë³ ¸
as s
| |
ag e
p p
ë¬ ´
r ic
íķĺ ìĹ¬
ĠíĶ Ħ
íķĺìĺĢ ëĭ¤
ìľ ł
ë¬ ¼
Ġpl ay
í İ
ê° ľ
igh t
íĸ ī
ĠìĦ ¸
ìĹ Ī
ĠìĦ ľ
ìĿ Į
Ġë ¹Ħ
Ġ 8
ŀ Ī
íķľ ëĭ¤
ĳ Ĳ
ou s
c l
ê° ģ
id e
ìķ ¼
ëį °
m an
Ġ un
ĠëĤ ¨
Ġìĭ ł
Ġ Ġ
ìŀ Ħ
Ġ1 0
Ġë ħ
ĠëĮĢ íķľ
Ġ Y
íĨ ł
ir st
Ġìĥ ģ
´ Ī
ķ Į
Ġ 9
ê ±°
í ĽĦ
ìľ¼ ë©°
on d
¸ Į
ĠìĦł ìĪĺ
ì Ī
l and
Ġí ĽĦ
ëĲĺ ìĹĪëĭ¤
or k
or y
ëł ¥
ë° ©
ì° ¨
ìķ Ī
ê ¹
ë£ ¨
Ġc l
ĠìĦ ±
± ´
Ġn ot
ation s
i z
Ġì Ĥ
ìļ ´
Ġê ´Ģ
er v
an g
p er
Ġa r
Ġh ad
ë° ĺ
av e
ëŀ ĺ
o k
ìĹĲ ëĬĶ
n g
ë ĶĶ
íķ ł
ation al
he d
ow n
ìļ Ķ
Ġh as
Ġ íķ´
Ġ ||
Ġí ĸ
µ ľ
e y
ëł ¤
í ħ
ic e
ter n
o ol
) .
ou nt
om e
ic an
ac t
Ġ19 7
Ġ us
f ter
ĠëĲ ĺ
ac h
Ġ ro
ì ¤ĳ
Ġw he
ì ½Ķ
or n
Ġf irst
ëŀ Į
Ġêµ Ĳ
Ġê ¹
Ġë° °
am p
Ġin t
at er
ëį ĺ
ĠT h
ĠA l
ìĻ ¸
Ġcon t
i b
Ġìŀ ĳ
ëª ¨
ì¦ Ī
Ġre s
ëħ ¸
Ġë ķĮ
em ber
íı ¬
Ġìĺģ íĻĶ
p h
w o
ë¡ Ŀ
I n
Ġë° ©
ĠI t
íĭ °
íĨ µ
Ġ1 2
ou t
it ion
ë² Ħ
u ct
ìĸ ĳ
Ġì¶ ķ
Ġí Ĭ
en s
ìĨ į
ul t
Ġa d
en ce
ë¦ ½
im e
ë¶ Ħ
ë° Ķ
re e
Ġit s
Ġìŀ ¥
Ġt e
ì ¸
e e
Ġthe ir
í ŀĪ
ì ¢ħ
¶ Į
at es
i k
Ġìļ °
Ġë ¦
ac e
it ed
Ġ '
ì ħ
Ġ j
le ct
íĺ Ħ
ĠA r
Ġwh o
Ġë¬ ¸
ch ool
a w
Ġ ~
ar k
Ġë ©
Ġa b
ou nd
í ĳľ
Ġê ¸
Ġë° Ķ
19 9
Ġë¬ ´
ĠìŀĪ ëĬĶ
í Ĵ
Ī ¬
p l
Â ł
Ġb ut
ë¶Ģ íĦ°
p ort
íĮ Į
ê¹ Į
at h
e g
mer ican
Ġíı ¬
it e
1 8
Ġì¶ķ êµ¬
Ġ19 6
Ġon e
Ġê¹ Ģ
ol l
í Ĺ
Ġa c
Ġì µľ
Ġëħ ¸
Ġy ear
íĸ Ī
ug h
ub l
enc es
Ġa pp
ĠíĨ µ
cl ud
ëĵ ±
al ly
o ver
Ġp art
i le
il d
p t
Ġ1 1
or s
iv ers
ì§Ģ ë§Į
is s
ĺ Ĳ
Ġí İ
Ġìķ Ĭ
e b
ë² ķ
ĠìĤ¬ ëŀĮ
Ġê ·
Ġm an
Ġë¦ ¬
Ġë§ Į
ĠN ew
il m
w n
ë¦ °
ëĤ ¨
Ġë ¡
ĠëĤ ´
Ġre c
f or
ou ld
res s
íĺ ķ
Ġìĸ ´
Ġ âĢ
´ ĳ
Ġì§ Ħ
ent s
h n
Ġê² °
ë© Ķ
Ġ her
e op
Ġë Ķ
l es
Ġa g
Ġíĺ Ħ
o y
¤ Ģ
Ġê ±°
ad e
ìĬ¤ íĬ¸
Ġh ave
ë¥ ¸
Â ·
Ġp er
ìĹĲ ê²Į
o b
ol d
ur ing
Ġs c
ëŀ Ģ
ì ¼
Ġth is
ì¶ ľ
ìĦ ¤
Ġb ec
ìĭ ¤
Ġë ĺĲ
ë ¸Į
ìĬ ¹
i o
Ġt wo
R e
er n
Ġin clud
Ġal l
ì ¿
eop le
ìķ ĺ
Ġìĥ Ŀ
ĠM ar
ĠìĽ Ĳ
ê¹Į ì§Ģ
on s
ë° ľ
t e
ëŀ ĳ
íķ ©
in d
ëĤ ´
ì² ľ
as ed
ĠíĮ Į
ëı ħ
v el
Ġê° ķ
g h
o in
ê² ©
w ard
fer ences
ur n
o ot
s s
Ġo ther
ĠC om
a il
al s
Ġë¶ Ħ
2 1
ìłģ ìĿ¸
Ġë¶ Ī
ì »
Ġìķ Į
ĠìĦ ¤
ab le
Ġbe en
t ed
ing s
ĠìĹ Ĳ
ìłģ ìľ¼ë¡ľ
h ip
u ch
ìĿ´ ëĿ¼
ìł Ĳ
Ġ1 5
i ed
Ġd is
íĴ Ī
Ġa fter
Ġd es
ê ¶Į
ë¯¼ êµŃìĿĺ
Ġë Ħ
w ay
f t
Ġ19 4
Ġcom m
Ġëĭ ¹
el y
w e
ìĨ ¡
Ġë° ı
Ġa ct
o od
Re ferences
t on
Ġ19 5
ì§ ģ
Ġ im
Ġê° Ļ
Ġë° ĺ
re d
Ġë§ ģ
ìļ ¸
Ġ1 7
Ġ up
ic s
ëł ¹
Ġë¡ ľ
Ġê³ Ħ
Ġí Ĺ
ìĪ ł
Ġìķ Ī
íĥ ľ
Ġëĭ ¨
e x
r al
Ġ1 6
b all
ou th
ë¦¬ ìķĦ
ur y
ĠìĿ Į
or ld
on t
a h
ĠìĹ Ĩ
an ce
as e
íĶ ¼
Ġë§ģ íģ¬
Ġof f
ĠìĤ¬ ìļ©
Ġëª ħ
. .
ë¥ ĺ
Ġo ut
00 0
Ġn ew
Ġo ver
is hed
p e
re n
Ġ en
Ġp r
ìĻ¸ ë¶Ģ
19 8
ì ´Ī
on e
Ġì¹ ´
ëĦ ¤
ĠëĶ °
Ġìĭ ¤
Ġìŀ ¬
ëĲĺ ìĸ´
ì² Ń
ìĦ Ŀ
Ġì° ¨
ë£ Į
í Ŀ
Ġë Ŀ¼
an s
ë ĳĲ
ĠíĶĦ ë¡ľ
ĠA merican
Ġì° ¸
Ġìĺ Ī
Ġê° Ĳ
oc k
´ Ŀ
is ion
ĠL e
íķ ¨
ê ±´
r am
Ġl in
Ġint o
Ġthe y
Ġf ilm
Ġìļ Ķ
ou gh
an c
íĮ Ĳ
ê° ķ
ë ¨
ê¸ ī
ì¡ ±
Ġë ĳĲ
Ġëį °
Ġt r
íħ Į
ĠS h
g an
Ġë§ Ĳ
am es
ë¡ ł
Ġì ½Ķ
ë¦ ¼
ivers ity
ran s
ë² Ī
Ġíķ ¨
Ġë ł
ë¦ Ħ
ĠíĬ ¹
Ġs erv
Ġë° Ľ
Ġe v
ol og
Ġ und
ĠìĿ¼ ë³¸
an n
in al
ĠS p
or th
ic t
ic k
Ġì ¡
íİ ĺ
ëĮĢ íķľ
d uc
Ġg ro
Ġat t
ak e
Ġíĥ Ģ
ro ugh
B S
ëĵ¤ ìĿ´
ë² ł
al e
Ġê² Į
i x
Ġl oc
ìĹĲìĦľ ëĬĶ
í Ī¬
Ġëį Ķ
ì¿ ł
os e
Ġp re
ë³ Ħ
ë©´ ìĦľ
íķĺ ê¸°
Ġì ¢ħ
ì ¤Ģ
ìħ ĺ
E x
Ġt ime
ê°ģ ì£¼
Ġh im
ģ ´
in s
ëĵ¤ ìĿĢ
Ġì ´Ī
e ver
Ġí ħ
at t
as on
e v
Ġë Ĩ
ê¸ Ī
l l
ìĭ ¬
Ġëł Ī
i ous
Ġìĺ ¬
Ġw ork
c ess
ĠUn ited
Ġk n
ri b
ìŀ ħ
Ġë ¹
ëħĦ ìĹĲ
for m
Ġs ec
re at
ĠìĻ ¸
Ġíķľ ëĭ¤
Ġëĵ ľ
ì¸ ł
ĠìĿ´ íĽĦ
íķ Ń
Ġêµ °
a z
c ent
Ġ Z
Ġì ¦
íķĺ ê²Į
ou n
ist s
ì§ Ī
ë§ Ŀ
Ġb et
ĠC ol
ĠJ o
tern al
i el
Ġp eople
ìķ ħ
en er
Ġ1 3
ì£¼ ìĿĺ
Ġ1 4
ë³ ĳ
it ies
in n
Ġwhe n
Ġìļ ´
Ġb u
Ġs he
Ġund er
Ġê ±´
ìķ ½
c he
ê³ ¡
e at
ìĸ ¸
Ġcon s
ë§ ¤
st r
Ġëı ħ
1 0
Ġì¶ Ķ
ĠP ro
Ġì ±
in ce
Ġë² ł
a j
Ã ©
ĠI nd
Ġc ent
ëŀ ľ
į ¼
ë¯¼ êµŃ
Ġc o
if e
ot h
ëĬ ¥
Ġin d
b um
ã ĥ
ëĭ ¬
n e
Ġre g
19 7
Ġ19 3
u ary
ĠíĶ ¼
ìĤ ´
we en
2 2
íİ ¸
us ic
ê ´ĳ
ĠS c
ëłĪ ìĿ´
Ġì Ī
ul ar
d er
Ġm ore
ĠUn iversity
Ġyear s
oll ow
oot ball
us e
Ġíĸ ī
Ġp ubl
ìķĺ ëĭ¤
Ġw ould
Ġë³ Ģ
Ġlin ks
Ġë§ ¤
oc i
ª ½
ĠC l
íĸ ¥
ëĤ ľ
i er
Ġìĸ ĳ
u al
Ġìŀ ħ
ìĭľ ìķĦ
Ġfor m
Ġre t
´ ī
il y
Ġë° ķ
Ġon ly
ĠA n
Ġc an
Ġ200 6
Ġas s
l ish
id ent
ë ¹
Ġb o
Ġëª ©
ro und
Ġe st
ĠíĻ ľ
Ġí ģ¬
ìĺ Ī
Ex ternal
ĵ °
Ġc ol
ĠE ng
Ġíĥ ľ
ire ct
er ies
ìł Ģ
Ġag ain
Ġë°° ìļ°
Ġm ost
Ġst ud
Ġíĺ ¸
Ġíĺ ķ
em b
Ġd uring
Ġte am
Ġs chool
Ġí Ŀ
ëŁ ī
. "
Ġë¯¸ êµŃ
ĠíĻ Ķ
Ġs ub
ë° °
Ġs up
ìĺĢ ëĭ¤
ê² °
ëį Ķ
ëĵ± íķĻêµĲ
Ġp ol
ëł ¨
le y
a ir
an y
Ġs y
Ġwhe re
en n
Ġbet ween
ra ph
Ġ &
Ġë© Ķ
Ġí ļĮ
Ġre l
Ġë§ İ
ìľ ¡
Ġê³ ¼
ĠìĤ °
Ġíı ī
ar s
d uct
em ent
Ġus ed
ĠìĬ ¹
ëĵ ł
ëĲľ ëĭ¤
1 7
ê »
ì ª½
Ġab out
ã ģ
ì§ ĳ
Ġë³ ¸
ist ory
ì² ĺ
ìĻ ķ
ĠìľĦ íķ´
ar l
ìĦ¸ ê¸°
ion al
at ive
ìľ¼ ëĤĺ
Ġplay ers
as h
ĠìĻ ķ
ëĲĺ ìĹĪ
Ł ģ
p r
ag ue
Ġ qu
Ġd ist
ë¶ ģ
" ,
Ġre le
Ġth rough
¸ Ķ
Ġp op
ê¸ Ģ
Ġre m
Ġf l
Ġd ec
he n
Ġìł ģ
ĠSt ates
Ġal bum
over n
f ore
Ġin ter
ì¼ Ģ
Ġth ree
ĠìĹ ´
res ent
in a
ì Łģ
o ber
ëª ©
Ġ ed
Ġìŀ Ħ
Ġ )
âĢ Ļ
Ġf ound
Ġthe re
Ġì§Ģ ìĹŃ
ë³ µ
er m
ê» ĺ
ĠëĲĺ ìĹĪëĭ¤
ĠI s
ĠB r
B C
ì Ķ
Ġn um
iv er
ou se
ow er
ĠëĤ¨ ìŀĲ
t en
Ġìĭľ ìŀĳ
( )
p or
Ġë² Ī
Ġs ing
if ic
Ġthe m
ĠTh is
Ġê°Ļ ìĿĢ
ĠĠ ĠĠ
ĠS chool
Ġs o
19 6
Ġì² ł
" .
Ġì ´Ŀ
Ġl ater
1 5
ëĦ Ī
ìĽ Į
Ġ end
Ġf ollow
1 6
er man
Ġt ra
Ġm e
Ġ ra
ĠB l
ì² ł
Ġì »
ĠëĲ ľ
ëĬĶ ëį°
Ġê²½ ê¸°
í ļ
Ġthe n
íĻ ĺ
i am
iel d
er t
Ġt rans
ëĵ¤ ìĿĺ
p en
1 2
at ing
ar g
ers on
Ġ íķĻ
ìĬ¤ ìĿĺ
Ġê·¸ ëĬĶ
ëĿ¼ ìĿ´
Ġm ov
ĠëķĮ ë¬¸
Ġ200 7
ì§ ¸
c c
s on
is m
Ġë¶ ģ
Ġí ĳľ
ì ±
Ġ201 0
Ġ Q
ìĿ´ ë©°
Ġì º
ĠêµŃ ê°Ģ
Ġm ade
Ġw rit
an k
os s
Ġ200 8
Ġrec ord
Ġìķ ¼
Ġ3 0
ĠA ust
Ġs uch
Ġsec ond
ëħ Ģ
Ġê·¸ ë¦¬
Ġth an
Ġ 0
Ġíķľ êµŃ
Ġ /
v e
ĠJo hn
Ġëĭ¤ ë¥¸
ĠW orld
Ġsp ec
ar ly
Ġkn own
Ġs et
ìł Ī
Ġa m
i ew
Ġíķ¨ ê»ĺ
Ġëĭ ¬
Ġê° ģ
ĠA s
· ¨
Ġ ent
le v
og raph
Ġë ¸Į
ĠëĮĢíķľ ë¯¼êµŃ
ĠìĤ¬ ìĿ´
ëĮĢíķľ ë¯¼êµŃìĿĺ
ëĿ¼ ë§Ī
u res
vel op
ĠíĨ ł
ĠP h
ì¡ Į
ìķ ł
Ġë¯ ¼
ep t
ĠëĶ° ëĿ¼
it t
ĠW ar
ric t
it s
ì ½
Ġs ome
Ġê° Ħ
ik e
ĠC on
Ġse ason
ë¨ ¸
Ġde f
Ġëĵ ¤
Ġ201 1
Ġe lect
Ġar t
Ġ200 9
Ġíİ ¸
ê· ¼
2 3
ëŀľ ëĵľ
Ġìŀĳ íĴĪ
ìł ¸
íı ī
ĠC an
Ġ200 5
ëĵ¤ ìĿĦ
ĠF ran
iv ed
Ġë¬ ¼
Ġb l
íķĺ ë©°
ĠC ount
Ġpro v
Ġin v
Ġbe ing
el s
Ġê²Į ìŀĦ
Ġbec ame
ot her
ment s
Ġì¶ľ ìĥĿ
a x
ëĿ¼ ëĬĶ
Ġc all
ĠO r
í į¼
r on
Ġê²½ ìļ°
u ro
ī ´
ìĺ ¨
Ġ201 2
is e
Ġest ab
c om
Ġì§ ģ
st it
ut e
Ġë ĶĶ
ê· ¹
us s
Ġp h
in es
íĻ ©
Ġs ong
íĥ Ī
Ġd irect
Ġìķ ½
ay s
Ġex p
e f
Ġ2 5
Ġm on
Ġìķ ł
ur ch
Ġìĥ Ī
Ġì² ĺ
st em
ĠìĨ į
ì¶ ķ
ìŀ Ī
Ġch ar
oun c
Ġìł Ģ
1 4
Ġd o
ìĥ ī
ĠB rit
Ġw ell
ĠCom m
ul l
ã Ĥ
t t
Ġì§ ĳ
Ġst r
ĠìĦ¸ ê³Ħ
un e
Ġf am
ĠN ational
Ġì¶ľ ìĭł
ĠìŀĲ ìĭł
b y
Ī Ħ
iv ing
ver y
Ġf ootball
in ist
ëĿ¼ ê³ł
m p
Ġì² ´
íķĺ ì§Ģ
ê° Ĳ
Ġì¡ ´
Ġf our
Ġs eries
Ļ ìĿ´
ì¦ Į
ĠS he
ar n
íķĺ ëĭ¤
a i
Ġê¸° ë¡Ŀ
ĠF or
1 3
ëŁ ½
ĠP r
ĠY ork
tern ational
Ġ201 4
Ġíķ Ń
ĠP l
Ġinclud ing
Ġì² Ń
Ġí Ī¬
Ġor ig
Ġ201 3
ĠA d
Ġ200 4
íĬ ¹
ë² Ķ
Ġgro up
Ġh igh
Ġì² ľ
ĠO n
y s
Ġwh ile
i um
ow ever
Ġle ad
t il
r ist
ëĮĢ íķĻêµĲ
Ġo per
el f
Ġë Ĭ
Ġê¸ Ī
19 5
Ġman y
at her
Ġ .
Ġbe fore
ĠëĺĲ íķľ
u es
íĹ ĺ
Ġë £
ìĶ ¨
Ġad d
ĠW est
ĠM ay
et h
u k
ire d
Ġ20 00
j ect
m y
Ġs ign
Ġê ´ĳ
Ġb ro
ĠíĬ ¸
c es
s p
t y
ìľĦ ìĽĲ
| -
ut ion
ĠíĻ ķ
Ġëĭ¤ ìĿĮ
í ĮĢ
er ed
ĠìĿ´ ë¦Ħ
Ġg o
Ġm od
Ġagain st
ur al
am ed
Ġë² ķ
Ġì ¢
Ġm ed
th s
Ġë² Ħ
Ġs ur
Ġb ir
ian s
ar ri
Ġsh ow
iv es
ul ation
Ġíķ ©
ĠS outh
Ġo wn
ĠJ an
Ġë Ĵ
Ġin c
le t
Ġë ģ
Ġn o
Ġë³ µ
Ġ201 5
Ġn ame
Ġb ack
Ġê°Ģ ìŀ¥
ä ¸
ĠG erman
Ġun til
Ġg u
ot t
Ġíķĺ ëĤĺ
Ġm ain
ĠëĺĲ ëĬĶ
ic a
ĠAust ral
ëıĦ ìĿĺ
1 1
Ġc ount
ic ip
Ġê°Ĳ ëıħ
Ġnum ber
Ġíķ Ħ
íĶ ½
ê² ¬
ĠëķĮë¬¸ ìĹĲ
Ġ2 4
y l
Ġë³´ ê¸°
ìĿ´ ëĤĺ
íĥ Ħ
g ram
ì° ½
olog y
ì ³
ìĹĲ ëıĦ
Ġìł Ĳ
b orn
19 4
ëĲĺ ëĬĶ
Ġê·¸ ëŁ¬
Ġm ay
Ġde velop
Ġb oth
ĠI I
Ġ201 6
ĠìĿĺ íķ´
ìĿ´ ìĬ¤
en g
Ġì¦ Ŀ
ut h
ov e
ìĹ ´
ĠCount y
Ġare a
Ġê²ĥ ìĿĦ
Ġìĭ ¬
et s
ĠëĮĢíķľ ë¯¼êµŃìĿĺ
Ġí ŀĪ
i ent
r ad
ĠíĶ Į
ëŁ °
ĠW h
S t
Ġoff ic
Ġm usic
le ge
ĠìĦľ ìļ¸
Ġc are
Ķ ëĭ¤
Ġc ap
l ed
Ġfor mer
a id
Ġf in
it al
Ġd r
ì° °
Ġ200 3
C h
ĠC ent
íĶ Į
´ Į
ĠíĮ Ĳ
he s
ro ss
Ġìĸ ¸
ĠA t
ê° ĻìĿ´
Ġê·¸ ìĿĺ
Ġe m
aj or
Ġë ¨
a u
ar m
ê¸° ëıĦ
im es
ì° ¸
Ġ ,
Ġì¹ ĺ
Ġse ver
ĠJ u
ĠíĺĦ ìŀ¬
er y
amp ions
Ġë Ł
Ġì ½
r id
Ġíİ ĺ
a e
ë ĥ
Ľ Ī
íĿ ¬
ĠëıĻ ë¬¸
ĠìĹ¬ ìŀĲ
ĠìĤ¬ ë§Ŀ
iz ed
ĠìĤ ¼
Ġde ath
Ġëĭ¹ ìĭľ
£ ½
Ķ ëłĪ
u ally
ëĶĶ ìĺ¤
Ġg ener
overn ment
ëĦ Ĳ
ìŀĪ ëĬĶ
ë° ±
Ġd if
Ġre ce
Ġì° ½
Ġê²ĥ ìľ¼ë¡ľ
is c
ug ust
Ġí Ĥ
Ġc re
Ġ200 2
emb ers
Ġì°¸ ê°Ģ
ĠëĴ ¤
p le
ĠB ro
Ġplay ed
Ġ201 7
o ok
ĠíĻ ©
ëŀ ¨
ĠD e
ĠìĤ ´
ë¦¬ ìĬ¤
Ġ201 8
ĠíĻľ ëıĻ
str uct
Ġf eat
Ġ2 3
Ġbu ild
Ġre p
duc ed
Ġex t
Ġs m
in c
i or
om an
ĠëĦ ¤
Ġv ar
ĠG e
ĠCan ad
ag es
v ed
ìĽ ¨
ìĿ¼ ë³¸
ĠC ity
ë° ķ
are d
ĠâĢ Ķ
ĠBrit ish
Ġ2 1
Ġg ame
ìķ Ļ
ĠëĲľ ëĭ¤
Ġrele ased
Ġo pen
ain ed
ĠíĶĦ ëŀĳ
ĠìŀĪ ìĹĪëĭ¤
ĠìĽ Ķ
ĠN orth
í ģ´
Ġëª »
Ġí ģ´
ë¦¬ ëĬĶ
Ġn e
Ġê²ĥ ìĿ´
ĠG u
ĠE d
ìĿ´ëĿ¼ ê³ł
a use
i et
Ġto wn
Ġsy stem
Ġp ar
ĠìŀĪ ìľ¼ë©°
ĠN ov
ë¯¸ êµŃìĿĺ
f ess
Ġdes ign
ìĿ´ íĬ¸
ĠLe ague
Ġì ·¨
ìĬ µ
ĠíĨµ íķ´
Ġ200 1
Ġì² «
os ed
Ġë£ ¨
ĠAl l
ìĪ ľ
Ġst ation
om en
ìĿ´ ì§Ģ
iss ion
å ¤
Ġ19 0
Ġst ate
ãĢ ī
Ŀ ½
ĠD ec
s h
Ġë° ±
ir d
Ġ2 2
Ġr un
ĠB e
ĠT V
ìĬ ¬
.. .
lev ision
r and
Ġíĸ Īëĭ¤
ë³ Ģ
ept ember
on y
Ġac c
f l
ìĿ¼ ìĹĲ
ê¸° ë¥¼
Ġcall ed
ĠM an
ĠìĻ Ħ
ì¹ Ń
Ġê· ¼
ë¹Ħ ìłĦ
v en
ĠU S
ĠK ing
ê¸° ìĹĲ
Ġê°Ģ ì§Ģ
ĠR e
Ġìĭľ ì¦Į
ì¡ ´
Ġan n
ĠìľĦ ì¹ĺ
ì¶ Ķ
Ġl ong
ê· ľ
h am
ĠC al
r is
ê·¸ ëŀ¨
v ent
ëĭĪ ìķĦ
Ġ X
ĠA ugust
Ġpol it
Ġ2 8
íļĮ ìĿĺ
ib le
Ġíı¬ íķ¨
an ge
ëĤ ł
Ġw on
Ġo b
o x
ĠìĪĺ ìĥģ
ĠA ss
ĠA m
Ġs ame
Ġ2 6
ĠìĿĮ ìķħ
¤ Ħ
ct ober
Ġë¦¬ ê·¸
Ġret urn
ward s
ë¦¬ ê·¸
ë¦¼ íĶ½
Ġsever al
Ġb as
Ġëı Į
il t
Ġì¡° ìĦł
Ġí ļ
F A
ĠE uro
å ®
Ġì¶ ©
il ity
ë Ŀ½
ĠâĢ ĺ
t he
am b
ĠìĿ¼ ë¶Ģ
S ee
ì ´Į
Ġcont in
ĠMar ch
ì¡Į ëĭ¤
Ġìļ ©
A merican
ĠìĹ° êµ¬
pr il
re nt
ìĿ´ ìħĺ
ist or
Ġìłķ ì¹ĺ
Ġ2 7
oin t
a f
2 5
ëĬĶ ëĭ¤
ak ing
Ġ20 19
Ġíķ ł
ë¶ Ī
Ġde p
ĠìĦ¤ ë¦½
Ġw ill
al es
r ing
f ul
Ġa ir
Ġl ife
ĠíĮ ¨
ì¦ Ŀ
ĠìķĦ ìĿ´
ë ´ī
ìĭľ ìĿĺ
íĭ Ģ
y le
ial ly
st er
ë¡ Ģ
Ġs uc
ë¦¬ ë¥¼
Ġpubl ic
ĠS eptember
Ġm at
Ġe arly
ain s
Ġor gan
Ġíħ Į
Ġpro gram
Ġì ¤Ģ
l ished
ograph y
ĠìĪ ľ
Ġn ear
ë Ķ
ë¦ Ń
ĠJ une
un g
Ġ20 20
re en
ìĬ ¨
k m
19 3
y n
ĠC ar
ì± ħ
ëŁ ¼
ë ģ
ro p
Ġcl ass
íĻ ľ
Ġb el
k e
ĠH igh
al ity
ĠJu ly
å ħ
Ġê ¶Į
Ġë³ ĳ
Ġê·¸ë¦¬ ê³ł
ĠF l
ê² ĥ
ang u
ure d
ro w
íļ į
er g
ĠìĿ Ģ
eb r
ĶëłĪ ë¹ĦìłĦ
T V
Ġfollow ing
Ġthe se
Ġì¹ ľ
± ¸
Ġê·¸ëŁ¬ ëĤĺ
ĠJan uary
Ġë°© ìĨ¡
Ġëĵľ ëĿ¼ë§Ī
ĠO ctober
Ġdis c
ĠìĨ Ĳ
ĠW ill
Ġcl ub
il it
Ġë§İ ìĿĢ
Ġb and
Ġst art
ĩ ¼
ĠCh rist
i ence
Ġcomm un
Ġëĵ¤ ìĸ´
Ġc ur
at or
Ġan y
an e
ì§Ģ ëĬĶ
O n
ap an
ĠE x
Ġm in
Ġch ild
ĠC o
Ġìłľ ìŀĳ
cent ury
ĠêµŃ ìłľ
Ġí ĮĢ
= "
ĠSt ate
ic es
ce pt
ë§ ī
ì ĵ°
id ed
es e
Ġg ames
âĢ Ŀ
Ġfam ily
re t
Ġë§Į ëĵ¤
il le
Ġ199 9
Ġus e
Ġcare er
ĠA pril
ìĿ´ëĿ¼ ëĬĶ
Ġíķĺ ëĬĶ
ë ¸Ķ
Ġhe ad
an ts
ëĮĢ ë¡ľ
ìĦ ¼
ìķĦ ìŀĪëĬĶ
ec hn
Ġì £½
ì¸ µ
on om
ĠëĨ Ĵ
Ġì± Ħ
Ã ¡
ĠN o
ĠíĶĦë¡ľ ê·¸ëŀ¨
ampions hip
od e
u ed
or m
ĠëĮĢ íķ´
Ġv ers
Ġí Ĵ
ĠS e
Ġs ince
Ġp res
ĠR eg
Ġê²ĥ ìĿ´ëĭ¤
Ġc ity
Ġì ĵ°
or ts
ĠP ol
ë§ Ĳ
ĠR ep
k et
Ġal ong
ical ly
ĠS w
ĠB ar
ĠThe y
¸ ìĹħ
ĠEng lish
Ġìº Ĳ
Ġpop ulation
ect ion
ë Ĥ¬
Ġ18 9
ĠìĿ´ ìĥģ
íĦ ´
Ġp ass
Ġl and
end ed
æ Ŀ
is ed
ĠãĢ Ī
Ġ2 9
5 0
Ġí ģ
2 4
Ġapp ear
iv al
ĠR ec
Ġs im
Ġres p
ec ts
Ġe ff
ĠT r
Ġcomp le
) :
íĸĪ ê³ł
Ġt it
ĠA f
ĠìĹŃ ìĤ¬
or ks
ac ks
Ġìĭ Ŀ
ord s
ĩ ´
ac ed
Ġw e
íĥ Ŀ
ëĲĺ ê³ł
ĠM c
ĠìĤ¬ íļĮ
igh ts
Ġë ĸ
Ġn amed
Ġìĺ¬ ë¦¼íĶ½
ĠR o
íķĺ ë©´ìĦľ
íĹ Į
uc k
ëıĦ ë¡ľ
Ġb ased
Ġy ou
ĠA nd
l ing
Ģ ë¡ľ
Ġì ¼
Ġ199 8
Ġíħ ĶëłĪë¹ĦìłĦ
ĠDec ember
ĠNov ember
ëħĦ ëĮĢ
Ġm embers
ìĿ´ ìĹĪëĭ¤
ìĤ´ ìķĦìŀĪëĬĶ
ec h
íĺ ģ
ĠEuro pe
f ord
ê² ¨
ĠH ar
Ġë ī´
ĠìłĦ ìŁģ
ĠA fter
ì º
Ġdes c
ĠíĤ ¤
a ugh
Ġbe gan
Ġd id
Ġëĭ¤ ìĭľ
duct ion
ì§ ķ
Ġestab lished
m e
Ġo cc
in ess
ì» ¤
Ġ [
ì³ Ĳ
c k
ëĮĢ íĳľ
ĠíĹ Ī
b le
av ing
ëħ Ĳ
Ġëıħ ìĿ¼
n er
ĠìŀĪ ìĹĪ
Ġë¯¸ êµŃìĿĺ
ur g
Ġ â
v iew
in t
ìĬ¤ ëĬĶ
Ġ1 00
Ġsm all
ĠE ast
Ġe ach
ĠíĻ į
ebr uary
íķĻ ìŀĲ
et er
ë¦¬ ì¹´
Ġëª¨ ëĵł
ì» µ
ìķ Ķ
s ide
ĠP ar
Ġp rom
Ġl ist
Ġcent ury
p s
Ġm ajor
ë ĳ
ĠëŁ ¬
3 0
Ġen g
Ġ199 0
Ġloc ated
Ġm en
Ġëª¨ ëĳĲ
ĠâĢ ľ
ĠìĹ¬ ëŁ¬
a ul
Ġman ag
ĠGe or
at s
ĠìľĦ íķľ
ĠëĮĢ íķĻ
Ġsup port
íĺ ĳ
ren ch
Ġíı Ĳ
ìĬ¤ íĦ°
our n
ĠH is
o o
ë³´ ëĭ¤
al d
ê°ľ ìĿĺ
re w
ì ´Ŀ
Ġb us
r act
ĠP art
Ġì¤ĳ êµŃ
ëĭ ´
ì µľ
ĠCol lege
ĠìķĦ ëĭĪ
ard s
en e
ë¡ľ ìĦľ
Ġì²ł ëıĦ
ĠA b
ê³ ¨
Ġs l
Ġê· ľ
at a
íķ Ħ
ìĬ Ī
ìĿ´ ìŀĲ
ãĢ Ĭ
qu e
ĠA ir
Ġim p
í ĽĪ
id es
Ġsing le
Ġl aw
ĠP ark
Ġpl ace
ë§ ģ
ĠCom p
T h
ìĹ Ķ
Ġíģ °
Ġ20 21
Ġìłķ ë¶Ģ
íĺ ¼
Ġh ome
ëł ¸
ĠëıĦ ìĭľ
Ġt erm
Ġv ill
Ġc ar
l in
íķĺìĺĢ ê³ł
ad em
Ġn ow
al th
ĠS y
ĠíĻ ĺ
et y
Ġg overnment
et t
iv ision
Ġ <
ff ic
ond on
Ġm et
Ġì ¿
íĬ¹ ë³Ħ
ar ge
ĠE n
ë° Ľ
ore d
Ġêµ¬ ìĦ±
Ġp erson
Ġbir ths
ĠT e
ĠëĮĢ íĳľ
ro l
A l
Ġw orld
ìĿ´ ê³ł
Ġìĺ ¨
ĠìĿĮ ë°ĺ
ë¨ ¼
in o
( ,
ìĤ¬ ë¥¼
it ions
Ġìļ° ìĬ¹
Ġn ational
Ġ199 6
ĠC up
ì¹ ľ
ĠJ apan
Ġte levision
ëį ķ
Ġíĺ ĳ
at ic
ĠE l
íĮ ¨
Ġìľ ¡
ìł ĳ
Ġdif fer
os ition
m ed
Ġa round
our t
ĠF ebruary
at ure
y p
Ġsuc cess
id d
Ġc ould
ë¦¬ ìĹĲ
un icip
íĨµ ëł¹
Ġfilm s
ĠìĦł ê±°
re et
s c
Ġloc al
Ġë ¸Ķ
Ġëĵ± ìŀ¥
ac es
Ġì ¸
v ers
Ġo ld
ear ch
ëŀĢ ëĵľ
Ġplay er
Ġl ast
Ġ199 7
Ġê³µ ìĭĿ
un ct
Ġê² Ģ
æ ľ
Ġì¡ ¸ìĹħ
an a
ìĦ± ìĿĦ
Ġl ine
ĠH owever
H e
ë¦¬ ì¦Ī
ê±° ëĤĺ
ëı Į
ac ter
ubl ic
ow s
ĠëĨ į
ide o
ìŀ¥ ìĿĦ
is on
ing ton
Ġê¸ ¸
uth or
Ġp o
ìĥģ ìĿĦ
ä º
ìľĦ ë¥¼
ìĿ´ ëĬĶ
Ġle g
Ġì²ĺ ìĿĮ
2 8
it er
Ġbu ilt
ain t
Ġcomp any
ëĮĢ ìĿĺ
Ġm ember
Ġê°Ģ ëĬ¥
ìĽ Ģ
ë ĪĦ
2 6
ĠD av
ill ion
ëį ¸
Ġhe l
ìľĦìĽĲ íļĮ
Ġ18 8
ak es
Ġre f
ë°© ìĨ¡
ëł Į
ë¦¬ ê°Ģ
ar a
ĠìķĮ ëł¤
a us
Ġre st
c o
ĠM ed
ĠH er
2 7
Ġd ue
ë ·
ìŀĲ ê°Ģ
Ġe p
Ġc r
at ely
ëĤĺ ëĿ¼
Ġë¬¸ íĻĶ
ë£ ¹
Ġcomp et
ãĢĭ (
ed er
ë Ĩ
Ġê°ľ ë°ľ
oci ation
ĠìĿ´ ìļ©
ĠL ondon
al k
ë° Ģ
ĠM e
Ġhe ld
ent ly
Ġì¡´ ìŀ¬
ìĸ´ ì§Ħ
if ied
ĠA ng
ì§Ģ ë¥¼
Ġle ft
ex t
ĠC or
ĠS up
Ġpubl ished
Ġto ok
ëĵ Ŀ
che s
Ġ199 5
é ĩ
Ġê ±¸
Ġëħ ¼
ĠëıĻ ìķĪ
d ay
Ġëģ Ŀ
um b
Ġ3 1
Ġn orth
ìĿ ĳ
ìĿ´ ìĹĪ
ĠíĶĦëŀĳ ìĬ¤
od y
íĥĪ ë¦¬ìķĦ
Ġê²° ê³¼
th ough
ilit ary
ï ¼
2 9
ì° ©
ĠF C
ëĮĢ íķĻ
Ġ198 0
ĠY ou
Ġê´Ģ ê³Ħ
ĠD r
¶ ģ
Ġ |
in k
r ation
Ġìķ ŀ
ìĿ¸ ìĿĺ
Ġ20 22
êµ° ìĿĺ
ĳ ¸
i od
op h
a im
ad io
ĠWill iam
ìĨ Ĳ
Ġë ŀ
ĠëĮĢ íļĮ
Ġf inal
Ġë¬¸ ìłľ
Ġc amp
ê³ł ëĵ±íķĻêµĲ
ast er
t o
p ed
Ġd own
om in
ĠìĿ¼ ë°ĺ
ĠD ist
Ġëĵ± ìĿ´
Ã ¼
iv en
ĠPh il
Ġed uc
Ġbec ause
Ġê´Ģ ëł¨
ëħĦ ë¶ĢíĦ°
ĠìŀĲìĭł ìĿĺ
ëł¥ ìĿĦ
ord ing
Ġìĺģ êµŃ
ĠS ec
ë¡ľ ìļ´
ie f
Ġìľ ¤
Ġj oin
a ur
u f
ë¶Ģ ë¶Ħ
Ġserv ed
ĠìĤ¬ ê±´
ĠëĤĺ íĥĢ
enc y
ĠìŀĪ ìĸ´
att le
Ġev ent
ra ft
ìĺģ íĻĶ
ìĬ¤ íĥĢ
Ġh istory
å Ń
. ,
ĠAf ric
ë² Į
iz ation
ect ed
in ed
ĠëĮĢ íĨµëł¹
angu age
Ġ5 0
Ġp resent
ê¸° ìĿĺ
l ine
ĠìĬ Ī
201 0
Ġd et
Ġd ay
ìĭľ ìĹĲ
Ġinclud e
um ent
ľ ĺ
ĠìĿ´ ë£¨
Ġs ix
Ġpro fess
ĠíĻ Ī
Ġ199 4
l er
200 6
Ġí ŀ
Ġcons id
Ġt ri
ê° Ŀ
ĠìĹ Ķ
ĠK BS
ĠF rench
Ġíķĺ ìĺĢëĭ¤
Ġl arge
on es
ìľ ¨
ĠìĨ ¡
Ġsh ort
ounc il
Ġre qu
Ġëĵ± ìĿĺ
ĠThe re
íĶĦ íĬ¸
Ġapp ro
he m
Ġì¦ ī
ĠG l
Ġf ive
ly mp
´ ´
Ġor der
ĠA ct
ìĺ ¬
ìĤ ¼
ì°¸ ê³ł
ĠìĻ Ģ
st e
Ġp ower
Ġë§ ŀ
Ġíı Ń
. )
re g
Ġorig inal
Ġë³ Ħ
Ġê²ĥ ìĿĢ
Ġdist rict
ri end
if orn
um an
ĠìĦ Ŀ
H istory
ĠëĤ ł
Ġë°ľ ìĥĿ
Ġê· ¹
ìĹ ĺ
í ģ
ĠR iver
inn ing
Ġë²Ī ì§¸
Ġìł ĳ
Ġa v
® ¤
t al
Ġinclud ed
z e
Ġre fer
iv ely
Ġb orn
ĠR uss
Ġë ĳ
Ġl arg
ĠAustral ia
Ġm ark
ì° ¬
Ġst and
o on
ĠíĹ ¤
Ġwith in
Ġj ust
le g
iforn ia
Ġëĭ ´
ĠìĦ¤ ì¹ĺ
Ġre pl
Ġë°ľ íĳľ
t ain
ĠëĮĢ íķĻêµĲ
Ġ $
Ġë§ ¡
Ġde b
Ġ ...
n ess
ĠêµĲ ìľ¡
ĠS ch
ĠR es
Ġs aid
n a
ur ther
Ġ199 2
ì¶ ©
Ġìĭ ±
Ġrece ived
Ġë° Ģ
Ġres ult
ĠIt al
į ¨
ĠEng land
ĠH ouse
Ġë ľ
um n
Ġan other
ĠIn ternational
ëĭĪ ë©Ķ
Ġ if
ĠM ich
Ĳ ëĭ¤
k i
ìļ° ìĬ¤
4 0
ĠA g
Ġw omen
ĠA c
Ġíĸ ¥
arri ed
Ġf r
ĠìłĦ íĪ¬
Ġbo ok
200 0
it ar
Ã Ń
Ġl a
Ġst yle
Ġdiffer ent
ë¡ľ ë¶ĢíĦ°
om b
ìŀĲ ìĿĺ
ëıĦ ë¡Ŀ
Ġì§Ħ íĸī
ê° Ī
ë¬¸ íĻĶ
Ġëĭ Ī
ĠëĿ¼ ìĿ´
c ast
Ġst ill
Ġn on
ëŁ¬ íķľ
ee k
6 0
Ġìŀ ĺ
íĤ ¨
Ġ18 7
ac y
Ġê³µ ê²©
Ġl ike
v es
Ġth ird
Ġë³ ¼
ë¦¬ ìĿĺ
Ġê°Ģ ìĪĺ
ìĬ¤ íħ
ë¹Ħ ìķĦ
Ġto p
Ġadd ition
Ġs outh
Ġë°ľ ê²¬
et her
Ġë°ľ ë§¤
Ġchar acter
Ġd em
íķĺ ë©´
ĠìĹĨ ëĭ¤
Ġ197 0
al t
Ġì¢ ĭ
ë¥ ł
i us
íĸĪ ìľ¼ë©°
er ing
Ġpro t
Ġs on
d om
ĠìĿ´ ìłĦ
U n
C A
um mer
our s
Ġìĭľ ê°Ħ
Ġper form
os p
v ious
oc ial
ĠCal ifornia
e al
ur s
her n
ë²Ħ ì§Ģ
Ġê· Ģ
Ġk ill
Ġ199 3
ëĭ Į
ì¸ ¡
Ġvers ion
m s
op s
ĠS an
ë ķĮ
ìĭľ íĤ¤
ëĭĪë©Ķ ìĿ´ìħĺ
Ġchild ren
ĠìĿ´ ìĸ´
Ġìķ ¨
ëĤ¬ ëĭ¤
Ġd ied
ĠM on
Ġw ater
Ġì£¼ ìŀ¥
ĠP er
land s
Ġcur rent
Ġw ar
Ġdesc rib
Ġì¤ĳ ìĭ¬
Ġ very
ĠL a
ĠAr t
íķľ êµŃ
200 7
200 8
ĠInd ian
Ġf ac
re st
Ġserv ice
Ġë§ ī
Ġíļ ¨
Ġad v
Ġc or
Ġn ov
Ġe qu
Ġìĺģ íĸ¥
Ġtr ad
Ġë ĪĦ
Ġê²½ ìłľ
Ġ199 1
b o
ê· ł
ĠCh ampionship
Ġper iod
ëªħ ìĿĺ
Ġê³ ³
Ġp ost
k y
ĠCh urch
a el
Ġof ten
ĠìĿ´ ëĬĶ
ìĹŃ ìĤ¬
ĠìĽĶ ëĵľ
ug g
Ġst at
Ġe ast
ëĵ¤ ê³¼
ë²Ī ì§¸
ener al
Ġw eb
Ã ³
oy al
Ġbuild ing
Ġí Ħ
Ġê¸° ìĹħ
ep end
ë¯¼ ì£¼
ëħĦ ìĹĲëĬĶ
Ġì¿ ł
Ġì§Ģ ë°©
Ġ4 0
ìĿ µ
ê¸ ¸
Ġad m
Ġh and
Ġv is
ĠCanad a
Ġì» ¤
201 1
al f
ad y
Ġê³ ¨
âĢ Ķ
Ġinc re
Ġíĸī ìłķ
Ġw est
ë ĸ
Ī Ī
Ġê° ĸ
Ġì¶ľ ìĹ°
Ġis s
íļ ¨
Ġre port
ir l
k a
ê¸° ê°Ģ
ort hern
Ġì± ħ
w ork
in ing
Ġì¼ Ģ
Ġm unicip
he l
Ġth ough
Ġë³Ģ ê²½
art ment
Ġs old
Ġê¸° ìĪł
u it
£ Ħ
íĴ į
u el
Ġbe g
Ġrep resent
ĠB o
201 2
Ġm ale
oci ety
Ġë² Ķ
ë§ ¹
ìĻĢ ìĿĺ
Ġa uthor
200 9
Ġt urn
Ġvill age
Ġo pp
Ġì ¤Ħ
ĠG ro
Ġcon struct
ë¡ľ ëĬĶ
ĠP res
Ġìķ Ķ
ol ic
A r
ìĸ µ
Ġh ouse
Ġë° Ŀ
Ġorig in
ber t
ê¸° ëĬĶ
o f
ĠDist rict
g round
en se
ë¹ Ī
ap p
ĠìĿ´ ëŁ¬íķľ
ic o
lect ion
Ġa ff
Ġì¤ĳ ìķĻ
ĠìĿ¸ ë¬¼
ê¹ Ģ
ì´Ī ëĵ±íķĻêµĲ
Ġl ed
Ġëį° ìĿ´
Ġcon c
Ġìļ´ ìĺģ
s ite
ĠìĿ¸ íķ´
ĠìĬ¤ íĥĢ
ìĿ´ ëĵľ
ĠA ward
200 5
Ġê¸° ì¤Ģ
ĠëĲĺ ìĸ´
Ġev en
íĿ ¥
a ff
Ġbus iness
Ġê³ ¡
Ġbe st
Ġcount ry
pl oy
iz e
Ġìµľ ì´Ī
Ġstud ents
Ġs ide
Ġëĵ± ìĿĦ
Ġ ĠĊ
Ġíķĺ ê³ł
ut ed
Ġs ite
ë¦¬ ìĬ¤íĬ¸
0 1
form ation
201 4
ĠìĨĮ ìĨį
Ġc over
Ġì°¸ ìĹ¬
m m
rid ge
ìĦľ ëĬĶ
as es
ìłķ ìĿĦ
ĠS m
Ġ ec
ìĦ± ìĿ´
Ġth ose
ĠëĮĢ ë¶Ģë¶Ħ
Ġëħ¸ ëŀĺ
Ġann ounc
Ġl ate
al ign
or ies
le x
es p
ìĤ¬ ê°Ģ
êµ¬ ìĿĺ
Ġset t
Ġm ag
ë¥´ íģ¬
A n
Ġmov ed
Ġì§Ģ ìĽĲ
Ġ =
ãĢ į
Ġìł Ī
0 7
ĠO ne
n ey
ĠQ u
ĠSt reet
Ġì§ Ī
Ġ el
use um
Ġc rit
op e
Ġar ch
us h
Ġf ield
ĠëŁ¬ ìĭľìķĦ
Ġex per
Ġsp e
ĠA mer
ëħĦ ê¹Įì§Ģ
ì¹ ¨
Ġë© ´
ĠInd ia
ìĭ ±
ìĽĶ ìĹĲ
ìĹĲìĦľ ëıĦ
í ĩ´
ľ ´
r ight
Ġd el
Ġíĥľ ìĸ´
Ġpro duced
Ġp ort
Ġëıħ ë¦½
Ġestab lish
Ġtit le
Ġp oss
ëĲĺìĹĪ ê³ł
ĠCh ar
ìľ ¤
f ield
ĠF I
Ġp at
ol ution
ri pt
ë² ¨
æ ĸ
ĠìĿĺ ë¯¸
o ff
Ġw in
Ġf ore
Ġìķł ëĭĪë©ĶìĿ´ìħĺ
201 3
Ġí ĭ
Ġep is
íĻĶ êµŃ
iv il
Ġíķĺ ì§Ģë§Į
Ġë¨ ¸
Ġm ake
ì¿ Ħ
re am
and er
ri es
ê· Ģ
ëĵ¤ ìĹĲê²Į
201 5
Ġle vel
Ġc ult
Ġam ong
Ġë§Ī ìĿ´
' t
Ġch ang
ìĤ¬ ìĿĺ
Ġv al
o le
Ġcomm on
Ġc ame
Ġf e
r ay
Ġwrit ten
Ġíĸ Ī
ĠH ol
ìĪ Ļ
ĠêµŃê°Ģ ëĮĢíĳľ
0 3
íĮ ħ
Ġall ow
Ġf ather
ê´ĳ ìĹŃ
ë¦ ´
Ġë ´ī
ĠAr my
av y
å ı
Ġíĥ Ī
ìĬ¤ ë¥¼
ëĤ¨ ëıĦ
ĠM BC
Ġìĸ »
ap e
ir c
Ġf act
Ġro le
Ġ18 6
ĠìŀĲ ìľł
Ġb re
Ġ198 9
Ġìłķ ë³´
ëĬ Ĳ
ë¨¸ ëĭĪ
Ġ198 7
Ġh istor
Ġëĭ¤ ìĸĳ
Ġact iv
Ġëľ »
Ġex pl
ì į¨
Ġê° Ī
Ġm uch
ot es
ëĬ ĺ
ìĦľ ìļ¸
Ġs w
ĠìĿ´ ë¥¼
ë§ ¨
ë ī´
Ġ198 8
am a
ĠìĥĪ ë¡ľìļ´
íĭ ´
Ġë¡ľ ë§Ī
ĠO lymp
Ġëĭ¤ìĿĮ ê³¼
Ġwh at
201 6
Ġìľł ëŁ½
Ġra il
Ġt echn
Ġinv ol
Ġê·¸ ë£¹
Ã ¶
c ed
ì» ¬
200 4
Ġt em
ĠĠĠĠ ĠĠĠĠ
ot e
ìĬ¤íħ ľ
c hed
ìļĶ íķľ
re m
ĠP ort
Ġv oc
ĠRo ad
ì¶ľ ìĹ°
Ġìĭľ ëĮĢ
Ġsh ip
d e
ëł ī
Ġspec ies
ther n
ìŀĲ ë¥¼
Ġì¸ ¡
ĠìĥĿ ê°ģ
om et
Ġê²° ìłķ
Ġf re
ĠP aul
Ġeng ine
ĠìĪĺ ëıĦ
ìŀĲ ëĬĶ
v ille
h a
ĠìķĦ ëĵ¤
ourn al
Ġêµ¬ ì¡°
Ġim port
ë³ ¼
ĠìĿ¼ë³¸ ìĿĺ
Ġpre vious
ê³¼ ìĿĺ
ìĹĪ ê³ł
ĠN or
ĠD ep
ĠDav id
Ġto tal
c ol
ĠR oman
ict ion
Ġg iven
ĠR ober
Ġë¶Ģ ë¶Ħ
ì¡° ìĦł
ber g
ëĲ ł
Ġin ternational
ĠR ed
Ġoffic ial
ĠM y
ìĭľ ì¼
ou thern
ree k
ìĺ ¥
ë· Ķ
for man
ĠL ou
Ġyou ng
it z
Ġ et
s elf
Ġ196 0
Ġpop ular
b ack
iv id
Ġì ĩ¼
Ġì¹ ¨
ĠM or
ag o
ĠíĥĢ ìĿ´
Ġbec ome
ì¹ ¸
Ġs it
Ġv ol
m ing
Ġê·¸ ëħĢ
ĠAustral ian
ĠB y
ëł¸ ëĭ¤
Ġw ent
F C
Ġa ge
er a
P eople
por ts
Ġëª© ë¡Ŀ
it or
ìļ ķ
ot s
Ġ Ã
ìĬ¤ ê°Ģ
Ġì½ ĺ
Ġan t
itt le
ar i
ĠV al
ĠJ ames
an ish
ĠAmer ica
C om
ĠìĿ¼ ìĸ´
Ġíĺķ íĥľ
Ġpro cess
ĠQ ue
ê°Ģ ì§Ģ
ĠGeor ge
0 6
Ġvar ious
Ġì ħ
ëıĦ ë¥¼
ëĭ ĺ
Ġe very
ĠR ich
ëĭ Īëĭ¤
ĠB el
ĠRec ords
Ġíĥ Ħ
Ġint ro
es c
stit ute
Ġíı ´
Ġpr im
ì± Ħ
ent ion
ic le
Ġìĭľ ë¦¬ì¦Ī
i ber
å Ĳ
N A
Ġv ideo
Ġh ost
e h
Ġê°Ļ ìĿ´
Ġìķ ħ
il ar
ìĬ¤ íģ¬
am ent
Ġë°° ê²½
ĠAss ociation
Ġre ad
ab or
Ġíĺ ¼
un n
an ia
le ment
ĠS ing
ar ch
ìĹ ¼
ur b
ëª ¬
Ġcommun ity
ĠR ev
Ġgener al
Ġt w
ĠP ress
Ġ( )
201 7
æ °
ip p
Ġh aving
Ġm illion
Ġro ad
Ġin it
Ġ198 6
ĠìĤ¬ ìĭ¤
ĠTh om
ĠPart y
anc es
Ġf ew
ĠìĹĨ ëĬĶ
Ġn ext
Ġopen ed
Ġus ing
ç Ķ
ĠP al
ì ¢
ĠëĤ ľ
ro te
ĠêµĲ ìĪĺ
ëĤĺ ëĭ¤
ìŀĲ ë¡ľ
ra in
ë¶Ģ ìĿĺ
ĠìĹ¬ ìĦ±
Ġìŀ ¡
ī ê¸Ģ
ë¥´ ëĬĶ
íĸĪ ëįĺ
im ent
ìļ´ ëĵľ
ĠH all
Ġw ay
ĠFran ce
Ġpro p
ĠB as
Ġìµľ ê³ł
ìķ¼ ë§Ī
b or
ĠíĬ¹ íŀĪ
201 8
ĠìŀĲ ë£Į
ĠA nt
her s
Ġê¸ ī
0 5
Ġw orks
ìķ Į
olog ical
ĠìĬ¤ íİĺ
ĠìĿ´ íĥĪë¦¬ìķĦ
Ġìĥģ íĥľ
ĠSt ud
å ·
Ġìķ¼ êµ¬
Ġa ward
íı ´
Ġstr uct
ĠìĤ¬ ëŀĳ
ist er
Ġ íķĻêµĲ
ac hed
st on
ĠìĹ ħ
4 8
ëį ´
Ġstart ed
íķĺìĺĢ ìľ¼ë©°
e an
ĠìľĦ ìĽĲ
å ľ
íĺ¸ ìĦł
Ġë°Ľ ìķĺëĭ¤
Ġcre ated
Ġh ig
ëĲĺìĹĪ ìľ¼ë©°
Ġst ory
Ġspec ial
ra w
Ġìļ´ ëıĻ
ìŀĲ ìĿ¸
ĠìĿ´ ìĹĲ
ì²ĺ ëŁ¼
ĠD ivision
Ġg reat
Ġë ¥
Ġì§Ħ ì¶ľ
Ġ198 4
200 2
Ġíķ´ ëĭ¹
ĠM usic
Ġs k
ĠE m
og n
Ġcl aim
in ation
A R
o or
i ol
Ġpro duction
ir on
ê±° ë¦¬
Ġì° ¾
idd le
Ġg rad
ĠìĹ ĺ
Ġt ake
ak en
ĠìĿ¸ êµ¬
Ġh owever
0 8
Ġpro duc
ìĹ Ħ
ec ut
ĠC ouncil
Ġdevelop ment
Ġalbum s
Ġ198 5
å į
P ro
200 3
í ŀ
ë¯ Ģë¡ľ
ĠM al
Ġg l
Ġì§Ģ ìłķ
Ġs ent
lect ed
êµĲ ìľ¡
est s
Ġdeath s
wo od
Ġbro ad
w est
íĺ ľ
Ġschool s
ì¹´ ìĿ´
ĠW hen
Ġreturn ed
amp le
Ġm ilitary
ra b
å¤ §
Ġëħ¸ ìĦł
ìĿ¸ ë¯¼
ìľ¼ë¡ľ ëĬĶ
Ġco ach
A s
Ġt imes
ìĹĲìĦľ ìĿĺ
Ġê°Ģì§Ģ ê³ł
ĠëĦ ĺ
se qu
Ġìĸ´ ëĸ
Ġp ri
Ġsong s
Ġë°Ľ ìķĦ
at ors
0 9
å °
Ġìłľ ê³µ
ëĮĢ ë¥¼
Ġcon f
Ġcon n
0 2
ìĹ° êµ¬
íĻ į
Ġm ult
ĠìĦ± ê³µ
ìĭĿ ìĿĦ
Ġst ar
ìĿ¼ë³¸ ìĿĺ
ĠêµŃê°ĢëĮĢíĳľ íĮĢ
ëĵľ ëĿ¼ë§Ī
Ġë² Į
ĠíĶĦ ë¦¬
ĠC ath
Ġannounc ed
Ġgu itar
il es
ëªħ ìĿĦ
Ġì¹ ¼
id a
ĠëĮĢ ìłĦ
Ġf em
ĠR oyal
u le
ìĿ¸ ìĿ´
ĠBl ack
ëłĪ ìĬ¤
Ġê¸ Ģ
at ch
ĠíĦ °
Ġê±° ì£¼
Ġt er
ł ëĭ¤
Ġëį° ë·Ķ
l ess
un t
ì¤ĳ íķĻêµĲ
īê¸Ģ ëŀľëĵľ
ut es
ë²Ħ ìĬ¤
ĠìĥĿ ìĤ°
ri an
ĠìķĦ ë²Ħì§Ģ
y a
Ġê³Ħ ìĨį
fl u
Ġf ull
ĠB er
Ġcom b
Ġ198 3
í ľĺ
y pe
ëĲĺ ì§Ģ
ĠGerman y
n ow
íĺ Ģ
Ġs ol
Ġp e
ê²½ ê¸°
íķĻ ê³¼
ĠG eneral
Ġë§¤ ìļ°
S T
ĠCl ub
Ġbe h
Ġìĭľ ìłĪ
ĠCanad ian
Ġweb site
fer ence
L iving
ëŀ µ
ĠM ag
ìĻ Ħ
ìľ¼ë¡ľ ìĦľ
Ġro und
h an
ìķ ķ
Ġse e
ìĥ Ī
ìĭľ ë§Ī
ĠìĿ¸ íĦ°
A fter
ĠëłĪ ìĿ´
ĠëıĮ ìķĦ
ĠëĶ ¸
x t
ê ´´
ĠìĿ´ ê²ĥ
ĠD uring
ĠM art
å ±
ĠìķĬ ìķĺëĭ¤
il i
3 5
u ff
ĠíĽĦ ë³´
Ġwith out
20 20
Ġreg ion
Ġë¹ Į
ê¸ ´
ĠUn ion
ëªħ ìĿ´
Ġapp e
ê ¶ģ
Ġne ed
r ack
ĠThe se
Ġê³µ ëıĻ
Ġre n
¿ Ĳ
Ġl im
inist er
Ġp osition
ĠìŀĪ ê³ł
ash ington
Ġ198 2
20 19
Ġcont rol
ì £Ħ
ĠEurope an
ëŀ Ļ
Ġatt em
Ġì£¼ ë¡ľ
Ġf riend
Ġin f
Ġë¸Į ëĿ¼
ĠìŀĪ ëįĺ
our ces
Ġìŀĳ ê³¡
ĠKing dom
Ġpolit ical
Ġare as
ĠêµŃ ë¯¼
ê¸° ë¡ľ
oc r
I I
ìº Ĳ
Ġìĭ± ê¸Ģ
ë¶ģ ëıĦ
ill s
at ter
ê°Ģ ìĻĢ
ĠComp any
ib r
i ography
l o
Ġì¡° ì§ģ
200 1
ĠìĿ´ ìķ¼
u ce
Ġw rote
0 4
ĠìĦ ¼
ìĸ´ ë¡ľ
ìŀ¥ ìĿ´
ĠB ra
y m
ell s
ĠP at
ket ball
ĠíĹ Į
ap er
ain ing
ic ular
P l
ĠFI FA
et work
Ġr ight
ĠìĨĮ ìŀ¬
Ġf ind
Ġbro ther
ĠN e
Ġpr act
Ġsim ilar
Ġ198 1
Ġê³ł ëł¤
Ġch urch
Ġjoin ed
Ġal ign
Ġper forman
Ġp oint
ĠìĦ ¬
Ġd est
C l
it her
y ear
way s
ĠT ex
Ġìķ¨ ë²Ķ
y d
eb all
Ġg en
on a
Ġconsid ered
Ġre d
i j
w h
K BS
Ġ197 9
Ġpolit ic
ĠL aw
Ġatt ack
Ġm arried
ar th
ĠW e
Ġrecord ed
Ġê³Ħ íļį
ĠìķĦëĭĪ ëĿ¼
ĠIs land
Ġì» ´
m a
Ġle ague
is ing
u z
ĠìĿ´ ìľł
ish ing
íķ´ ìĦľ
ĠT own
Ġappe ared
ìłĦ ìĿĦ
Ġdescrib ed
b urg
ĠD on
Ġê¸° íĥĢ
ock ey
ì¶ ĺ
ou l
ap t
Ġâ Ĩ
18 9
ëĵľ ëĬĶ
Ġëª¨ ëį¸
ëĤ ¸
ìĽĲ ìĿĺ
ìļ´ ëıĻ
ë¦¬ ìĺ¤
Ġì°¨ ì§Ģ
m en
Ġcontin ued
umn i
ê² Ģ
é ģ
ìĪĺ ìĿĺ
Ġind ust
ĠPres ident
ë¦¬ ê³ł
ĠS im
Ġìĭľ ìĬ¤íħľ
er b
íı¬ ì¸ł
i ers
ëĤĺ ëĬĶ
ĠT ur
c y
Ġëª ĩ
ĠV ol
ì§Ģ ë§ī
Ġtr ack
u ation
ê°Ħ ìĿĺ
ĠìłĦ ì²´
ĠJ os
oin ted
Ġgroup s
ê´ĳìĹŃ ìĭľ
° ëĭ¤
Ġë°© ë²ķ
Ġ ident
ol f
Ġpro ject
Ġeduc ation
4 5
Ġìŀ ł
ì¹ Ļ
ì¢ Į
Ġì¢ Į
Ġl iter
ĠC ourt
ëıĦ ê°Ģ
Ġì£¼ ìļĶ
ĠìķĬ ëĬĶëĭ¤
r d
oin ts
Ġ20 23
ĠV ir
Ġ #
ĠS erv
Ġìļ ¸
Ġl ost
an ies
ĠS l
Ġm y
ĠM o
ìĦ ¬
Ġíŀ ĺ
Ġprofess ional
g es
Ġ195 0
ĠìĻ¸ êµŃ
ad es
ĠëĶ° ë¥´
ĠS en
ate g
ĠAng el
ĠGro up
ab ly
h ib
Ġind ivid
ĠW ith
Ġre al
Ġë¹ ł
ãĢ ı
est ed
ĠT rans
ì ĩ¼
o ks
ĠR ail
ĵ ¨
ĠAr ch
ĠF ootball
íĶĦ ë¦¬ì¹´
Ġd i
ĠãĢ Į
æ ĺ
end ing
Ġh alf
Ġ z
us ed
ëĦ ·
v al
Ġl ive
S A
ë¥´ íĬ¸
I t
y ing
Ġë°Ķ ìĿ´
ìĦ± ìĿĺ
ë¦¬ ì§Ģ
íĶ¼ ìĸ¸
ë¡ľ ìĬ¤
ĠìķĬ ê³ł
augh ter
ĠS ociety
Ġë¶Ģ ìĤ°
ĠëĤ´ ìļ©
Ġd ays
Ġì²łëıĦ ìĹŃ
le ar
ĠìĹ´ ë¦°
ëĭ¬ ë¦¬ìĬ¤íĬ¸
ĠAc adem
g in
Ġst ations
Ġc ross
Ġwork ed
od es
íĨ ¤
l ic
he re
ĠG reat
Ġl anguage
ag ed
íħ Ĳ
Ġof fer
8 0
ĠM ary
Ġê´Ģ íķľ
re land
ĠëĬ ¥
ë² ¤
ìĥ ¤
ĠíķŃ ê³µ
Ġc aus
199 9
Ġnov el
Ġì¶Ķ ê°Ģ
ëĭ Ŀ
Ġëĸ ł
Ġh on
Ġpro per
Ġë ĪĪ
ĠG r
ë¡ ¯
ìļ ±
Ġelect ion
íĻ ķ
ĠF irst
Ġfound ed
r ated
ĠìĽĶëĵľ ì»µ
ìĸ ¼
Ġëħ ¹
ìĿĮ ìĿĦ
ĠìĹŃ íķł
Ġëĭ¤ìĸĳ íķľ
ra p
Ġm id
ìĭ Ń
Ġ enc
ĠOr der
ë¹ Į
ĠW ashington
Ġec onom
Ġëĳ ĺ
ro ll
ìĤ¬ ëĬĶ
Ġt yp
éĩ ĳ
íĬ ľ
ĠChrist ian
3 7
Ġd iv
Ġdevelop ed
unct ion
íĻĶ ë¥¼
Ġëĭ¤ ìĿ´
Ġmat ch
ä ¹
ĠìĽ Į
199 0
ĠM ont
ĠíĺĦ ëĮĢ
id ence
Ġë ®¤
p ro
ĠH en
S h
ud d
ĠCent er
ĠìĹ° ê²°
Ġdo es
Ġtrad ition
Ġê±´ ì¶ķ
an i
Ġë¶Ħ ë¥ĺ
æĿ İ
Ġserv ices
Ġev ents
g er
Ġê²½ ìĥģ
å ¾
Ġin s
ul ts
ĠSc ott
Ġpr iv
ĠíĶĮ ëłĪìĿ´
Ġdirect or
e le
ĠRober t
ìĽĲ ìĿĦ
Ġpres ident
Ġêµ¬ ê°Ħ
Ġh old
r ish
Ġìĸ ¼
ĠB ay
¥ Ĳ
um e
ĠS BS
ĠM iss
Ġa ut
B A
cc ording
ĠíĬ¹ ë³Ħ
ë¹Ħ ìĬ¤
é ĥ
ì ·¨
ĠD em
Ġë°°ê²½ ìľ¼ë¡ľ
ĠM ex
ol it
um p
é Ļ
ert ain
ìŀ ¡
ëıĻ ì°¨
íĥ ķ
Ġrel ations
m ost
Ġb ody
Ġg ood
ìĿ į
em ents
Ġcomple ted
Ġ18 5
Ġav ail
Ġteam s
Ġ197 4
Ġv ict
Ġdeb ut
ê¶Į ìĿĦ
Ġa ver
ac ing
íİĺ ìĿ´ì§Ģ
ìĬ¤ ì½Ķ
Ġhim self
å ¯
ĠS al
ĠTex as
ĠLou is
Ġl ess
ak er
ĠJ ew
Ġí į¼
id s
ĠM ac
ĠY ear
Ġv iew
Ġë§ ¥
ĠL ist
ep ar
Ġm iss
ĠìĨĮ ìĦ¤
Ġt en
ì½ ľ
Ġ197 8
ĠB est
3 6
est ival
Ġë§Ī ì§Ģë§ī
ĠêµĲ íĨµ
ĠìĿ´ ë¯¸
Ġf urther
ĠG reen
íķĺê¸° ëıĦ
Ġëĸ ¨
at re
Ġs qu
Ġc ase
ìĿ¼ ë¶ĢíĦ°
ĠMich ael
ver t
Ġn ever
Ġ197 2
Ġ197 6
Ġíķĺ ê³Ħ
ìĽĲ ìłĦ
Ġsh ould
Ġrele ase
Ġëª¨ ìĬµ
o ice
ĠU K
ë§ ¥
199 8
ĠM ad
ĠCath olic
ìĬ¤ íĥĦ
ĠC ont
Ġhel p
Ġê°Ļ ëĭ¤
Ġadm inist
Ġimport ant
Ġem ploy
i que
a ign
Ġform ed
S p
Ġsur v
ĠG old
Ġd er
n ing
ĠC r
ific ation
Ġë§İ ìĿ´
íķĺ ìŀĲ
Ġsign ed
Ġcon d
Ġh uman
Ġex ample
ĠM ount
Ġan im
ĠìĤ¬ ìĹħ
us ical
all s
4 7
íĬ¸ ë¡ľ
Ġê³¼ ìłķ
ĠC ap
ĠIn ter
ìĿ¸ ë¬¼
ìłĲ ìĿĦ
Ġmod ern
Ġin flu
Ġc ast
it ch
ìĿ¸ë¯¼ ê³µ
al a
Ġplay ing
ĠíĮ Ķ
ìĭľ ê°Ħ
Ġre v
ĠìķĦ ëŀĺ
u x
pl ay
êµ ´
íĿ Ĳ
ìĪĺ ë¥¼
ĠS am
Ġr ul
Ġë° ´
at ural
ra el
Ġro ck
ĠíĿ ¬
ìķ ¡
Ġ197 3
F ilm
ì½ ĺ
s y
ìĤ¬ ê´Ģ
N ew
ĠT or
Ġê°ľ ìµľ
ĠíķĦ ìļĶ
ĠìĦ± ìļ°
ī ¬
Ġê²° êµŃ
íĶĦ ë¡ľ
Ġëª ¸
Ġgro und
ĠíıĲ ì§Ģ
ic les
ĠP ri
Ġex ist
ec k
ĠìľĦì¹ĺ íķľ
Ġë³´ ê³ł
ĠC ro
E R
Ġíĭ °
ĠT ra
in i
ê³ ³
Ġpart icular
í ĳ¸
b e
3 3
ĠG od
t ime
íģ Ĳ
Ġf ail
ens ive
ĠB en
Ġìľł ì§Ģ
íķĻ ê¸ī
Ġeff ect
ep h
ĠM ark
Ġw eek
Ġr adio
ìļ´ ëį°
Ġw ife
er ry
J o
Ġass ist
Ġm aking
it ive
m ar
Ġt ro
el t
arl iam
Ġì± Ķ
ĠC D
Ġ197 5
ĠM et
Ġl o
¾ ¸
Ġgro w
ut er
ĠìĽ ¹
Ġpart icip
ìľ¼ë¡ľ ë¶ĢíĦ°
Ġbec om
ĠFran c
ê°Ģ ëĬĶ
ìĤ¬ ë¡ľ
íĹ ¤
Ġother s
ĠComm un
ë¥ Ļ
íĨ ¨
Ġs epar
ĠìĹ Ħ
Ġê¸° ëĬ¥
Ġsp orts
ĠWest ern
il ities
un k
az ine
Ġê² ©
g ed
ĠJapan ese
Ġar r
íĶĦ ëŀĳ
Ġm ater
ĠëıĦ ë¡ľ
Ġf ire
ĠW il
Ġë¬ ĺ
Ġind epend
it ted
ric k
ì§Ħ ëĭ¤
Ġë¯¼ ì£¼
½ ĥ
Ġm ot
it ect
íĦ ¸
ĠZ eal
ìĿ¸ ëĭ¤
Ġbel ie
ers hip
Ġmunicip ality
Ġc oll
Ġê±° ìĿĺ
ë£ ¡
Ġì¶ľ ìłĦ
ëĮĢíķľ ë¯¼êµŃ
Ġs ocial
, "
im ately
ist ic
as ons
ul a
arliam ent
Ġìļ´ íĸī
Ġ197 7
ëıĦ ëĬĶ
ĠCent ral
ĠThom as
eder al
ä »
ë¶Ģ ìĹĲ
199 6
ĠCh ina
ict or
E ng
3 9
h i
ĠíĴ į
Ġal though
ect or
ud e
ĠëĮĢ ìĥģ
ĠZeal and
ĠT o
ell ow
b our
ĠìĿ´ ëģ
199 7
Ġavail able
ste ad
Ġh ous
Ġpro duct
Ġme et
Ġp oints
ĠG o
Ġìĺ¤ ë¸Į
ĠêµŃ íļĮìĿĺ
3 8
Ľ °
ĠìķĬ ìĿĢ
ĠëıĦ ì¿Ħ
Ġ197 1
Ġre view
c raft
Ġíĳľ íĺĦ
3 1
Ġê³µ ê°ľ
ĠD ay
ĠA lex
re y
eth od
ĠëĨĴ ìĿĢ
r ig
ëĥ Ĳ
ap s
" )
ed y
ĠPro v
on n
it ing
Ġìľł ëªħ
a ut
ìĿ´ ê°Ģ
S c
e ep
ĠíĻĪ íİĺìĿ´ì§Ģ
Ġl ow
ĠI reland
ìľ¼ë¡ľ ìį¨
ĠìĽ ¨
m on
ad a
ar ies
Ġepis ode
w are
ìĸ´ ë¥¼
Ã ¤
ro y
at ory
ìĿ´ ìĿĺ
ĠìĥĿ íĻľ
Ġto g
íķ´ ìķ¼
ĠT om
íĥ ģ
ĠC he
Ġa way
ĠëĶ°ë¥´ ë©´
ecut ive
Ġd oc
c le
Ġm other
ĠìĿ ĳ
Ġì±Ķ íĶ¼ìĸ¸
ĠìķĦ ë¥´
Ġinv est
ffic ial
Ġtog ether
Ġìĺģíĸ¥ ìĿĦ
oy s
is l
Ġëª °
Ġvoc als
Ġë¹Ħ ëĶĶìĺ¤
and ing
ann el
ìłľ ë¡ľ
ĠP eter
Ġê°ģ ê°ģ
he ad
ĠB ill
ĠAcadem y
ëĶ ©
ĠL ove
ot ed
Ġcont ract
Ġìķ ¤
ĠR ock
ĠG rand
ĠF rom
ot a
íķĺ ëł¤
Ġê±´ ìĦ¤
ëł ĩ
E FA
Ġìĸ´ ë¨¸ëĭĪ
Ġac ross
ĠChar les
en a
Ġde g
Ġë§Įëĵ¤ ìĸ´
Ġon ce
l or
í ĵ¨
r or
íķ Ģ
Ġìłľ êµŃ
Ġ196 8
ìŀ¥ ìĿĢ
i os
Ġ196 9
ëª¨ íĨł
Ġ194 5
Ġin formation
íĹ Ī
êµ° ìĿĢ
æ Ń
ç İ
ìŀ¥ ìľ¼ë¡ľ
4 9
4 6
Ġë¬¸ íĹĮ
ìĥģ ìĿĺ
ĠH istory
Ġì½ ľ
Ġíķĺ ìĹ¬
I N
ëł¥ ìĿ´
Ġê´Ģ ë¦¬
Ġí ľ´
ce ed
ĠFran k
ĠC ong
ëĥ Īëĭ¤
Ġìĥ ¤
´ ¬
Ġph ys
ĠIn stitute
w w
% )
Ġconstruct ion
ĠìłĦ êµŃ
Ġf ree
g o
Ġê°Ģ ìļ´ëį°
Ġl ight
ĠìĿ¸ ìłķ
Ġph ot
ĠìĿ´ ë¡ł
act ers
íı °
Ġìĺ¤ ìĬ¤íĬ¸
Ġrec ogn
om s
cent er
ìł ¤
Ġë°ľ ìłĦ
duc ation
Ġíıī ê°Ģ
Ġrel ig
v iron
Ġorigin ally
ĠìĿ¸ ëıĦ
ìĿ´ ìĸ´
Ġoff ice
ĠP et
å ¹
h ood
Ġm ust
ì§Ģ ìĿĺ
Ġelect ed
o res
ìĽĲ ìĿ´
ac hes
em or
ëĭ¤ ê°Ģ
ig ital
Ġs ound
Ġwork ing
Ġde v
Ġstr ong
ĠD o
íķĺ ëįĺ
he ast
ec e
ish op
Ġ( "
7 0
Ġê² ¸
Ġperform ed
ì² Ļ
ĠëĮĢ ìĭł
Ġì§ģ ìłĳ
itt ee
Ġac qu
Ġin st
¹ ìĿĢ
ìĦ¼ íĦ°
Ġê·¸ ê²ĥ
20 21
g ress
ìĪĺ ìĥģ
id ing
ĠDep artment
Ġìŀĳ ìĿĢ
ìĬ¤ ìĻĢ
íı Ń
Ġìĸ´ ë¦°
ĠP enn
Ġ3 5
Ġbl ack
W h
o ch
w rit
ĠìĿ´ ëıĻ
Ġ6 0
ĠAfric a
199 5
Ġal umni
Ġê²° íĺ¼
ĠB ut
yl v
Ġìĥģ íĻ©
u ild
at ives
Ġinclud es
ĠM er
Ġìłķ ìĿĺ
Ġt aken
ĠM useum
Ġres earch
ent ial
Ġf und
av es
Ġaver age
ĠK ore
Ġh ow
Ġfollow ed
F or
ĠíķĻ ìĥĿ
´¬ ìĺģ
Ġm ix
ough t
ab ility
íķĺ ì§Ģë§Į
ĠL ake
Ġì Į
ĩ Į
Ġmon ths
Ġapp ointed
id ents
Ġestablish ments
ĠCar ol
Ġc our
s hip
´ Ħ
Ġsuccess ful
Ġbo oks
ign ed
ri a
Ð °
j ects
ĠM el
Ġ Â·
3 2
Ġcomp anies
u ated
Ġm ar
ê³ ¤
an o
as c
ì ĩ
ran ch
Ġìłķì¹ĺ ìĿ¸
Ġë°© ìĭĿ
ìĺĢ ëįĺ
Ġpart y
Ġl ab
Ġë² ¨
Ġac cess
ìħ Ķ
inc ip
Ġí Ľ
ì³ ¤
ĠR ob
ĠFl or
ĠìĦł ìłķ
íĸĪ ì§Ģë§Į
Ġse en
ĠìĬ ¬
ĠPl ay
ĠìĿ´ë¦Ħ ìĿĦ
F L
if f
ad ium
re l
ĠìĿ´ë£¨ ìĸ´
Ġkill ed
A C
ic ago
Ġr ace
Ġë³´ ìĹ¬
ĠAfric an
ĠC amp
ìĤ¬ íļĮ
ì§Ģ ìĹĲ
ĠL eg
erg y
A T
Ġreport ed
ìĬ¤ ë¡ľ
Ġla un
ell ing
Ġë¨ ¹
Ġe ight
Ġto ur
ä ½
Ġí ĳ¸
ĠD an
are n
ibr ary
ĠëĤ¨ ìķĦ
Ġìķ ķ
osp ital
ìĿ¼ ìĿĺ
le ft
Ġ196 7
Ġattem pt
ĠRich ard
ĠH ill
Ġê±´ ë¬¼
Ġk m
i qu
199 4
ĠH am
Ġì§Ģ íķĺ
ĠA pp
ìĿ¸ ìĿĦ
ĠF ore
Ġfeat ures
Ġ ide
íħ Ķ
ĠK n
ĠìķĬ ëĬĶ
ĠP e
at ri
ìŀĲ ìĻĢ
ĠF ilm
Ġw id
20 22
Ġass oci
æ ´
ìĿ¸ ìĿĢ
3 4
Ġp ut
ist an
7 5
ug by
ĠìŀĦ ëªħ
th let
Ġag re
ar ian
ìĻ Ķëĭ¤
Ġmark et
ëģ ¼
and ed
Ġcont rib
ëıħ êµĲ
ëł Ģ
Ġì£¼ ë³Ģ
ĠëĤĺ ëĿ¼
ĠItal ian
Ġê ¼
Ġcon duct
å± ±
íı Ĳ
ë¡ ¤
Ġpl an
; "
Ġmater ial
ĠVir gin
ìĪĺ ê°Ģ
stit ut
ol k
ĠWh ite
Ġb ar
and s
at in
em s
å º
Ġd aughter
i ation
Ġìŀĳ ê°Ģ
A t
Ġc ost
s erv
Ġent ire
Ġan al
Ġf ight
Ġc irc
ë°Ķ ìĿ´
nd er
Ġíķ µ
Ġ196 4
m b
ìłĦ íŀĪ
Ġì§Ģ ëıĦ
Ġlarg est
Ġcap t
Ġp ark
Ġthrough out
mer c
Ġdirect ed
ĠëĲĺ ëĬĶ
ĠëĬ Ĳ
Ġíĺķ ìĦ±
ì¹ĺ ëĬĶ
Ġ Ð
Ġë§Ī ìĿĦ
ific ant
Ġfeat ured
Ġìĥ ī
Ġshow s
ant a
ë¯¸ ëĶĶ
ad o
ê² ¼
ì§Ģ ê³ł
ìłľ ë¥¼
enc ed
ëĵ Ģ
ord er
Ġë Ľ°
ĠìķĦ ìĭľ
ĠIs rael
er ous
Ġì¶ľ ìĭľ
Ġí ĽĪ
ë² ½
ĠSm ith
Ġpro ble
ëĭ¤ ëĬĶ
ìľĦ ìĹĲ
k ed
im ate
ìłľ ê°Ģ
Ġê²½ ì°°
ines e
ĠìŀĲ ìĹ°
íĬ¹ë³Ħ ìĭľ
ĠìłĦ ë¬¸
ĠSp anish
Ġcamp aign
ĠD es
it es
om a
Ġe ither
Ġst ri
ĠSup er
ëĲ Ĳëĭ¤
ch ie
ĠSc ot
ĠL os
ĠìķĮëł¤ ìł¸
Ġevent ually
Ġ196 6
Ġreg ular
Ġe arl
å Ī
Ġmod el
ro ad
ê¸° ê´Ģ
air s
Ġg ave
ì¹´ ìĻĢ
Ġgo al
Ġrem ained
ë© ĺ
ĠëĶ°ëĿ¼ ìĦľ
he st
ĠRep ublic
ê°ľ ìļĶ
Ġbroad cast
Ġê²½ ëł¥
Ġbuild ings
Ġë¶ Ļ
ìĤ¬ ìĹĲ
Ġt est
ĠëĤ ®
col or
ë¯¸ êµŃ
ê³¼ íķĻ
av al
overn or
Th is
ìŀ¥ ìĿĺ
viron ment
9 9
Ġfr ont
S S
Ġk ey
ì ¤Ħ
Ġv iol
ìĥĿ ìķł
G e
O N
ach ing
Ġê·¸ë¦¬ ìĬ¤
Ġê³¼ íķĻ
5 5
Ġìľ Į
ĠRuss ian
Ġêµ° ìĤ¬
ag on
ĠV ictor
ĠW in
Ġrepl aced
ëĮĢ ìĹĲ
Ġíĥ Ĳ
199 2
ëĵ¤ ìĹĲ
Ġd am
Ġtrans l
18 8
ëĨ į
Ġse ven
Ġê¸° ë°ĺ
Ġt re
êµ° ìĿ´
Ġimp ro
è ¡
ë¶Ģ ë¥¼
Ġs ugg
ëŁ¬ ìĬ¤
Ġchar acters
Ġìĸ¸ ìĸ´
ĠìķĬ ìķĺ
augh t
Ġë¹ Ī
ĠSec ond
4 4
Ġa p
ìĽ¨ ìĸ´
oo ks
k n
our ce
ĠìĦľ ë¡ľ
ëĭ¨ ìĿĺ
ìĦ¸ ìĿĺ
Ġëħ¸ ëıĻ
Ġê²½ê¸° ëıĦ
Ġcons ist
Ġh om
Ġintro duced
ëĤĺ ìĿ´
Ġfor ces
ĠëĤĺ ìĺ¤
ĠíĻľ ìķ½
ì¼ ĵ
Ġp ress
Ġ196 5
ĠêµŃíļĮìĿĺ ìĽĲ
Ġê¸ ´
Ġin j
ĠíĨµ íķ©
¤ ë²Ħ
ov iet
Ġp ast
ĠC ons
an ks
ĠìłĦ ëĿ¼
ìłĦ ìĹĲ
ê³µ íķŃ
ëł ¬
Ġì¤ĳ ìļĶíķľ
Ġst age
c er
ĠíĽĦ ìĹĲ
ì§Ģ ê°Ģ
c her
n el
Ġperforman ce
ìŀ Īëĭ¤
ĠB ur
ëĳ ¥
ĠE v
ran t
Ġsign ificant
Ġ196 3
if t
ķ ħ
ĠC ast
mp ire
Ġê³µ ìĹ°
ì²ł ëıĦ
ĠS qu
ĠF in
ìĦł ê±°
ĠëĮĢ êµ¬
Ġì ´¬ìĺģ
ĠO f
ìĬ¤ íĤ¤
e es
r as
ĠSt ar
Ġëĭ¨ ì²´
199 3
Ġì·¨ ìŀĦ
Ġ å
g y
íĬ¸ ë¦¬
ëĵľ ìĿĺ
íĵ¨ íĦ°
Ġab ove
at al
ëį ľ
Ġa ud
ĠìĻ¸êµŃ ìĿ¸
ut ure
Ġê°ľ ìĿ¸
æ Ī
Ġìłķ ì±ħ
ĠìĬ¤ íı¬ì¸ł
ìĹ Ĩ
ol a
ĠìĪĺ íĸī
ë¨¼ íĬ¸
ë§ Īëĭ¤
ì ¥Ĳ
ĠëıĻ ìĭľìĹĲ
Ġre b
Ġm ount
Ġê¸° ê´Ģ
Ä ģ
ì§Ģ ë°©
ëĮĢ ê°Ģ
Ġ Â
Ġìłľ ìĻ¸
Ġ ill
Ð ¾
z a
Ġd ou
Ġtra ining
ê³Ħ ë¥¼
198 0
Ġ5 00
Ġsub sequ
Ġus ually
ic y
ĠìķĦ ëĭĮ
Ġê¸° ê°Ħ
é ķ
ĠFor ce
íģ¬ ë¡ľ
ì£¼ ìĭľ
ç ¾
Ġf oc
Ġdesign ed
Ġ194 0
Ġc ivil
ì¹ĺ ë¥¼
i en
ur ity
Ġbo ard
ĠìĹ° íķ©
Ġg et
Ġmed al
Ġw inn
Ġsing er
ì¹ ¼
ìĬ¤ íħĮ
ĠBro wn
9 0
ĠëĦ Ī
ĠG ames
Ġê³ł ëĵ±íķĻêµĲ
) ;
ĠíĮĲ ë§¤
Ġí ĩ´
ì§Ģ ë¡ľ
ĠìļĶ êµ¬
P h
Ġt reat
ìłķ ë¶Ģ
Ġìłķ ëıĦ
Ġìĭ ¸
in ct
Ġ er
ut ch
Ġlead ing
Ġë§Į ëĵł
ar ter
ers ey
ĠìĤ¬ìĿ´ ìĹĲ
y r
Ġtrans fer
/ /
ul ated
Ġc ourt
ëĮĢ íļĮ
Ġì¹ľ êµ¬
uf act
l am
Ġê³Ħ ìķ½
Ġëªħ ì¹Ń
ur a
Ġro ute
ìª½ ìľ¼ë¡ľ
ĠG re
un s
ĠëıĦ ìŀħ
Ġinvol ved
6 5
Ġp os
med i
íĭ ±
ĠìĤ° ìĹħ
Ġup on
Ġpriv ate
ìĽĲ ìľ¼ë¡ľ
ĠCh icago
ĠD irect
ĠìĿĺ íķľ
I S
re ad
Ġê°Ģ ì§Ħ
ĠHen ry
ĠPar is
ĠT our
ëĵľ ë¡ľ
Ġìĭľìŀĳ íĸĪëĭ¤
ĠM us
Ġíģ¬ ë¦¬ìĬ¤
ĠH istor
z il
Ġr ange
Ġcomp os
ĠOlymp ics
Ġê³µ ê°Ħ
ĠAngel es
I nd
i Ä
ĠJ ust
v ing
ë¦° ëĭ¤
ĠGeor g
Ġì§Ģ ê¸Ī
Ġbas ketball
ëłĪ ìĿ¼
Ġs er
ĠìĿ¼ ìľ¼
Ġì§Ģ êµ¬
it a
Ġê¸° ë³¸
ìłķ ë³´
ĠT er
Ġstud y
Ġr ights
Ġcl os
Ġê°Ģ ì¡±
ĠM ass
R ec
7 8
ĠCl ass
Ġfin ished
Ġë§ Ŀ
ĠD el
Ġìĥģ ëĮĢ
Ġsc ored
ìĤ¬ ì¹´
Ð ¸
Ġr iver
A d
Ġch ange
ĠS ome
ĠìĿ¸ ê°Ħ
ĠAn n
f ace
A N
ĠíĬ¹ ì§ķ
' ,
Ġ196 2
ëĵľ ë¦¬
ìĹ¬ ìŀĲ
O S
Ġab le
ĠSt ev
ĠM r
Ġì°¨ ëŁī
Ġs em
rough t
Ġadd ed
ìĬ¤ íĭ°
L ist
Ġme an
ë¥¸ ëĭ¤
ìĨĮ ëħĦ
ìĤ¬ ìĻĢ
ic ated
uk e
l a
ĠFlor ida
Ġìļ° ì£¼
ĠW ales
Ġ193 0
ig an
merc ial
ĠãĢ İ
Ġcol lege
Ġg old
ìłĦ ìĹĲìĦľ
ylv ania
Ġê°ľ êµĲ
id ge
ì½ ©
Ġcl ose
Ġê¸° ëħĲ
ìĽ ħ
ëĲĺ ë©°
f ic
ìĿ´ ë¥¼
as ing
h old
Ġhe alth
199 1
l im
Ġê·¸ ê°Ģ
w ell
Ġë°ĺ ëĮĢ
Ġë¹Ħ ë¡¯
ĠM inister
ãĥ »
ìļĶ ìĿ¼
Ġch ampionship
ĠíĻĺ ê²½
íĬ ¼
Ġíģ¬ ê²Į
ĠS aint
ìłľ ìĿĺ
ãĢĭ ,
Ġn ight
Ġresp ons
Ġj ud
Ġ +
il ver
Eng lish
íķĺ ëĿ¼
Ġíĺ ģ
Ġne igh
Ġp ur
ĠìŀĪëĬĶ ëį°
Ġcent er
Ġr ank
Ġrail way
Ġë ¿Ĳ
m in
ay ing
ĠìĹ° ìĨį
ĠìĹŃ ìĭľ
Ġpolitic ian
ìĽĲ ìĿĢ
st ant
r up
Ġse x
Ġact ress
Ġì Ķ
ìŀĦ ìĿĦ
ri al
ell a
Ġle ast
Ġwh ite
is es
i res
ar ily
s el
ëĲĺ ë©´ìĦľ
c m
Ġìĭ¤ ìĭľ
ĠìĦ¤ ëªħ
M BC
g en
end er
Ġj ournal
ĠM a
ĠR h
A S
D e
out e
Ġwrit er
er o
Ġst ates
Ġfem ale
ĠM od
ĠM ur
Ġë¯¼ ì¡±
ë¬ ĺ
Ġbir th
Ġcon v
op er
ìĿ¼ ê¹Įì§Ģ
E arly
E C
ĠM il
ìĨĮ ë¥¼
Ġëį°ìĿ´ íĦ°
ele b
ĠCol umb
Ġdisc over
ĠP ublic
ç Ľ
ct or
Ġê°ľ ìĿĺ
am s
Ġìĺ ¥
Ġprov ided
Ġ3 2
bo ard
sy ch
Ġst e
ul ations
íĬ¸ ìĿĺ
p ly
um m
Ġv ia
íĤ ¹
4 2
ĠO per
ĠìĹŃíķł ìĿĦ
Ġs en
Ġs aw
Ġê·¸ ëŀĺ
Ġart ists
st ra
ĠWh ile
stit ution
Ġìĸ´ëĸ ¤
erv e
ĠK h
Ġc op
ëĿ¼ ìĿ¸
ut t
ĠI ll
Ġb i
ë©Ķ ë¦¬ì¹´
Ġíİ¸ ìĦ±
íĹ ¨
ian o
ens us
e ated
Ġs ection
Ġle arn
æ Ĺ
Ġh it
å ¸
Ġê² ¬
4 1
ë¬¸ ìĿĦ
ent h
ist ics
omet imes
Ġ i
or g
ĠO ld
Ġpar ts
ìĦł ìĿĺ
Ġìľ¡ êµ°
L e
Ġexp ress
Ġk ing
Ġmanag er
Ġs ch
Ġl ower
ĠìĪĺ ë¡Ŀ
Ġë§Ĳ íķľëĭ¤
Ġmed ia
end s
ĠP re
Ġar g
ĠëĲĺ ìĹĪ
Ġ4 5
Ġaward ed
k ey
ëĤĺ ìĿĺ
ìŀ¥ ìĹĲ
Ġì´Ī ê¸°
ì¦ ĺ
ĠìŀĪëĭ¤ ê³ł
ĠìłĦ ê¸°
Ã ¨
Ġe arn
ĠItal y
¢ °
Ġtra vel
ì¹ ł
Ġì° ©
Ġqu al
i ences
p ts
9 5
Ġcount ries
Ġë© ¤ë²Ħ
ĠAt l
Ġair craft
ì£¼ ìĹ°
ĠC arl
Ġë¹Ħ íĮĲ
198 9
B l
ar io
Ġc y
Ġinter est
ed s
ĠìĤ¬ ê³ł
ĠìĿ¸ ì²ľ
Ġë³´ íĺ¸
ì§Ģ ìĹŃ
w a
ong s
ĠO ther
ĠìĬ¤ ìľĦ
ìł Ŀ
ĠìĨĮ ëł¨
ìĤ¬ ìĹħ
Ġwrit ers
pt ion
c ient
d en
as k
Ġac com
ian a
Ġt rib
ê° ĳ
ĠìĹ° ì£¼
Ġì¦Ŀ ê°Ģ
y e
ë¶Ģ ëĬĶ
ĠAr ts
ì²´ ìĿĺ
ur t
por ary
Ġt ype
ĠìĹ° ê·¹
Ġact ion
Ġìµľì´Ī ìĿĺ
ĠMex ico
ìĺ¤ ì¹´
ĠN orthern
il s
ĠëĨ ĵ
s ylvania
Ġre ached
Ġêµ¬ ìĹŃ
Ġ196 1
æ ³
6 6
Ġíĥ ĳ
ĠìĹ° ë°©
ëħ ¼
Ġchang ed
ĠP an
p ar
Ġt ax
Ġíļ į
ĠJ im
Ġìĭľ ìĦ¤
Ġout side
Ġcent ral
ë¥´ ê²Į
ê¸° ìĪł
Ġê°ľ íĨµ
ro s
Ġì²ĺìĿĮ ìľ¼ë¡ľ
Ġf av
ĠI rish
I A
ìŀ Ķ
ĠìŀĪ ìĿĦ
ĠìºĲ ëĤĺëĭ¤
ĠA v
Jo hn
ĠServ ice
w ith
Ġprim ary
ult ural
é Ŀ
ĠI m
Ġkn ow
ë¦¬ìķĦ ìĿĺ
ĠëĿ¼ ëĶĶìĺ¤
Ġf ig
b l
Ġsp ace
Ġd ram
Ġëĭ´ ëĭ¹
ë¦ ī
ĠSc ience
id er
ĠS ummer
Ġst aff
ĠìĤ¬ ë¬´
Ġ194 4
b ur
ĠCh inese
Ġê¸° ì¡´
Ġg r
ë£¨ ìĬ¤
ĠDem ocr
ëįľ ëŀĢëĵľ
ë¦¬ ìĻĢ
Ġocc up
ens ion
4 3
: //
u a
ì¤ĳ ìĹĲ
Ġ19 20
ĠìĬĪ íį¼
Ġin stead
et te
ĠíŀĪ ë¡ľ
198 8
Ġact or
êµŃ ë¯¼
Ġc he
ìĤ¬ ìĿ´
Ġëĵ Ŀ
ĠìĽĲ ëŀĺ
ĠìĨĮ íĶĦíĬ¸
ĠT wo
9 8
The re
ì£¼ ëĬĶ
Ġarch itect
Ġw ant
Ġcurrent ly
eng th
ëĭ ī
ĠT echn
ìŀ¥ ìĹĲìĦľ
Ġpl ant
Ġdist rib
ĠS ir
ëĮĢ ëĬĶ
ĠíĮ ¬
Ġmult ip
ĠO ut
re me
kn own
ĠW ood
g color
ĠII I
ĠâĨ Ĵ
ìĸ´ ëĬĶ
ĠE r
ĠComm ission
ë¦¬ íķĻ
ìĬ¤ ì¹´
ĠSw ed
Ġíĸī ëıĻ
ë¬¼ ìĿĦ
Ġocc ur
ë° į
ĠM ill
ĠS eries
ë ĺĲ
Ġê ¶ģ
Å į
ĠĠ Ġ
Ġ194 8
Ġresp ect
ìĿ¼ ëŀľëĵľ
Ġpol ice
ĠíĶ¼ íķ´
h ab
Ã³ n
ë²ł ìĿ´
7 6
Ġcrit ic
A m
l ike
ĠL ife
íĻĶ ê°Ģ
Ġíģ´ ëŁ½
ìĬ¤ íİĺ
íĺ Ķëĭ¤
Ġm ur
Ġì¢ħ êµĲ
Ġê±° ì³Ĳ
Ġm ass
ë¡ Ń
N otes
Ġs outhern
ĠCong ress
Ġg irl
Ġfootball ers
Ġrelations hip
Ġproduc er
ĠU EFA
ĠA rab
íĺĦ ìŀ¬
id ae
ëª ½
Ġm ethod
ow ers
ĠìĹ ¼
Ġde al
ìł ł
ven ue
Ġê²½ê¸° ìĹĲìĦľ
Ġíĺ ¹ìĿĢ
Ġìłģ ìļ©
ìĦľ ê´Ģ
ok e
ant ic
ê²© ìĿĦ
Ġp ot
å Ł
ĠI ts
Ġcl osed
R A
or ing
Ġìµľ ëĮĢ
ĠO ff
Ġr ather
le ments
Ġf all
Ġb rought
Ġfre qu
íĬ¸ ë¥¼
ãģ ®
Ġdoc ument
ìĿ´ìĹĪ ëįĺ
í Ĥ¬
Ġì¤ĳ íĻĶ
Ġa chie
D uring
us p
ĠU p
ìĬ¤ íĨł
ĠH ow
r im
ec ially
ĠìłĦ íĨµ
ê° Ķëĭ¤
Ġp red
Ĳ ë¦¬
Ġìŀĳ ìĹħ
ç ¥
Ġl oss
b and
ult ure
Ġì¹ ¸
Ġ8 0
Ġappro x
Ġëĭ¬ ë¦¬
ĠPenn sylvania
ĠëĲ ł
Ġê±°ì£¼ íķľ
Ġun its
Ġê³¼ ê±°
ìķĦ ìĿ´
Ġf ar
Ġh ard
Ġwh ose
V D
ĠëĤĺ ê°Ģ
ìħ Ģ
ĠJ ack
ëĤĺ ë¬´
ĠO h
Ġì§Ģ ëĤĺ
ìĿ¼ íķľ
at o
íĸĪ ìľ¼ëĤĺ
ĠVirgin ia
ĠìĨ Ķ
Ġn etwork
ìĬ ·
ĠS oviet
çİ ĭ
Ġst re
Ġal most
ìłķ ìĿĺ
ĠSp ec
Ġim m
Ġ esp
íķĺëĬĶ ëį°
ĠS k
7 7
ìĪĺ ë¡ľ
i ents
I D
Ġë¯¸ ìĪł
Ġë²ł ìĿ´
Ġres ults
um ents
ë ¢°
ĠO l
Ġë°Ķ ë¡ľ
ĠIn c
ĠìĹ´ ì°¨
Ġpl aces
ìłķ íķľ
Ġb ass
ĠE mpire
Ġm usical
ëĵľ ë¥¼
5 8
Ġíķľ íİ¸
ĠD i
Ġp ers
Ġdec ided
ĠA p
ĠëĤĺ ë
Ġr ate
Ġto urn
ĠS ur
) "
ìĬ¤ íĦ´
Ġ7 0
Ġìĺ ®
Ġhig her
íĮ Ķ
Ġ195 6
ĠíĴ Ģ
ëĿ¼ ìĬ¤
Ġ esc
ing u
Ġd ata
Ġpl aced
ĠíĻķ ìĿ¸
Ġprov ide
æ ²
Ġis land
êµĲ íĨµ
ic ro
ut s
Ġst ated
Ġ195 5
ript ion
Ġpr ison
ĠìļĶ ìĭľ
Ġn orthern
Ġ194 6
ìĩ Ħ
æ Ľ
Ġits elf
Ġì¶© ì²Ń
Ġac cept
ĠìĦł íĥĿ
ĠêµŃ ëĤ´
Ġì» ¨
b ased
Ġtrans port
Ġre ve
Ġposs ible
g l
Ġsup er
Ġpo et
198 7
6 8
o id
ĠJ ersey
Ġp urch
íĬ¸ ëĤ¨
ĠìĿ´ ìĤ¬
Ġc reat
Ġìķ ¡
ĠF estival
ë ®¤
ĠD en
ìħ ľ
ĠF re
ĠìĿ´ìķ¼ ê¸°
Ġ195 8
Ġv eh
ĠB ig
ĠMart in
emb ly
az z
ì ī¬
ĠT imes
Ġpr incip
ent al
cl us
Ġíĥľìĸ´ ëĤ¬ëĭ¤
Ġw inning
Ġ195 9
Ġed ition
Ġë§Ī ìĿĮ
ëĭ¹ ìĿĺ
ë¥´ ê³ł
e ff
ĠG reek
C on
Ġco ast
ìĪĺ ëĬĶ
ĠH on
Ġman ufact
at i
ĠìĹ° ê¸°
ì£¼ ìļĶ
Ġw ind
C an
ĠìĿ¼ë°ĺ ìłģìľ¼ë¡ľ
Ġl ik
ìĦ± ìĿĢ
Ġë©Ķ ëĭ¬ë¦¬ìĬ¤íĬ¸
í Ģ
íķĺ ê±°ëĤĺ
íķĺ ìĿ´
os es
Ġë¹Ħ ìĬ·
Ġgo als
Ġsystem s
ĠB attle
Ġpl ann
i ro
Ġë¶Ģ ë¬¸
or se
oun ter
I C
ìĦł ìĿĦ
Ġfor ce
ĠêµŃ ë¦½
Ġì§Ģ íľĺ
ill a
B O
ëªħ ìĿĢ
as ion
w er
ìŀĲ ì¹ĺ
isc o
ollow ing
c a
êµ° ìĿĦ
Ġsing les
ĠìľĦ íķĺìĹ¬
ch ange
Ġb gcolor
Ġb ank
Ġcompet ition
Ġíķĺ ë©°
Ġrun s
ëĵ ¬
ĠìĦ¤ë¦½ ëĲľ
Ġcult ure
ĠIn t
ìĦľ ë¥¼
ĠìĨĮìŀ¬ ë¡ľ
Ġê¸° ëıħêµĲ
Ġst op
anc ed
Ġc ou
Ġì ĵ
ĠìĪ Ļ
ĠR adio
Ġëĵ±ìŀ¥ ìĿ¸ë¬¼
ib l
ĠìķĦìĭľ ìķĪ
ëª °
ĠB re
Ġíķĺ ìĺĢ
6 4
k ins
ë£ ¬
1 00
Ġprevious ly
Ġê° ĳ
ĠE ducation
or por
Ġc red
5 00
ult y
ov ers
ĠNew s
ìłģ ìĿĦ
Ġë°Ľ ìĿĢ
it iz
Ġf arm
Ġp aint
Ġreg ard
u als
ìĦ¸ ê³Ħ
en ed
ĠSy stem
Ġoper ations
Ġart ist
ĠìĹŃ ìŀĦ
ë¦¬ ë¡ľ
ĠCarol ina
Ġë³´ íĨµ
am ily
A ll
Ĭ ìĿĢ
ell ed
Ġì»´ íĵ¨íĦ°
ì²´ ë¥¼
Ġfour th
Ġì¶Ķ ìłķ
Ġì°¾ ìķĦ
Ġíļ¨ ê³¼
Ġìµľ ì¢ħ
Ġsc ience
ĠA ccording
ĠëĲĺ ê³ł
ĠìĹĨ ìĿ´
ĠS a
Ġter rit
ĠL and
ĠVal ley
ìĦ Ń
Ġmin or
all ed
Ġme as
Ġ194 1
ĠëĤ Ļ
ĠA re
ĠB ob
Ġ3 8
Ġ Î
ĠF ound
ĠFC ìĿĺ
ĠìĺĪ ìĪł
ĠH ot
Ġë° ¤
íĺ Ī
Ġe ver
ĠB us
íİ ľ
ĠìĤ¬ ìĥģ
ìķĦ ìĭľìķĦ
m ond
Ġb attle
Ġíļį ëĵĿ
o ir
al c
íĻĶ êµŃìĿĺ
197 0
ĠìĺģíĻĶ ìĿ´ëĭ¤
ìĿ´ ê¸°ëıĦ
Ġìŀ īê¸Ģëŀľëĵľ
r u
ëĿ¼ ìĿĺ
Ġbeh ind
Ġë°© íĸ¥
Ġallow ed
Ġaddition al
iÄ ĩ
ĠG overnment
T e
é Ľ
in ary
ĺ ë¦¬
im b
ë ľ
ê¸° íĥĢ
ĠìĬ¹ ê°ķ
ìľ Ī
ad d
h ire
n et
Ġg rand
Ġnew sp
um s
O ther
ĠE c
ĠB BC
un ior
ec ess
Ġëį ķ
Ġ194 9
Ġb all
ìĺĪ ìĪł
Ġown ed
Ġbre ak
sh ire
C ol
ê² Ĳ
Ġbeg inning
Ġdest roy
ĠF ort
ĠS er
iet y
ê´Ģ ë¦¬
Ġex cept
Ġmag azine
Ġë¹Ħ êµĲ
ĠA wards
íļĮ ë¥¼
Ġ195 4
ë¦Ń íĦ°
Ġn eg
Ġun it
Ġ ?
Ġê³µ íķŃ
ĠP arliament
Ġìļ° ë¦¬
Ġì§Ģ ë°°
ìľĦ ë¡ľ
P erson
Ġíķĺ ìĿ´
Ġì ī
Ġcap ital
ĠYou ng
Ġb ur
Ġdef eated
g ent
ìķ ¤
198 6
Ġcol lect
ĠBra zil
Ġstud io
Ġmov ement
Ġ3 6
Â °
íķĻ ìłģ
Ġ194 7
Ġë¶Ħ ìķ¼
ĠS o
ĠSp ain
Ġend ed
Ġíĳľ ì¤Ģ
ìľ µ
Ġdef eat
Ġme ans
is ions
ìĭľ ì½Ķ
ìłķ ìĿ´
Ġread ing
ìļ° ìĬ¹
Ġs ummer
Ġê·ľ ëª¨
Ġë©Ķ ìĿ´
ech an
ìĸ´ ê°Ģ
Ġë¨ ¼
ric ket
Ġë¯¸êµŃ ìĿ¸
ìĭľ ì¦Į
ĠJos eph
íĨ¨ ë¦Ń
Ġ195 7
Ġëī´ ìļķ
ĠL ong
ĠëĮĢ ì²´
ëŀ «
ĠB ook
ëĭ¤ ê³ł
p eople
or a
he t
ĠP ac
Ġëª¨ ìĸĳ
Ġto o
Ġ9 0
Ġd ivision
ĠëıĻ ë¬¼
ìĭľ ëĮĢ
ĠH aw
i i
Ġìłķ ëĭ¹
and id
ĠìŀĪëĭ¤ ëĬĶ
ê ¾¸
ë©Ķ ëĭ¬
æĸ ĩ
ĠìĹ¬ ê°Ŀ
ĠN avy
ĠìŀĪ ì§Ģë§Į
ul f
act ion
Ġd en
ĠíĿ Ķ
Ġrem ov
b ury
íĺĳ íļĮ
Ġìľ Ī
æ µ
Ġf if
b on
ĠìĿ´ëģ Į
íķĺìĺĢ ìľ¼ëĤĺ
atri ate
Ġb ase
ĠD ou
Ġstruct ure
M A
ĠíĽĦ ë°ĺ
Ġso on
Ġh ockey
al ed
Ġqu est
ì§Ģ íĦ¸
ìľ¼ ë©´
as y
att al
ìĿĺ ë¥¼
ë²ł ë¥´
æ Ļ
Ġse asons
ĠP o
ly ing
ĠìŀĲ ê¸°
Ð µ
êµŃ ê°Ģ
Ġcom e
íĺ¸ ë¥¼
Ġc eleb
a o
ëıĦ ìĹĲ
Ġë§Ī ë¥´
ä¸ Ń
ĠM ost
Ġ194 2
Ġwh om
ëĮĢ ìĥģ
Ġesp ecially
ëĤĺ ê°Ģ
ë©Ķ ìĿ´
Ġd u
Ġs elf
ëħĦ ìĿĺ
ĠD ef
Ġ194 3
~ )
ĠìĬ¤íİĺ ìĿ¸
Ġdeg ree
Ġcom mercial
ĠíĶĦë¡ľ ìłĿ
Ġlead er
ĠO x
ĠíĿ ĳ
ir it
Ġ195 2
Ġacc ording
Ġë° ĸ
Ġb en
ê²½ ìłľ
at form
are er
ĠD ev
Ġindust ry
Ġl ittle
ĠS un
ìĭľì¼ °ëĭ¤
Ġëª ½
M ar
pp ed
ĠS ub
ĠìĿ´ìĥģ ìĿĺ
ìĤ¬ íĤ¤
Ġact ive
ĠìķĦ ìĭľìķĦ
ĠëĮĢ íķĺìĹ¬
Ġk eep
7 9
ĠL ine
U S
Ġsur round
Ġl ook
ĠR os
Ġn ames
ãĥ ¼
Ġcomp let
anc ial
Ġpre m
ĠT ro
Ġn omin
ran g
Ġindepend ent
Ġl iving
ĠR oute
and a
C D
Ġë³´ ëĤ´
Ġì§Ģ ì§Ģ
Ġatt ended
ĠM in
uf fer
ĠT ri
ĠF r
Ġë°© ìĺģ
ĠH el
ìłķ ìĹĲ
Ġs ometimes
Ġloc ation
198 4
ëĮĢ ìłĦ
Ġë¶Ħ ë¦¬
Ġtradition al
Ġcol lection
Ġsh ot
Ġn atural
ĠScot land
ê² łëĭ¤
Ġob serv
w in
ĠP ak
Ġwrit ing
Ġc ertain
ri ef
Ġìŀ Ķ
Ġì¡° ìĤ¬
Film s
Ġì¶ľ íĮĲ
Ġìĥģ ëĭ¹
¶ ¤
al le
Ġê°ľ ëħĲ
Ġì¡° ì§Ģ
Ġstand ard
ĠìĦł ë°ľ
ĠW eb
Ġì£¼ ìĿ¸
198 5
Ġcent re
Ġph il
ëĿ¼ ëıĦ
Ġus es
Ġìĸ¸ ê¸ī
aw a
Ġ195 3
ĠT ime
Ġcomple x
ìĽĮ ëĵľ
Ġf ood
ĠëŁ °
Ġth us
8 8
ëĿ¼ ìļ´ëĵľ
Ġorgan ization
Ġìľł ëĭĪ
Ġin sp
Ġw ood
ad el
Ġle t
k o
Ġto wards
Ġp ay
ìĿ¸ë¯¼ê³µ íĻĶêµŃ
ìĽ¨ ìĿ´
ì¡° ìĿĺ
ĠìĿ´ ìłģ
ìķĦ ìĿĺ
ĠB ul
íŀ Į
Ġsch ol
Ġorgan iz
Ġê¸°ì¤Ģ ìľ¼ë¡ľ
ë¶Ģ ë¥´íģ¬
ir t
ìĽ ĥ
Ġëªħ ìĿĺ
ĠN Y
ĠìĪĺìĥģ ìŀĲ
êµ° ìĹĲ
ar r
ut y
are nt
ĠS ol
ë¯¼ì£¼ ì£¼ìĿĺ
ĠF red
å ¿
ĠìĹ¬ ê¸°
ĠìĤ¬ ì§Ħ
Ġg e
k en
Ġìĭ¤ íĮ¨
ë°° ìļ°
) Â·
ì§Ģ ìĽĲ
ard en
ĠB C
ĠO ver
Ġstud ent
Ġsc ient
Ġíķ´ ìĻ¸
m ark
ib ility
Ġëĸ¨ ìĸ´
ĠG ra
Ġí Ģ
ê³¼ ëĬĶ
ë¥´ íĪ¬
ĠEng ine
ĠM ah
ĠëĦ ĵ
al i
Ġrequ ired
ĠêµĲ íĻ©
Ġgener ally
ret ary
Ġcont ains
êµĲ íļĮ
ì¢ħ ìĿĺ
re ady
êµŃ ìłľ
ĠAl though
ìĹŃ ëĮĢ
ĠìŀĲìĭł ìĿ´
Ġac adem
Ġì£¼ ìĹ°
ĠíĹ ¬
ìĤ¬ ìĿ´íĬ¸
Ġìĸ´ ëĬĲ
Ġbo x
Ġë°ĺ ìĿĳ
ĠêµŃìłľ ê³µíķŃ
or al
os ing
198 3
ĠíĶĦë¡ľ ëĵĢ
Ġê·¸ ë¥¼
ë¦ ¿
Ġdis p
ĠBro ad
ĠSt ep
Ġlist ed
ë ±
ĠBl ue
ìĿ´ ì§Ģë§Į
Ġë¥ ĺ
ĠëķĮë¬¸ ìĿ´ëĭ¤
Ġf uture
Ġë°Ľ ìķĺ
Ġmov e
Ġc anc
ëĭĪ ìĬ¤
Ġì¤ĳìĭ¬ ìľ¼ë¡ľ
Ġê°Ģ ê¹Į
ĠL ord
Ġsp ent
é ĸ
C C
ĠSt e
Ġë¡ Ŀ
ĠBo ard
Ġearl ier
ig g
ĠìĿ µ
ë© ¸
Ġhig hest
Ġsc reen
Ġ193 9
5 9
ìĸ´ ìĿĺ
ìĽ¨ ëį´
Ġtra in
5 6
ĠComm ittee
ĠD is
Ġë²Ħ ìłĦ
S P
ol s
ëıĻ ìķĪ
ĠìĿ´ ìĻĢ
w an
Ġm er
Ġperson al
íļĮ ìĤ¬
ect ions
) )
g ar
íĥ ĳ
ian t
Ġdet erm
st ate
ost on
it ors
i h
k ing
íĸĪëĭ¤ ê³ł
ë²Ħ íĬ¸
ĠTh at
Ġd raw
5 7
ro wn
Ġappear ance
Ġt aking
ĠìĿ´ê²ĥ ìĿĢ
Ġapprox imately
ĠìĦ¸ íı¬
Ð ½
ĠTe am
ĠS outhern
Ġm ission
Ġind ic
éģ ĵ
Ġìĺ¤ ëĬĺ
Ġl ived
Ġê´ĳ ì£¼
O R
Å ¡
ĠG ar
ë ¸
Ġì¢ħ ë£Į
Ġab s
Ġê ´´
Ġrel ated
H L
Ġìĭľ ë¯¼
Ġte xt
ĠThe atre
ìĬ¤ ì¼Ģ
ĠìºĲ ë¦ŃíĦ°
ìĦ± ê³¼
Ġë°Ķ íĥķ
Ġë ĥ
Ġe lev
if y
Ġnew s
ë¬´ ë¥¼
Ġatt ract
Ġfam ous
bur gh
Ġm ention
Ġindivid ual
Ġinvest ig
ìĽĮ íģ¬
ĠìĹĲ ëĦĪ
Ġìķ¼ ë§Ī
ĠH a
ì²´ ê°Ģ
ans as
S BS
ĠL ee
ab b
ar ing
Ġopen ing
Ġso ft
¿ Ī
ĠM iddle
Ġë³Ģ íĻĶ
ĠG irl
ĠìķĦ ì¹´
ĠAl b
ìĦł ìĪĺ
ĠC ross
Ã £
ĠìĿ´ ëķĮ
Ġinter view
ĠN ight
ëł µ
íĺĦ ìĿĺ
Ġr ad
S e
ĠG ood
amp ion
ĠC amb
Ġìĺ¬ ëĿ¼
ĠJ ud
ë¬´ ëĿ¼
ĠëĤĺ ìĿ´
ìĽĢ ìĿĦ
æ ł
Ġfore st
íĨł ë¦¬
ĠìĿ´ ë¥´
Ġfootball er
Ġr an
Ġì¢ĭ ìĿĢ
Ġconc ern
ìĿ´ ì¹ĺ
ëĭ¨ ìĿĦ
Ġl ove
Ġar m
o e
Ġë°Ľ ê³ł
ë¬¸ íķĻ
velop ment
íĻ Ģ
ad ron
h ouse
ry ing
ĠOh io
Ġs usp
vent ion
Ġë§ ¨
ĠRail way
Ġad op
ĠM att
Ġrun ning
Ġë°´ ëĵľ
íĶĦ ë¦¬
Ġê³µ íĻĶêµŃ
Ġ195 1
= #
ĠM P
Ġmunicip al
ĠìłĦ ìŀĲ
I T
Ġê°Ģ ë¦¬
Ġì´Ī ëĮĢ
j a
Ġì¢ĭ ìķĦ
y an
r ich
ĠìĬ¤ íħĮ
ir m
ëıĦ ìļ°
ĠìĦľ ë¹ĦìĬ¤
åŃ ¸
ĠG en
ĠB ow
ĠSp orts
Ġvict ory
ìĨį ëıĦë¡ľ
Ġw ord
ìĨ Ķ
Ġar my
ĠìĺĪ ìłķ
ain e
6 7
ê¸° ìĻĢ
ĠìĨĮ ìľł
Ġë¶Ī ê°Ģ
ĠN ot
ìŀĲ ë¦¬
Ġmon ey
ë¹ Ļ
ĠSt r
Ã §
all ery
Ġappear s
ĠêµĲ íļĮ
ys is
Ġrem ains
Ġìĺ Ľ
il ed
arri age
ĠëĶĶ ìŀĲìĿ¸
ĠT em
Ġpract ice
ĠJew ish
Ġp en
Ġê°ľ ìĭľ
Ġ3 3
Ġcomple te
n y
Ġequ ip
Ġw oman
5 1
Ġë¶Ģ ì¡±
ë¸ Ĳ
Ġíĥľ ìĸĳ
Ġì¡° ê±´
Ġëı Ī
Ġprogram s
back ground
Ġpri or
Ġiss ues
ë¯¼ì£¼ ëĭ¹
Ġíıī ê·ł
ĠRuss ia
Ġtr acks
ot ion
ìłľ ëĬĶ
ĠT op
ĠBrit ain
ĠO pen
ac her
um ber
ìĿ´ íĥĪë¦¬ìķĦ
198 2
ĠJ ones
ĠCon n
d s
i as
ĠS at
Į Ħ
ìŀ īê¸Ģëŀľëĵľ
Ġìĺģ êµŃìĿĺ
Ġì§ ķ
Ġj ob
ĠPro fess
Ġrelig ious
9 2
at ers
ĠS ar
Ġì¢ħ ë¥ĺ
Ġoper ated
Ġê²° ìĬ¹
ê ±¸
om m
Ġassoci ated
ubl ican
ĠëĦ £
Ġnum erous
ë¡ľ ìĿĺ
ê ¼
ìĥģ ìĿ´
Ġs at
A M
ĠìĤ¼ ìĦ±
Ġs uffer
ĠëĬ ĺ
Ġìŀħ íķĻ
åŃ Ĳ
ĠT im
ĠColumb ia
íĸĪ ëĬĶëį°
I V
Ġëĭ¤ ì¹´
Ġex hib
íĬ¸ ëĬĶ
it ation
ë¡ ±
Ġíķ© ë³ĳ
ìĭľ íĤ¨
Ġë³´ ìĿ¸ëĭ¤
ĠìĬ¤ íĬľ
A ust
ê°ľ ìĽĶ
u an
ĠC am
ëŁ¬ ëĤĺ
ĠìĮ į
Ġd on
Ġdif fic
Ġact ors
. (
ìĽĲ ìĹĲ
Ġê·¸ ë¦¼
F M
ir a
ĠíĻķ ìŀ¥
ìĿ¼ ìĿĦ
Ġê³ §
ĠMc C
198 1
å Į
Ġb ridge
Ġp ain
el a
ĠìĿ´ íķ´
Ġnot ed
íķĻ ëħĦ
íķ ĳ
s k
197 9
v a
êµ¬ ìĹŃ
Ġë ķħ
9 6
ìĤ° ìĹħ
ĠìļĶ ë¦¬
ìĿ´ ëŀĢ
ĠìķĦ íĤ¤
Ġtourn ament
os oph
st anding
é «
S C
p ress
Ġmon th
Ġpur p
ĠUS A
ĠIn f
ĠB ank
Ñ ģ
Ġmur der
Ġtr ade
Ġlim ited
ste in
Ġëį ´
Ġin str
ìĦ± ìĹĲ
Ġbas eball
ë¬¼ ê´Ģ
Ġwest ern
Ġs om
Ġv en
ĠíĿ Ĳ
ear s
Ġì¹ Ń
Ġpro f
il ly
5 3
ëĤľ ëĭ¤
r ac
ëı Ī
Ġìľł ìĤ¬
Ġchang es
Ġc andid
Ġë§Į íĻĶ
ìĬ¤ ìĹĲ
ĠC ivil
ĠìĬ¹ ë¦¬
Ġal tern
Ġìĸ¸ ë¡ł
ino is
Ġmost ly
Ġsub ject
p ing
ĠO tt
emor ial
Ġd ate
ĠìŀĲ ëıĻì°¨
Ġë³¸ ìĦł
Ġpro b
ì¹ĺ ê°Ģ
ic ation
ĠM at
íĸī ìłķ
ĠL ab
ĠJ r
Ġíķĺ ëĭ¤
ĠìłĦ ìĹĲ
Ġs af
ê°Ĳ ëıħ
w ar
Ġì¹ĺ ë£Į
ob al
ĠìĬ¤ íĬ¸
u ge
Ġì¡° ìķ½
Ġíĺķ ìĭĿ
ĠW ild
Ġthough t
Ġcour se
Ġ3 00
ê·¸ ëŀĺ
ĠM id
Ġë¶Ħ ìĦĿ
ect ive
ĠW ind
Ġal ready
Ġdec l
ĠG al
Ġì§Ģ ìĨį
ë· °
Ġclub s
ìĦ ¯
5 2
ĠìĶ ¨
Ġse qu
ìĭ¬ ìĿĦ
Ġch ief
Ġfeat ure
Ġen vironment
ë¶Ģ ê°Ģ
in em
å ¼
et ts
ìĤ¬ ëĭ¨
ĠìĹĶ ì§Ħ
ak a
Ġìłľ íķľ
Ġor d
ĠB ern
ì¤ĳ ìķĻ
ĠëĮĢë¶Ģë¶Ħ ìĿĺ
ĠìĤ¬ìĿ´ ìĿĺ
Ġl ength
Ġrecord ing
ĠV er
ìĿĮ ìķħ
ĠEd ward
Ġactiv ities
b ers
T rans
C areer
ĠQue en
ìª½ ìĹĲ
æ° ı
Ġbecom ing
Ġ193 8
ê³Ħ ìĿĺ
ĠëĽ° ìĸ´
ĠO fficial
ĠëĳĲ ê³ł
ĠìĦłìĪĺ ê¶Į
íķĻ ìĥĿ
ëŁ ´
ed ia
Ġìĭľ íĸī
ë¦¬ê·¸ ìĿĺ
Ġt akes
ĠA venue
ĠìĨĮíĶĦíĬ¸ ìĽ¨ìĸ´
% ,
Ġh ot
Ġh um
Ñ Ģ
ĠSh ow
angu ages
ķ ìĭľì½Ķ
u is
ĠêµĲ ìŀ¥
Ġapp lic
ë¶Ī ìĸ´
9 7
Ġëª© íĳľ
ig a
ĠìĿĺ ìĽĲ
5 4
ì³¤ ëĭ¤
Ġc ases
ĠE lect
Ġë¸ĮëĿ¼ ì§Ī
on se
Ġcaus ed
íĶĮ ëłĪìĿ´
ip l
ë©´ ìĹĲ
Ġcomm and
Ġe mer
Ġì§Ģ ì§Ħ
ìłģ ìĿĢ
Ġincre ased
Ġstud ies
ĠRes earch
on ic
Ġíķĺ ë£¨
Ġs ize
che n
ìĭľì¼ ľ
ĠíĻľëıĻ ìĿĦ
ĠP rem
ĠL ittle
ay a
ĠìķĮ ëłī
Ġìŀ ĥ
ee ks
ĠScott ish
Ġìłķ ìĭł
Ġp i
ĠJ ul
Ġc ust
ĠW ay
í ľ´
Ġí ľĺ
ë¥´ ìĿĺ
ëłĩ ê²Į
is her
ìŀĲ ëĵ¤ìĿĢ
¨ ë¦¬
Ġstat us
oc al
ë Ģ
ĠD utch
ĠíļĮ ìĤ¬
Ġc ell
Ġmultip le
ĠK ent
ĠPr ince
Ġterm s
in als
Ġê¸° ìĽĲìłĦ
ĠHe alth
Ġs u
ĠL iber
ĠìĦľìļ¸ íĬ¹ë³Ħìĭľ
Ġ4 8
Ġê±¸ ì³Ĳ
ĠS ince
ĠìĽ Ģ
ĠAs ia
ìĭľíĤ¤ ëĬĶ
Ġë Ŀ
ĠL ibrary
te xt
t rack
Ġappear ances
ìĦ¸ ê°Ģ
ĠPort ug
man n
íķĺ ëıĦë¡Ŀ
Ġìłķ ê·ľ
ĠM ore
Ġant i
Ġbet ter
ĠJ ournal
Ġëĵ± ìĹĲ
av en
Ġê°Ģ íĨ¨ë¦Ń
ĠìĹĨ ìĹĪëĭ¤
ĠMich igan
Ġlin es
ëıĦ ìĭľ
Ġiss ue
Ġd om
ail y
ĠìŀĪìĸ´ ìĦľ
ay er
Ġ3 7
n am
Ġë°°ìļ° ìĿ´ëĭ¤
ìĦ¸ ìĿ´
Ġìłľ ì¡°
ĠK e
Ġd ed
Ġleg al
ĠìĦł ìĸ¸
ĠOx ford
: #
Ġf unction
Ġ ens
Ġg ran
ĠEast ern
Ġë¬¸ íķĻ
ëĶĶ ìķĦ
ë§Ī ìĿ´
ian ce
Ġg ive
ph y
ig er
Ġìłľ íĴĪ
ĠE nd
Ġlong er
Ġret ired
ĠìķĦ íĶĦë¦¬ì¹´
è ¨
ë§Ī íģ¬
ĠíĿ ¥
ĠëĲĺ ìĹĪê³ł
Ġmat ches
a res
é Ģ
íĸĪ ìĿĦ
ëŁ Ń
Ġim medi
ĠM en
Ġê²½ ìĺģ
ĠO b
em porary
ì°¨ ìłĦ
ĠìĤ¬ìļ© íķĺëĬĶ
Ġsc ore
ĠìĬ¹ ê²©
Ġle aving
er em
Ġoffic er
ĠCor ps
íĭ ¸
t a
Ġë¹ ħ
å ¥
ĠL G
aren ts
ip s
Ġev idence
ĠL atin
Ġl ack
ran ge
ĠB oy
Ġëªħ ëł¹
Ġproper ty
ĠìķĦ ëĤĺ
por ation
ĠE arth
ìĶ ©
ple ment
struct ion
Ġex c
ĠíĮĮ ìĿ´
urb an
Ġs ister
M usic
is ation
ant ry
ĠO k
ĠCo ast
ĠT w
æ ķ
Ġìµľì´Ī ë¡ľ
ĠAd m
Ġë§Ĳ íĸĪëĭ¤
ìłĦ ìŀĲ
Ġed itor
ĠEn ter
Ġrefer red
Ġì° ¬
M S
íĺ¸ ëĬĶ
Ġmanag ement
ing er
ĠíĹĮ ë²ķ
I s
ì§Ģ ìĻĢ
Ġem b
Ġíĺ Ī
Ġê³µ ìĤ°
im a
ëį ¤
ĠìĿ´ë¦Ħ ìĿĢ
ĠHigh way
Ġfor ced
ĠìĦł ì¶ľ
Ġíı¬íķ¨ íķľ
ìŀĦ ìĬ¤
äº º
Ġbel ow
Un ited
ĠCh ief
İ ìĿĢ
ìĹ° íķ©
Ġìº ł
Ġb r
ĠProv ince
ìļ° ë¦¬
Ä ±
ìĦ¸ ëĬĶ
d is
Ġpl atform
ĠSpec ial
Ġê·¸ ëĵ¤ìĿĺ
ĠD ie
Ġcol on
Ġ ç
in et
Ġf ederal
Ġcomm ission
Ġê±´ì¶ķ ë¬¼
ach us
ĠìŀĲ ì¹ĺ
Ġì£¼ ë¯¼
ĠêµŃ ëıĦ
ĠíĨµ ê³¼
attal ion
ĠìĭĿ ë¬¼
Ġë¯ ¿
Ġann ual
Ġmajor ity
Ġinit ially
art ers
ëį° ìĿ´
ĠFranc isco
ĠW omen
adel ph
Ġun ion
Ġthe ory
ëłĢ ëĭ¤
Ġìĭ¤ íĹĺ
196 0
ĠChampionship s
ìłľ ìŀĳ
Ġsh own
re ct
ĠëĤ´ ëł¤
Ġfoc us
Ġëª ¬
ìľł ëŁ½
Ġë°Ķ ëĢ
ìĨĮ ê°Ģ
i y
ë¦¬ ìĹĦ
ont o
à ¸
Ġto day
Ġë¶Ī êµ¬
ĠU nder
ëĭ¤ ìĿ´
Ġìĸ´ ëł¤
ĠìĿ´ ëŁ°
ĠW all
ĠM ajor
Ġgo ing
Ġb ound
esp ite
ĠT re
ĠM os
ĠìĦ¤ ê³Ħ
Ġ è
Ġo p
Ġhe re
ĠAl bert
êµ¬ ë¥¼
Ġtown s
Ł ³
Ġì´Ī ëĵ±íķĻêµĲ
Ġun iversity
ì§Ģ ì»¬
íĴ Ģ
ĠW al
Ġë¶ģ íķľ
ic ations
Ġë¹Ħ íĸī
ĠB et
enn is
Ġrem ain
t ained
ĠL uc
ĠIll inois
Com p
a ult
che stra
Ġë² ¤
ê²¼ ëĭ¤
ĠìĤ¬ ëĿ¼
íıī ê°Ģ
ìĿĢ íĸī
ĠBel g
nt ario
ĠPac ific
Ġc itiz
åľ ĭ
ĠíĻ Ģ
ĠìĻ ľ
ĠC reek
Ġlarg er
ì§ ľ
Ġdec ision
ĠëĶĶ ì§ĢíĦ¸
Ġl ic
Ġìľł ë¡ľ
Ġíı´ ëŀĢëĵľ
ĠëĮĢ ì¤ĳ
Ch ar
íķľëĭ¤ ëĬĶ
ĠM inn
ĠìķĦ ë§Ī
ap ers
Ġê²° íķ©
adelph ia
ìĺ ¹
ëªħ ìľ¼ë¡ľ
u ate
N ot
ĠìĺĪ ìĦł
ĠëĦ¤ ëįľëŀĢëĵľ
ĠIs lam
ĠìĨĮ ë¹Ħ
ëŁ¬ ìĭľìķĦ
ĠëįĶ ìļ±
Ġíķĺ ì§Ģ
Ã ±
Ġn ine
Ġb rand
Ġfore ign
Ġacc ount
Ġë¹ Ľ
Ġdis e
Ġê²ĥ ìĿ´ëĿ¼ê³ł
íĺ¸ ë¡ľ
ĠG ame
ĠSt an
Ġb rief
ed d
Ġse lected
ĠS ocial
Ġëĭ¬ ìĦ±
ur ies
197 8
ĠíĶĦ ëłĪ
Ġì½Ķ ë¯¸ëĶĶ
å· ŀ
íĺ ¹
Ġêµ° ìĿ¸
Ġc le
ĠSt ation
Ġdes p
Ġent ered
ĠìķĦ ëĤ´
ê²Į ìŀĦ
% .
ë ´
Ġìŀħ ëĭ¨
8 9
d own
ê·¸ ë£¹
8 6
Ġê´Ģ íķł
Ġlaun ched
P S
Ġëª¨ìĬµ ìĿĦ
ëĳ Ķ
ĠGeorg ia
Ġro om
Ġeconom ic
B rit
Ġun c
on ia
Ġsen ior
ëŀ Ĳëĭ¤
Ġpass ed
air man
o h
íĤ¤ ëĬĶ
ëĤ¨ ìŀĲ
ìĿ¼ ìĹĲëĬĶ
res p
Ġserv ing
Ġê² ¨
Ġë§ º
ĠWilliam s
Ġ ice
Ġë§Ī ìĤ¬
ort un
Ġê°ľ ìĹħ
íķ´ ìĿĺ
ĠSy d
el d
ess ion
íģ¬ ëĿ¼ìĿ´
Ġì±Ħ ëĦĲ
Ġ3 4
ĠW ater
Ġqu ick
Ġìľł íĺķ
Ġê°ľ ë´ī
ĠCent re
Ġ193 6
ĠSe a
ĠB oston
av a
Ġsepar ate
ìĿ¸ íĬ¸
Ġmov ie
acks on
Ġn orm
íĶ¼ ìķĦ
ì¡° ìĹ°
ëª¨ ë¦¬
Ġêµ¬ ëĭ¨
Ġconsid er
ir ing
ĠìŀĪ ê²Į
ĠM u
N ational
Ġê°ķ íĻĶ
Ġsubsequ ently
Ġmean ing
íħĮ ìĿ¸
Ġw ide
ĠB h
ĠìķĮëł¤ ì§Ħ
W ith
ran ce
Ġform s
ag er
ĠL i
erv ation
ri ed
un c
ĠíĬ¹ ìĪĺ
Ġë°Ŀ íĺĶëĭ¤
T A
ê¸° ìĹħ
ĠB and
ìĺģ ìĸ´
sel ves
y t
h ol
Ġthem selves
ĠìĿ´ìľł ë¡ľ
Ġst ep
Ġdisc uss
Ġth reat
led ge
Ġoffer ed
ëŀ Ń
ì£¼ ë¥¼
Ġëĵ± ìľ¼ë¡ľ
Ġm ach
Ġass ociation
7 2
Ġë²ķ ë¥ł
Ġ æ
achus etts
d uce
Ġì§ĢìĹŃ ìĿĺ
ri z
Ġìŀ¥ ê´Ģ
Ġ x
n o
Ġì¤Ģ ìļ°ìĬ¹
ëį° ë¯¸
9 4
ĠM ax
ëĲ ¨
ĠìŀĪìĹĪ ëįĺ
Ġacqu ired
ad s
Ġhistor ical
Ġsp l
itz er
ëĿ¼ ìļ°
ë¶Ģ ë¡ľ
ĠP eople
æĿ ±
ìĦ¸ ë¥¼
Ġìłľ ìķĪ
ĠCh ild
ìĨĮ ìĿĺ
Ġen ergy
ĠPro t
ub e
ê³µ ìĤ¬
íķ µ
Ġparticular ly
Ġf le
ä ¿
Ġë°© ë¬¸
ĠU l
Ġì¢ħ íķ©
l anguage
Ġrepresent ed
ĠE P
Ġf oot
Ġbelie ved
il a
Ġstruct ures
itt ing
á Ĩ
Ġm iddle
ìĽ łëĭ¤
ĠE ll
Ġê ½ĥ
íĭ° ìķĦ
Ġìĺģ ìĸ´
197 3
ĠD et
ë§Į ìĿĦ
ĠKore a
Ġm erg
ĠìĹĲ ìĿ´
ĠCon ference
Ġd ra
ĠíĴ Ī
Ġíİĺ ë¥´
ric ts
in ent
ĠìłĲ ëł¹
ail ed
Ġh ours
Ġìĭł ìĦ¤
Ġcre ate
ĠI ran
Ġal ways
7 1
Ġeast ern
ì¤ĳ êµŃ
ìłģ ìĿ´
he w
Ġê·¸ëħĢ ëĬĶ
ad ian
Ġm akes
ĠUn ivers
ĠPol ish
ë¡ ¬
Ġê²½ íĹĺ
Ġc ouncil
ĠS und
Ġl og
Ġfor t
oc cer
Ġíİ¸ ìŀħ
ĠU r
Ġëªħ ìĺĪ
ĠS and
ak ers
Ġê¸° íļį
ë§Į ìĿ´
Ġg ra
ĠI f
íĬ¸ ìĽĮíģ¬
ì§Ģ ì§Ģ
Ġan cient
Ġc ut
ĠB ab
at us
ĠêµŃ íļĮ
m un
S ports
F rom
ĠP op
b it
ëĤĺ ë¯¸
7 4
ë§Į ìĿĺ
ĠìĦ± ìŀ¥
ric e
Ġse at
6 2
ê°ľ ë°ľ
Ġepis odes
th ur
ĠO ntario
ìĦ± ìļ°
Ġw eeks
- -
s en
iz ing
ic ks
ĠM ot
Ġë®¤ ì§ģ
ì» ¨
Ġp il
Ġ ess
Ġper cent
Ġspec ific
at ively
ĠK ar
Ġm em
ìĿĺ íļĮ
ê·¸ ëĬĶ
W est
im um
197 4
ë¥´íĪ¬ ê°Ī
A F
Ġìľł ëŀĺ
Ġb omb
Ġ ver
ĠC ur
ĠK enn
ĠR ay
197 6
ĠAss embly
ĠëĤĺ ìĺ¨
ĠSyd ney
ron ic
Ġo pt
ìĹ ½
Ġbl ock
Ġëī´ ìĬ¤
ëħĦ ìĿĦ
ìļĶ ìĭľ
Ġp age
ìĽĲ ìĹĲìĦľ
Ġìĭ¤ ìłľ
íĶ Ī
ĠJohn son
Ġs ource
ìĤ¬ ëŀĳ
Ġint eg
ìľĦ ìĿĺ
he im
Ġp it
ĠB a
Ġar rest
ë¬¸íĻĶ ìŀ¬
c el
S he
Ġê°ķ ìĽĲ
ĠT am
Ļ ìĿĢ
ĠìĿĢ íĩ´
ĠìĦ¼ íĦ°
W hen
Ġì¼Ģ ìĿ´
f ect
ĠS ong
å® ī
Ġcommun ities
Ġíķ Ģ
ĠìĹ¬ íĸī
ĠAr m
íķ¨ ìľ¼ë¡ľìį¨
Ð º
Ġl atter
6 1
í Ī
ĠíĽĦ ì¿ł
ĠR am
ëĭĪ ìĭľ
Ġart icle
e en
ìĤ¬ ê±´
ĠìĽ¹ ìĤ¬ìĿ´íĬ¸
Ġìłĳ ê·¼
ell ig
Ġvar iety
ĠìĪĺ ì¤Ģ
ĠìŀĲ ë¦¬
enc ies
197 2
ĠV an
Ġë¶Īêµ¬ íķĺê³ł
ĠC at
Ġrem aining
íı¬ ëĭĪìķĦ
he ster
ĠB or
Ġcom edy
ĠëĤĺ ì¹´
ĠF ield
9 3
ĠR el
Ġadminist r
ëĤ´ ëĬĶ
Ġg ot
Ġc ities
Ġlab el
ĠD VD
ut en
ë¹ ł
íķĻ ëł¥
ì» ´
orn ing
ĠAr gent
Ġtro ops
ĠìĹĺ ë¦¬
am in
ĠF M
ëłĪìĿ´ ìħĺ
ê ½ĥ
Ġp p
ĠThe ir
ab eth
ì°¨ ë¡ľ
v is
Ġse a
n es
Ġmin utes
ĠPhil ipp
ĠP ost
Ġêµ¬ ë¶Ħ
L A
z y
ĠìĦ± ë¦½
il ies
Ġhel ped
Ġë© Ģ
ê°Ģ ìĿĺ
Ġch art
Ġv on
le vel
Ġmed ical
Ġclaim ed
197 7
Ġext ended
te en
is k
ĠìĽĢ ì§ģ
Ġì¹ ł
ĠF our
it age
ĠBer lin
Ġad j
Ġcom ment
ĠI S
D on
ĠìĨĮ ê°ľ
ri f
Ġrequ ire
Ġcre w
Ġfail ed
ag ement
Ġpresent ed
Ġd ro
Ġhous es
ĠìĿ¸íĦ° ëĦ·
Ġì§Ģíķĺ ì²ł
ĠE p
ê¸Ī ìĿĦ
Ġpass eng
ëĭ µ
Ġc ann
ĠA z
ĠAir port
íģ ¼
Ġturn ed
ĠìľĦ íĹĺ
ĠF A
ĠAnd rew
Ġë¬¼ ì§Ī
Ġw ords
Ġ193 7
ĠìŀĲ ì£¼
ë ĩĮ
ë¸Į ëĿ¼
ĠìĥĿ ìĦ±
Ġaff ili
ĠL ight
å »
ĠíĬ¹ ìłķ
20 23
6 3
Ġ19 14
) '
ìĻ Ķ
ĠMass achusetts
os aur
ï¼ ī
ĠC ard
ìŀĲ ëĵ¤ìĿ´
Ġdou ble
ab les
ì²´ ëĬĶ
Brit ish
ĺë¦¬ íı¬ëĭĪìķĦ
ĠíĶĦëŀĳ ìĬ¤ìĿĺ
Ġnear by
m ore
g u
Ġìłķ íĻķ
ĠFound ation
Ġprov ides
Ġíİ ľ
Ġê°Ģ ë¬¸
ĠìĺĪ ë¥¼
m as
Ġres idents
y ric
O r
ë¹Ħ ë¥¼
Ġê²ĥ ìĹĲ
ì½Ķ ëĵľ
Ġëģ Į
p an
ìĽĶ ë¶ĢíĦ°
Ġd one
éķ ĩ
ìĭľ ë¡ľ
Ġhe avy
ĠDirect or
Ġtechn ology
t ies
Ġëĭ¬ ëŁ¬
Ġplay s
ĠM any
Ġg overn
Ġob ject
ĠìĿ´ë¦Ħ ìľ¼ë¡ľ
v ement
ĠC ub
Ġdist inct
ëĲĺ ê¸°
gy pt
ĠR og
ĠëĤĺ ë¨¸
ol is
Ġcover ed
ĠëįĶ ë¶Īìĸ´
å Ľ
ĠëıĻ ìĥĿ
ìĹŃ ìĿĦ
Ġìµľ ê·¼
Ġperson nel
ĠR em
Ġincre ase
ëĭ ¥
ĠM ov
Ġindivid uals
Ġfin ally
ĠìĻĦ ìłĦíŀĪ
M an
Ġê·¸ ë¦°
ĠBr idge
Ġc arried
Ġê°Ĳëıħ ìĿĺ
Ġë²Ķ ì£Ħ
íĥĢ ìĿ´
196 8
Ġtem per
Ġsupport ed
Ġë¬¼ ë¦¬
ìĿ¸ ìľ¼ë¡ľ
Ġê³ł ëĮĢ
7 3
Ġresp onse
æ ī
Ġm useum
ĠíĮĮ ê´´
Ġë²ł íĬ¸ëĤ¨
Ġv s
ëıĻ ìĿĦ
ç ¦
Ġrecord s
Ġê¹ ¨
ĠL ater
y th
yd ro
ì ´ī
åį Ĺ
ë¶Ģ ë¬¸
Ġd iss
Ġdes cent
rup t
Ġë¶Ģ ìĹ¬
per or
Ġp arents
Ġun ivers
Ġoffic ers
8 5
ĠC orn
ëĭĪ ìĸ´
ous ly
êµ¬ ìĹĲ
Ġsur face
Ġship s
M embers
S w
ìĥģ ìĹĲ
ï¼ Ī
ro vers
ĠëŁ° ëįĺ
Ġcount y
is hes
out heast
ag ing
å Ĭ
Ġm ight
Ġstart ing
Ġë§¡ ìķĺëĭ¤
Ġë°ľ ëĭ¬
Ġo il
å¤ ©
oc ese
ĠJ ac
ìĿ¸ ì§Ģ
íıī ìĸĳ
Ġë¶Ģ ë¥´
Ġìĵ ´
ĠìķĮ ê³ł
ad or
ĠK ong
b a
ĠB ir
Ġ193 5
ĠíķĺëĤĺ ìĿĺ
Ġc hem
oc ks
l ight
Ġleg isl
Ġfin ancial
Ġê·¸ ëĵ¤ìĿĢ
Ġê³Ħ ìĹ´
ìłķ ìĿĢ
st one
al m
eder ation
b re
Ġê²° ìĦ±
ë¶Ģ ìĤ°
og rap
ound s
Ġìĭ ¶
ëıĻ ìĹĲ
Ġover all
ĠëıħìĿ¼ ìĿĺ
Ġoper ation
ĠL ive
ĠJo e
ĠìĦłìĪĺ ë¡ľ
ill ed
k er
ĠMus lim
â Ī
ĠíķĺëĤĺ ìĿ´ëĭ¤
ĠìĻ¸ êµĲ
Ġch annel
Ġv oice
Ġì¤ĳ ìĹĲ
ĠH ome
Ġp sych
ä¸ ī
Ġl anguages
ĠÂ £
ë¯¸ ìķ¼
Ġm echan
ì°¬ ê°Ģì§Ģ
Ġcoll abor
ag n
im ated
ĠH ind
ĠC E
Ġrec ent
Ġproble ms
ent y
ãĥ ³
ou ri
Ġìŀĳ ìļ©
Ġë°Ķíĥķ ìľ¼ë¡ľ
åŁ İ
Ġcons ists
Ġcap ac
Ġassist ant
Ġpre vent
Ġan g
ĠëķĮ ê¹Įì§Ģ
om er
Ġform at
ë¡ľ ë§Ī
ad ing
Ġh ospital
Ġë²ł ìĿ´ìĬ¤
em et
ĠìĿ¸êµ¬ ëĬĶ
íĦ° íħĮìĿ¸
l av
Ġb order
ì¼ ľ
Ġ19 19
onom y
Ġmain ly
Ġneigh bor
Ġmeet ing
Ġt arg
ĠP ubl
Ġsecond ary
hen s
F urther
r in
ìĸ´ ìĦľ
ĠH ung
è ĩ
íķĺ ìĿĺ
Ġ4 00
ê·ľ ëª¨
ĠìĪĺ ìļ©
o z
ëĿ¼ ëħ¸
Ġprop osed
ar ry
ĠB udd
éĩ Į
ĠC oll
ì¹ĺ ê³ł
Ġì ´ī
oun ts
Ġfeat uring
Ġcomp uter
ĠìŀĪ ëıĦë¡Ŀ
Ġnear ly
Ġb ring
Ġint ers
N e
9 1
B e
ìŀĲ ë£Į
Ġsh oot
Ġpe ak
ĠG h
Ġch arg
Ġìķ Ļ
ĠWil son
ĠB ell
ens is
ìĿ´ íĽĦ
ĠìĿĮìķħ ê°Ģ
Ġcomp osed
ë²ķ ìĿĦ
Ġìłľ ì£¼
Ġm arriage
ĠM ike
sp an
Ġê°ľ ì¹Ń
197 5
ìĥģ ìĿĢ
m ission
Ġ19 18
Ġê±° ëĳĲ
Ŀ ê°Ģ
Ġn uc
ĠPhil adelphia
z ech
ê°Ĳ ìĿĦ
ĠìĹ¬ ë¦Ħ
ĠJ eff
ĠíĶĦë¡ľëĵĢ ìĦľ
E d
Ġin n
amp les
os a
ĠWin ter
stit u
ĠìķĦ ì§ģ
Ġle ave
ĠëĨ Ģ
ul ly
ì§Ģ ëıĦ
Ġbel ong
íĦ°íħĮìĿ¸ ë¨¼íĬ¸
Ġë¹Ħ íķ´
ĠìĤ¬ëŀĮ ìĿ´
ëŀ į
Ġdep art
ëĶ ĺ
ĠRep resent
ìĿ¸ ëį°
Ġê²½ ìŁģ
ĠìķĬ ìķĦ
Ġst ories
ĠO s
ĠìļĶ ì²Ń
Ġ Å
am m
Ġe lements
un a
Ġê¸° ìŀĲ
Ġto ld
Ġ *
Ġdiffic ult
ĠPri ze
Ġìłľ ìĭľ
Ġë§Į ëĤĺ
Ġë¯¸ ëŀĺ
ĠAlex ander
a ith
ĠR aj
form ed
Ġê¸° ìĹ¬
ĠìĿ´ ëĵ¤ìĿĢ
Ġra ised
Ġch all
Ġpl ans
ĠPak istan
Ġearn ed
åħ ¬
Ġìľ¡ ìĥģ
Ġorganiz ations
Ã ¸
ĠìĿĺ ìĤ¬
ĠíĻ© ìłľ
ĠVictor ia
ĠìĪ ł
ìĿ¸ ê³¼
ĠRep ublican
íı ¼
ì¿ł ëĿ¼
ĠìĿ¸ íķľ
u ing
ĠìĹ¬ ê²¨
ãĢ Ī
ĠJ ackson
Ġpol icy
Ġspe ed
ĠìĪĺ ë¹Ħ
O M
uck y
Ġn ature
ìĤ° ìĿĦ
íĶĦëŀĳ ìĬ¤ìĿĺ
ob ile
olog ist
Ġnum bers
ĠCor poration
Ġdesp ite
Ġc ars
) (
Ġc at
ë¦¬ ìĸ´
Ġde ad
ìĭ ¸
Ġë°° ì¹ĺ
å ĭ
ĠC y
ort heast
ar p
6 9
Ġag ric
Ġdirect ly
l i
ĠS pe
á »
ĠíļĮ ìŀ¥
enn ess
Ġìŀĳ ìĤ¬
Ġë§Ī ì°¬ê°Ģì§Ģ
ĠP ower
Ġì¤ĳ ëĭ¨
Ġíģ´ ëŀĺ
Ġnewsp aper
íķŃ ê³µ
ĠìľĮ ë¦¬ìĹĦ
m od
ĠA tt
Ġal leg
197 1
ĠT od
ĠJ es
ĠTh ree
Ġpo or
ĠV iet
Ġíķ´ ìĦĿ
vers e
Ġc ensus
Ġren amed
E N
ĠGu ard
a is
og ue
Aust ral
ëªħ íķľ
ìĭĿ ìĿ´
é« ĺ
Ġìĥģ íĺ¸
ç §
Ġr ugby
ë§ İìĿĢ
Ġcond itions
E D
Ġwe ap
anc y
ê²½ ì°°
ìĹĪ ìľ¼ë©°
ĠP C
um ed
ĠìĬ µ
ê¸° ìĽĲìłĦ
ì§ ĵ
Ġst ay
Ġìĺģ íĨł
Ġì¶Ķ ì§Ħ
ëĶĶ ìĸ´
Ġp ick
íĬ¸ ëĿ¼
Ã¡ n
ĠOff ice
ì£¼ ë¡ľ
w ide
Ġprov ince
Ġê°Ģ ë¥´
us band
Ġíĳľ ìĭľ
Ġìłķ ëıĦë¡ľ
ĠìĻķ êµŃ
ê³¨ ìĿĦ
ĠF er
Ġr ule
Ġìłľ êµŃìĿĺ
Ġíķ´ ê²°
Ġwork ers
Ġë³µ ê·Ģ
Ġíİ¸ ì§ĳ
Ġqu arter
Ġ193 3
it ude
ìķĦ ê°Ģ
ëĵ¤ ë¡ľ
Ġì¡´ìŀ¬ íķľëĭ¤
Ġnov els
Ġìłľìŀĳ ëĲľ
ìľĦ ê°Ģ
ĠIs lands
u j
y er
bour ne
ìĽĶ ìĹĲëĬĶ
Ġstud ied
writ er
Ġê°ķ ëł¥
in ated
ìłĲ ìĿ´
Ġen ough
ĠP en
ast ic
es ota
ĠëĬ Ķ
Ġcon cept
ìĭľ ìĦ¤
E T
Ġbecom es
Ġfac ilities
Ġk ind
ĠBr ig
ĠíĺĦìŀ¬ ìĿĺ
Ġde ep
196 9
Ġsold iers
ĠL im
ĠG overnor
Ġë²Ī ìĹŃ
Ġd yn
ì§Ģ ìħĺ
ul es
Ġëħ¼ ëŀĢ
ĠOlymp ic
A P
ĠU N
ĠF ar
ĠCh arl
Ġs ector
olit an
ic ted
ra q
Ġì§Ģ ìĥģ
Ġê·¸ ëŁ°
¤ ¾
ĠPro gram
Ġmusic ians
ë³¸ ë¶Ģ
ĠìĦ± ê²©
Ġhigh way
Ġìī ½
íĺ¸ ìĤ¬
ĠìĤ ¶
and on
ìłĦ íķľ
ĠM ir
Ġì¤ĳ ìļĶ
Ġê ¿Ī
Ġc orn
Ġ193 4
Ġë°ľ íĸī
Ġdram a
et ic
ëŀ Ħ
ê°Ħ ëĭ¤
ìľ¼ ë¯Ģë¡ľ
ìĨĮ ëĬĶ
ĠëĿ¼ìĿ´ ë¸Į
Ġp ath
D em
ì¶ķ êµ¬
ĠëĤ¨ ìª½
ëĥ ¥
ëħĦ ê°Ħ
Ġinflu ence
Ġin stitut
em an
ict ional
ĠS erb
è »
in us
e z
orpor ated
ĠFore st
Ġì²´ ê²°
Ġíģ¬ ë¡ľ
Ġelect ric
Ġprim arily
Ġìĺ¤ ë¥¸
ĠìĬ¤íĬľ ëĶĶìĺ¤
Ġìŀ ĩ
Ġsuc ceed
íĺķ ìĿĦ
Ġc ause
ìĭł ìĿĦ
inist ry
Ġc ard
Ġë© ¸
Ġë¹Ħ ë°Ģ
T rack
ë¬¼ ìĿĺ
Ġì£¼ìĿ¸ ê³µ
Ġë¯¸ ìĤ¬
Ġë¸Ķ ëŀĻ
ro g
ĠTor onto
Ġon line
íĬ¸ ê°Ģ
Ġst adium
ĠL ew
Ġpar ish
O ne
ĠReg iment
N o
Ġs ociety
Ġë¶Ħ íı¬
A nd
ion e
ak h
Ġíı °
ĠHe ad
Ġë¯¸êµŃ ìĹĲìĦľ
est ab
Ġrespons ible
ĠB al
195 0
Ġin hab
Ġd omin
ay lor
Ġdr ug
ë¡ľ ëĵľ
Ġê°ľ íĺģ
ìŀ ī
Ġexper ience
d a
A c
Ġval ue
Ġ19 29
an th
ĠA k
ê´Ģ ìĿĢ
ĠìĤ¬ìļ© íķľëĭ¤
ìĹĨ ìĿ´
Ġcon fl
Ġìĭ Ń
amb ig
íĻĶ ìĿĺ
íĬ¹ë³Ħ ìŀĲì¹ĺ
Ġìĺ¤ ëŀĺ
íĭ° ë¸Į
ors hip
Ġë¥ ´
Ġ6 4
ĠSup reme
Ġn ecess
us c
ie uten
igh ter
Ġup per
íķĺ ë§Ī
Ġë© ľ
Ġìŀĳ ìłĦ
Ġwho le
ìĹĪ ëįĺ
ĠA ut
ĠJ ean
Ġwhe ther
Ġprogram ming
ĠìĹ° ìŀ¥
Ġlik ely
Ġì§ĢìĹŃ ìĹĲ
ìĺ¤ íĶĦ
ìĬ¤ ìĹĲìĦľ
ĠìĿĺ íķĺìĹ¬
ĠíķĺëĤĺ ë¡ľ
Ġdel iver
Ġdiscover ed
ìĿ´ ê¸°
ìĭł ìĿĺ
Ġëª» íĸĪëĭ¤
cl es
Ġì¤ĳ íķĻêµĲ
ĠB ad
íģ´ ëŁ½
Ġconstruct ed
Ġmention ed
ĠíĮ¨ ë°°
Ġê¸° ì´Ī
ĠE gypt
ìłĦ ìŁģ
ĠìĿĺ íļĮ
ĠMar ine
ĠQue ens
b s
Ġre ason
Ġì°¨ íĬ¸
å® Ĺ
ran ts
ed om
Ġas ked
ĠR od
m ad
u v
ìľĦ ëĬĶ
ì½ ¤
Ġmanag ed
ĠPro ject
ë¡ľ ë¥¼
re c
Ġf ace
Ġíķ´ êµ°
il ton
ê²½ ëł¥
Ġlevel s
w orth
Ġìĺ¤ìĬ¤íĬ¸ ëłĪìĿ¼
ĠìĦłìĪĺ ìĿ´ëĭ¤
ins on
lement ary
Ġê³µ ìŀĳ
ĠìľĦ ìĹĲ
Ġì²ľ íĻ©
Ġ4 2
Ġserv e
íĮĮ ìĿ´
Ġc ricket
Ġ19 28
ìĥĿ íĻľ
ìĨĮ ë¦¬
ìķĦ ë¥´
Ġë°Ŀ íĺĢ
ĠìĿ´ ì£¼
ĠSim on
ê¸° íļį
ĠCh ap
Ġì°¨ ë¡Ģ
os h
Ġmiss ing
ĠF air
Ġsc hed
ĠëĤĺ ë¬´
ĠíĽĪ ëł¨
g reg
Ġcamp us
ĠìĨį íķĺëĬĶ
ut ions
Ġì§ §
er c
ris on
E l
Ġê°ĢëĬ¥ íķĺëĭ¤
Ġn ative
ĠMed al
ĠR et
ĠìĪ ¨
ĠAs h
Ġë²ł ë¥´
en es
Ġë¶Ģ ìłķ
ĠìĬ¤ ìĽ¨ëį´
ĠìłĦ ë°ĺ
und red
ail s
ĠíĿ ¡
8 3
Ġs al
ĠìĬ¤ ìĬ¤ë¡ľ
Ġë¶Ī êµĲ
êµ¬ ëĬĶ
Ġ193 2
r ate
íĻĶ ëĲľ
ìĿ´ ìĤ¬
Ġ1 000
ì £½
ĠF e
it ter
Ġc lear
ì§Ģ ìĹĲìĦľ
ë¥¼ ë¦°
ìĥģ ìľ¼ë¡ľ
Ġìĺģ ìĹħ
ç «
Ġc ateg
Ġëħ¹ ìĿĮ
Ġìĭľ ê¸°
Ġapp l
A D
ce an
ĠL es
uild ing
ĠH uman
ĠBe ach
ĠBas eball
am ber
Ġp aper
Ġìĺ¤ëĬĺ ëĤł
ê°Ģ ì¡±
ĠëĤ¨ ë¶Ģ
ĠCol or
Ġì§ĳ íķ©
ĠHar v
Ġremov ed
g et
Ġdiv ided
Ġë°Ķ ë¥´
Ġë°ķ ìĤ¬
Ġë¶Ģ ìĿ¸
ĠíĶ¼ ìķĦ
Ġìłķ ìĭĿ
Ġlist ing
Ġê·¸ ëĮĢë¡ľ
ĠìĤ¬ìĿ´ íĬ¸
ĠC a
ê³Ħ ìĹĲ
W orld
ĠC op
Ġhe art
iz abeth
8 2
ĠJust ice
ambig uation
ĠM ain
ĠíĨµ ìĿ¼
ì§ģ ìĿĦ
Ġmet al
" |
ĠìĤ¬ëŀĮ ëĵ¤ìĿ´
T C
Ġê³ ¤
Ġsc ene
qu arters
ic ine
oc ated
ĠBro ther
ì²´ ìľ¡
ë©Ķ ëĭ¬ë¦¬ìĬ¤íĬ¸
Ġìĥģ ì§ķ
Ġinit ial
b ec
ëĭ¨ ìĹĲ
ë ¿Ĳ
ist ance
Ġincre asing
Ġê°ĸ ê³ł
Ġbl ood
tt p
196 4
Ġíĺĳ ëł¥
ĠL o
å¹ ³
ĠìĿ ½
ĠëĦ Ĳë¦¬
Ġê¸ Ģë¡ľ
Ġtransfer red
Ġproduct s
Ġf unct
Ġê¸°ë¡Ŀ íĸĪëĭ¤
ĠìĿ Ħ
Ġê·¼ ì²ĺ
ëĵľ ê°Ģ
Ġtit les
Ġ ult
è ¦
ĠV en
ĠF ire
i est
Ġì£½ ìĿĢ
196 7
Ġeff ects
Ġreg ional
ww w
ig en
ë¯ ¹
ĠDemocr atic
ĠStev e
ĠìĤ¬ìļ© íķł
Ġexp atriate
Ġhon or
Ġê²½ìĥģ ë¶ģëıĦ
ĠìłĦ íĻĺ
ëĵ¤ ëıĦ
Ġl ives
ĠCamb ridge
ĠìķĦ ë¬´
Ġcom es
th ing
Ġë¶Ī ë¦¬
Ġê°ľ íİ¸
Ġa wards
P op
194 5
ĠB ang
Ġìĭľ íĹĺ
Ġcol or
ĠDe velopment
Ġê³¼ìłķ ìĹĲìĦľ
ĠìŀĦ ìĭľ
ĠS om
Ġwant ed
ê°Ģ ë¥¼
ìĿ´ ìĻĢ
Ġfriend s
Ġpro gress
ar row
ĠN etwork
8 4
Ġì²ĺ ë¦¬
ic ed
ĠìĭĿ ë¯¼
im al
Can adian
Ġíİ ¼
ĠA M
íĹ¨ íĭ°
ĠíĪ¬ íĳľ
cl ass
Ġë ĩĮ
ĠK en
Ġs ources
ëŀĺ íĶĦíĬ¸
Ġìļ°ìĬ¹ ìĿĦ
ĠíļĮ ìĽĲ
ìĦł ìĿ´
Ġnot able
Ġë°ĶëĢ Į
Ġê´Ģ ê´ĳ
Ġëĵ± ë¡Ŀ
M ed
Ġë¶ģ ìª½
ĠëĶ° ë¥¸
íĨµ ìĭł
ĠS ant
resp ond
Ġsol o
ëĤĺëĿ¼ ìĿĺ
ĠA C
Ġê ¶¤
ä¸ Ģ
ìĿ¼ ë°ĺ
ĠU k
ĠComm on
r ade
Ġg reen
Ġex ecutive
ĠS K
ìĭľ ëĬĶ
Ġaut om
Ġcontin ue
Ġrul es
Ġì§Ģìłķ ëĲĺìĹĪëĭ¤
W ill
ë§Ī ìĬ¤
Ġben ef
ëħ ķ
or ph
Ġg un
Ġ3 9
M en
Ġê°Ģ ìł¸
Ġê°ĢëĬ¥ íķľ
Ġìĭľ ì²Ń
O V
ê´Ģ ìĿĦ
Ġëĭ¹ ìĽĲ
W e
ĠS ev
Ġalong side
N ov
p art
ĠìĿ´ ë¡ľ
y o
Ġ193 1
Ġch ap
ë²ķ ìĽĲ
dis ambiguation
íĭĢ ëŀľëĵľ
ìłķ ì¹ĺ
ëª »
Ġcontin ues
il ation
ìĿ¼ ëŁ¬
ĠíĺĦìŀ¬ ëĬĶ
Ġì ª½
ĠëĦ¤ íĬ¸ìĽĮíģ¬
ĠìĦ¸ ìĽĮ
roll ed
Ġë§İ ëĭ¤
êµ¬ ê°Ģ
ĠV ill
Ġ era
G erman
ĠW ork
ĠíķĦ ë¦¬
ĠL ady
p ur
Ġë°Ķ ëĭ¤
emet ery
Ġê´Ģëł¨ ëĲľ
ìĿ´ ì¦Ī
Ġth r
Ġlaw s
ĠF ox
ĠDan iel
ĠíĨµ ì¹ĺ
Ġen em
w ick
ëĵ¬ íķ´
Ġo ur
Ġê³ł ìĸĳ
ĠC as
ì£¼ìĿĺ ìŀĲ
196 5
Ġiss ued
ieuten ant
ĠPol and
ìĺ¤ ëĬĶ
Ġê²½ìļ° ê°Ģ
if orm
ĠëĮĢ ìĿĳ
ell o
Ġìĸ µ
Ġcapac ity
Ġë³´ ìľł
E S
C o
P r
Ġê²½ìĥģ ëĤ¨ëıĦ
ëĳĲ ê³ł
Ġëĭ¨ ìĪľ
Ġìŀĳê³¡ ê°Ģ
196 6
P olit
op her
Ġ19 24
) ãĢĭ
ĠB ooks
ìŀ¥ ê³¼
ul pt
Ġìĺ¤ ìĤ¬ì¹´
ĠAd d
ĠHistor ic
ĠR ome
ëĿ¼ ìĹĺ
i ot
Ġìŀ Ń
ĠB oth
Ġdem on
Ġadminist ration
ë¯¼ ì¡±
ĠëıĻ ìª½
æĹ ¥
Ġ4 9
enness ee
ìĸ´ì§Ħ ëĭ¤
Ġìĭł ë¬¸
Ġfam ilies
a ud
in ity
Ġ19 22
ath an
Ġê·¸ëħĢ ìĿĺ
if ying
Ġê±° ë¶Ģ
Ġë¹Ħë¡¯ íķľ
im s
ë©´ ìĿĦ
Ġ19 27
ĠíĽĦ ì§Ģ
æ ±
Ġdis play
Ġs n
Ġsmall er
8 7
Ġh usband
Ã º
Ġ7 5
ĠìĤ¬ìļ© ëĲľëĭ¤
ĠRev olution
p ut
ĠìķĬ ëĭ¤
ëŁī ìĿ´
ë°Ķ ëĿ¼
ë²ķ ìĿ¸
t ra
Ġìłľ ëıĦ
ìłķ ì±ħ
ĠN ations
ëŁ¬ ìļ´
Person al
Ġy outh
ĠInd epend
ìĿ¸ë¯¼ê³µ íĻĶêµŃìĿĺ
Ġìŀ¥ ìķł
Ġarr ived
Ġpro te
Ġlet ter
Ġbas is
Ġab ility
ou d
Ġcitiz ens
ç Ļ
ìķĦ íĶĦë¦¬ì¹´
Un iversity
B y
Ġìĭľ íĭ°
ê³ł ë¥¼
tern et
Ġquest ion
ĠìĿ´ ê³³
Ð¾ Ð
ĠH ong
Ġdestroy ed
ĠìĿ´ ìĬ¤
ìĿ¼ ë³´
Ġoffic ially
Ġì¡° ê°ģ
Ġcult ural
ing ham
Ġì¤ĳ ê°Ħ
H is
Ã¼ r
Ġmot or
Ġìĭľ ëĮĢìĿĺ
ĠCl ark
ëĨ ĵ
íķľëĭ¤ ê³ł
ìĻĢ ëĬĶ
ìĦ¸ ëĮĢ
Ġ19 21
hem at
ly n
ĠíĪ¬ ìĪĺ
ĠìķĦ ìĤ¬
ĠëıĻ ê³Ħ
Ġ19 10
ĠëıĦ ì°©
è ª
ĠìĽĲ ìŀĳ
v in
ëį° ìĬ¤
ëĭ¨ ì²´
ĠìłĦ íķ´
Ġê´Ģ ì¸¡
å İ
ĠíĻľ ìļ©
Ġvers ions
ĠL t
Ġê¸Ī ì§Ģ
Ġbe at
ãĢ Į
Ġê°Ģ ìłķ
Ġ19 00
Ġì²Ń ìĨĮëħĦ
ĠìĦ¸ ìĿ´
ìĦ¸ íı¬
ĠTechn ology
Ñ Ĥ
íķĻ ìĿĦ
ëıĻ ìĥĿ
ĠH ockey
ë¯¸ ëĦĲ
Ġdirect ion
Ġp an
Ġin side
Ġì§ĢìĹŃ ìĹĲìĦľ
ĠD own
it led
ìĺ¤ ìĬ¤íĬ¸
rop olitan
i ary
Ġprofess or
Ġë¸Ķ ë£¨
ìĹ° íĺģ
! !
ĠS anta
ìĭĿ ìĿĺ
ress ed
b ook
In ternational
Ġëĭ¤ ë¥´
ìĭľ ê°Ģ
Ġg re
Ġê·¼ ê±°
íĭ° ëĵľ
ê²½ ìĿĦ
Ġun s
ot o
Ġê°ģ ë³¸
Ġhigh ly
Ġded icated
Ġëħ Ħ
Ġwinn er
ĠíĶĦë¡ľìłĿ íĬ¸
Ġcommon ly
ĠAn th
ĠCon f
ĠPr im
F F
Ġgrow th
L a
Ġbl ue
Ġì¤Ģ ë¹Ħ
ĠCh ris
ether lands
G A
ĠëĤĺë ī
Ġper man
ĠMed ia
Ġì§Ģ ëĤľ
Ġëĵľ ëŁ¬
Ġb ranch
196 3
ition al
ìļ° ìĪĺ
Ġìŀ¬ íĮĲ
ĠK ir
Ġ19 23
per ial
Ġold er
Ġequip ment
ì§Ģ ê²Į
iv ity
ìħĶ ëĦĲ
Ġs ilver
Ġliter ature
Ġhost ed
Ġë§Į ìĹĲ
ë¸Į ë¦¬
ï¼ ļ
ì¡°ìĦł ìĿĺ
Ġint ended
ans ion
ëł¥ ìĿĢ
Ġ19 17
ĠêµŃ ìĻķ
ë°Ľ ìķĺëĭ¤
A ccording
ĠìĹ ĳ
Ġë¨¼ ìłĢ
Ġtra ins
Ġ ut
ĠRev iew
ĠD er
Ġam ount
8 1
Ġacadem ic
ë©Ķ ë¦¬
ĠêµŃ ë°©
Ġíĺģ ëªħ
en ge
ĠìŀĲ ëıĻ
Ġsh are
Ġì» ¬
Ġìĺ¤ íĽĦ
Ġëĵ± ê³¼
Ġë®¤ ì§Ģì»¬
Ġpro duce
Ġë§Ī ë¦¬
Ġsett lement
ë¬´ ìĽĲ
ĠA D
Ġdr ums
ri e
g n
ang a
Ġquick ly
Ġide a
. âĢĿ
Ġë²Ħ ìĬ¤
Ġro w
ĠĠĠĠĠĠĠĠ ĠĠĠĠĠĠĠĠ
Ġ19 26
Ġcon ver
ìĤ¬ ëł¹
Ġp ra
ĠìĦľ ìª½
ĠP ers
ĠI raq
Ġsy mb
Ġëĵ¤ìĸ´ ê°Ģ
ĠB ishop
Ġbeg ins
ĠìłĦ ëĭ¬
ìĭľ íĭ°
Ġcont rovers
ĠMinn esota
ĠëĤ¨ íİ¸
é ł
Ġterrit ory
Ġ19 25
ë¯¸ íĦ°
as ka
Ġtyp es
ĠSt adium
Ġfif th
Ġc ode
Ġf ell
ìłĦ ìĿĺ
Ġë¯¸ ìĥģ
ĠìĹ° ë§¹
ĠëĤ¨ ìĦ±
Ġn ation
ä¹ ¡
ĠCommun ity
Ġfollow s
Ġìľłëªħ íķľ
y al
Ġs aying
Ġìłľ ìŀĦìĬ¤
ren ce
ì²ľ ìĭľ
Ġm aster
ĠH ospital
ìĤ° ìĭľ
es h
ìĺģ êµŃìĿĺ
ĠF ederal
Ġsy n
ĠSing le
Ġr at
ĠAb b
ĠìĿ¼ìĸ´ ëĤĺ
Ġra p
k g
ĠëĤĺë¨¸ ì§Ģ
ĠPrem ier
Ġreve aled
ĠSw iss
Ġ5 5
ect ing
ĠD uke
Ġst ore
Ġy et
ìĤ¬ ë¬´
Ġdist ricts
al o
Ġw alk
Ġconduct ed
ìŀĲ ìĹĲ
Ġë§Īì°¬ê°Ģì§Ģ ë¡ľ
ëĥ Ī
ĠS il
Ġê°Ĳ ìĨĮ
inc ial
ĠìĥĿ ë¬¼
ĠC irc
ìĿ¸ ê°Ģ
Ġëĭ¤ ëĭĪ
ag h
ĠStud ies
íİ ł
pp er
Ġd ark
ĠB all
ad er
ĠY our
ĠR om
Ġpart n
Ġco aches
ak s
re al
ì¦Ī ìĿĺ
Ġsit es
ĠOr ig
ëĭ¤ ë¥¸
Ġre pe
íķĻ íļĮ
ëĲĺìĹĪ ìľ¼ëĤĺ
ĠM aster
Ġíķ´ ìķĪ
ĠBar on
ĠT ony
ĠìķĦ ìĿ¼ëŀľëĵľ
ìŀĳ ìļ©
ìĹŃ ìľ¼ë¡ľ
ëĤ¨ ëıĦìĿĺ
u i
Ġëį ¸
Ġf iction
am i
ĠF ame
Ġìĭľ ëıĦ
r ical
Ġ15 0
ĠB ol
and y
ĠíĻį ì½©
Ġimmedi ately
ìĭľ ìĺ¤
Ġatt end
Ġë² ½
íķĺê¸° ë¡ľ
p resent
ìĸ Ģ
Ġë¶Ī ë¦¬ëĬĶ
Ġsoft ware
P C
Ġplann ed
ad ed
ag a
ĠíĮĮ ë¦¬
ĠA h
Ġserv es
ĠJ on
ĠìĦľ ìĭĿ
ìĿ´ ìĹĲ
ĠìĿ´ ìĻ¸
Ġwinn ers
Ġ4 4
Ġê°Ħ ìĿĺ
Ġl ay
ä ¼
ĠCast le
iz es
Ġsit uated
Ġtreat ment
Ã ¢
Ġë¦ °
ĠìĤ´ ìķĦ
ëĤĺ ì¹´
ĠH y
Ġback ground
ëĭ¨ ìĿĢ
Ġm ax
Ġl yric
Ġì¡¸ìĹħ ìĭĿ
' '
ç ¤¾
Ġoper ating
Ġass igned
Ĳ ìĿĺ
Ġê² ª
ĠAnt on
Ġproble m
Ġpurch ased
Ġb ig
Ġë¬ĺ ìĤ¬
w ater
Ġsem i
ĠìĬ¤ìľĦ ìĬ¤
c on
ĠSp ring
ĠS her
Ġdep artment
ëª ĩ
ix ed
ĠìłĦëĿ¼ ëĤ¨ëıĦ
Ġinter p
Ġbeh av
Ġë¶ ķ
Ġê²ĥ ê³¼
Ġ4 1
ĠOr gan
Ġë¬¸íĻĶ ìŀ¬
itzer land
Ġstr ateg
b ro
Ġt able
Ġd ance
ĠìĿ¼ ìĿĦ
Ġtyp ically
Ġmanag ers
ĠGold en
Ġcomb ined
ç ī
ìĦľ íĬ¸
ĠS S
ĠD ar
Ġë°ĺ ëŀĢ
st yle
ĠëķĮ ëĬĶ
wh ich
Ġë°ľ ìĤ¬
Ġë°© ìĸ´
ëĿ¼ ë¹ĦìķĦ
m ph
Ġìľł ëĮĢ
Ġinstitut ions
ëłĪ ìĿ¸
ĠBar b
ĠíļĮ ìĿĺ
tain ment
v est
it ness
Ġê¹Ģ ìĺģ
Ġv ote
Ġëħ¸ ë¥´
l ers
Ġê¼ ¬
ëıħ ìĿ¼ìĿĺ
ìºĲ ëĤĺëĭ¤
ë´ ĩ
Ġoff ers
ĠìĤ´ íķ´
Ġë¡ľ ìĬ¤
Ġsec urity
for mer
Ġst reet
ê·¹ ìŀ¥
ĠìĻķ ì¡°
ress ion
ap ed
Ġì¡° ìĦ±
ĠO p
ol i
ĠSen ate
ĠT ennessee
eth ing
p ass
w eg
ĠH ay
Ġë¹ĦìĬ· íķľ
O C
res h
osoph y
è Ń
Ġh ol
Ġc ounter
Ġmount ain
ĠìĹĲ ëĵľ
Ġre ach
ann a
ĠìĿ´ ëĵ¬íķ´
Ġë¶ģ ë¶Ģ
Ġì £Ħ
Ġë°Ķ ëŀĮ
Ġwith d
Ġì¹´ ë¥¼
or ation
å· Ŀ
or i
ĠEl izabeth
Ġlead ers
íĥ Ĳ
port ation
Ġíıī íĻĶ
ĠF amily
Ġë³´ ëĭ¤
ëĭ¤ ìļ´
Ġprom oted
Ġìļ° ìĪĺ
ë¹ Ľ
ĠíķĦ ìļĶíķľ
ĠíĮĮ ê²¬
Ġì²´ íı¬
Ġdise ase
Ġphys ical
ound ed
os is
Ġelect ions
ol n
Ġengine er
Ġres ident
Ġim plement
ĠSec retary
å ł
ì ģ
Ġpart ies
ëĭ¨ ìĿ´
aw n
b ed
Ġsw im
Ġì§Ģ ëªħ
Ġw a
Ġê·¹ ìŀ¥
Ġë¶Ģ ìŀĦ
ĠG er
od ies
Ġìĥģ ëĮĢë¡ľ
ìĪ Ń
Ġìĭľìŀĳ íķľ
uct ion
Ġmod els
ĠA ff
ìĬµ ëĭĪëĭ¤
Ġfe el
Ġëĭ¹ ìĦł
ĠëıĻ ë§¹
ĠìĿ¸ ìĪĺ
Ġst ra
ëĨ Ģ
ĠíĥĢìĿ´ íĭĢ
ellig ence
Ġf ish
ĠE st
us ion
E n
ëĭ Ĳ
Ġpl ants
ĠF ollowing
end ment
ĠW ars
Ġg rew
Ġìµľ ìĨĮ
Ġì¼ Ħ
ĠëĤ´ ê°ģ
Ġchar ge
ĠD NA
Ġíĳľ ê¸°
Ġì¦ Ĳ
ë³´ ëĵľ
Not able
Ġíĺ ľ
íĽĦ ìĿĺ
ac hel
ĠìĿ¸ ìĭĿ
Ġill ust
Ġì° °
Ġpro jects
æ Ķ
Ġë¬¸ ìĦľ
Ġê²ĥìĿ´ ìĹĪëĭ¤
á Ħ
êµ° ê³¼
eat her
Ġë²ł ìĬ¤íĬ¸
ë§Ī íĬ¸
ëĳ ĳ
le m
ac ement
ĠìĬ¤ ì½Ķ
Ġas p
Ġê·Ģ ì¡±
ëŁī ìĿĦ
íĸĪëĭ¤ ëĬĶ
ĠN az
Ġëį ĺ
ì¡Į ê³ł
Ġb oy
Ġìľł ëıĦ
ĠìĹŃ ëĮĢ
or f
Ġë¶Ģ ëª¨
196 2
ĠL y
P ar
ĠD ream
Ġë°Ķ ê¾¸
ĠT aylor
Ġê·ľ ìłķ
ë¡ľ ê·¸
ro om
k in
B N
íı¬ ë¥´
ograph ic
åħ ĥ
ĠBro ok
ç ļ
Ġv an
ìļ° ëĬĶ
Ġopp ortun
ĠìĬ¤ íĶ¼
Ġschol ars
Ġpolitic ians
æĿ ĳ
ĠN etherlands
E P
ī ìĿĢ
Ġstre ng
Ġth ink
Ġíķ´ ì²´
ĠStep hen
ĠìĦł ìĥĿ
Ġì£¼ ëıĦ
æĸ °
id ers
ĠëĤ´ ë¶Ģ
i ated
íķĺ ëĤĺ
ĠE s
Ġgen us
ĠA thlet
ĠAr thur
Ġì ´Į
Ġ19 12
Ġam b
ĠAre a
Ġsp ort
rest ling
ibl iography
Ġl if
ĠìłĦ ëŀµ
Ġactiv ity
st ic
inn er
Ġ4 3
k ish
ov a
ĠK el
Ġìłľ ê±°
ul s
ĠìĿ´ ìĬ¹
z o
Ġêµ¬ìĦ± ëĲĺìĸ´
ol ved
ì²ł ëıĦìĿĺ
Ġneed ed
ì¤Ģ ëĭ¤
ons in
ĠAs ian
Ġrec over
Ġìļ¸ ìĤ°
ĠLe v
ĠG reg
Ġcon cent
Ġíĺķíĥľ ë¡ľ
ĠKore an
ak i
ĠìŀĪìĹĪ ê³ł
ist ed
or ge
Ġt al
ìĿ¸ ëıĦ
Ġprom inent
ĠE arl
Å Ĥ
ìŀĲ ìľł
ĠìĿ´ ëĵ¤
Ġrec on
Ġpr in
clud ing
ëĲĺ ê¸°ëıĦ
Ġown er
Ġìľł ìĿ¼íķľ
ìĤ¬ ìļ°
Ġì¶ ĺ
og s
ĠìĻĦ ìĦ±
Ġ5 1
T S
Ġëª© ìłģìľ¼ë¡ľ
æĺ İ
Ġë¡ ¯
ĠD espite
íķ¨ ìĿĦ
Ġg as
ìĹĲ ë¥´
ìĸ´ ëĤĺ
ĠìķĪ ìłķ
ìĪĺ ë¡Ŀ
ê·¸ ëŁ¬ëĤĺ
isc onsin
íĶ¼ ìĨĮ
Ġê° Ĵ
g ing
å ī
ell er
ëĤ¸ ëĭ¤
ĠB at
Ġar ms
Ġpres ence
ĠJew s
Ġmix ed
ë¦¬ íŀĪ
ëĮĢíķĻ ìĽĲ
ìķĦ ë²Ħì§Ģ
Ġë¯¸ ëĵľ
l ah
Ġw ins
Ġh or
ace ae
Ġp iano
ĠS us
Ġpe ace
æ ħ
Ġra re
ce st
Ġì£¼ ìĿĺ
ĠH al
ĠNor way
ĠI d
se y
ĠAl so
íħ į
íĮĮ íĬ¸
Ġ Ä
ĠPol ice
Ġs ens
ìĹ° ëĮĢ
Ġwid ely
Ġindust rial
ĠìķĪ ìłĦ
ĠìŀĪ ìľ¼ëĤĺ
ĠJ unior
ĠëģĿ ìĹĲ
ê³µ ìĹħ
ìĨĮ ìĪĺ
Ġtra ffic
ë¡ľ ëĤĺ
ĠK im
ĠB u
Ġg iving
Ġadop ted
¤ ¼
ĠìĤ¬ìļ© íķĺìĹ¬
riz ona
Ġfav or
Ġìłģ ìĿ´
ĠìľĦíķ´ ìĦľ
ĠâĨ Ķ
Ġê°ķ íķľ
ĠW alk
ĠB attalion
ĠSqu adron
Ġpot ential
Ġport ion
ĠëıĻ ë£Į
Ġh op
Ġprob ably
Ġorder ed
Ġd igital
ì£¼ êµĲ
Ġcor respond
Ġanal ysis
Ġagre ed
æĽ ¸
Ġp urs
ĠëĤ ©
en ing
Ġpre c
Ġdist ance
ìĨĮ ìĹĲ
ĠB ec
íģ¬ëĿ¼ìĿ´ ëĤĺ
ĠInd ust
Ġmov ing
Ġl ies
Ġë© ķìĭľì½Ķ
ĠCount ry
íģ¬ ìĿĺ
ĠìĪĺ ë§İìĿĢ
Ġë³´ ì¡´
ĠCon c
Ġëĵ Ģ
ìĭľ ë¥¼
ë¡ľ ê°Ģ
ëĮĢ êµ¬
F ran
Ġrespect ively
ìĬ¬ ëŀĮ
äº ĭ
ĠìŀĪ ê¸°
Ġact ually
V P
enn a
ĠëĦĪ ë¬´
Ġíĺķ ìĤ¬
ĠI v
ĠSw itzerland
Ġun known
ĠPr ime
Y ou
Ġrec ently
Ġìľł ë¦¬
ĠìĥĪ ë¡ľ
Ġ190 8
S outh
ut her
Ġê°Ģ ëĬĶ
Ġìĺ¤ìĬ¤íĬ¸ ë¦¬ìķĦ
G u
Ġê ¾¸
ot ing
ìĨĮ íĶĦíĬ¸
ĠT al
Ġë ¿
ëıħ ìĿ¼
Ġcompos er
Ġsp irit
Ġì ĩ
ĠMount ain
ĠSc iences
Ġlarg ely
ëĺĲ íķľ
D P
Ġent er
Te levision
I M
ĠF ree
Ġë³´ ëıĦ
ĠìĹĶ íĦ°íħĮìĿ¸ë¨¼íĬ¸
ĠíĬ Ģ
ĠëĵĿ ìłĲ
Ġcom ing
Ġvoc al
Ġsuffer ed
Ġê¸° ìĤ¬
Ġthere fore
Ġëª» íķľ
ett ing
ĠíĮĢ ìĿĺ
ìłľ ê°ķ
Ġinstr ument
Ġìħ Ģ
p son
Ġê³µ ë¦½
ast y
Ġ4 7
ë¹Ħ ëĵľ
Ġê³µ ê¸ī
ĠAl f
è ģ
ì¡ ¸ìĹħ
ë§Ī ìĿĦ
å ½
O lymp
ib ly
Ġìµľê³ł ìĿĺ
I P
ê³¼ ìĹĲ
ìĭĿ ìĿĢ
Ġsex ual
ê³ł ëł¤
ãĢ ģ
ĠU s
Ġle aves
ĠìķĮëłī ìĤ°
erv ative
ĠìĿ´ë¦Ħ ìĿ´
Ġemploy ed
ĠM emorial
Ġt ells
Ġì¤ĳ êµŃìĿĺ
è Ģ
ĠMiss ouri
Ġexp anded
ĠMar c
Ġsc ope
Ġtarg et
Ġgrad uated
Ġdistrib ution
ë©Ķ ëĿ¼
Ġb ad
ac c
ëł¤ ê³ł
Ġdemon str
Ġê·¼ ë¬´
ê ´Ħ
om ot
æŃ £
Ġg ives
Ġì´¬ìĺģ íķľ
Ġ1 20
ik a
Ġê¸° ìŀ¬
Ġíķ© ë¥ĺ
Ġêµ ´
Ġs ays
ĠLew is
ë§Į ìĹĲ
Ġspl it
Ġfl ight
ir al
è ³
ĠD am
Ġë¸Į ëŀľëĵľ
Ġìłľ ëª©
Ġì²ľ ë¬¸
ĠGre ece
ĠAn other
igh th
196 1
ĠìĿĺ íķĺë©´
ĠT ok
ĠH art
íķĻ ìĿĺ
H E
Ġp et
und er
v N
al so
ì¹ĺ ìĿĺ
Y ear
B M
Ġëĵ £
Ġìĸ´ë¦° ìĿ´
Ġìħ °
ap h
Ġíı¬ ë¥´íĪ¬ê°Ī
ë°± ì§Ī
ĠìķĦ ì¹¨
Ġfor ward
Ġê´Ģ ì°°
Ġro les
Ġagre ement
Ġëĭ¤ ë£¨
Ġf ast
íĶĦ ê°Ģ
ĠI V
Ġì¤Ģ ê³µ
em ic
Ġëĸł ëĤĺ
ĠBus iness
ĠëĮĢíķ´ ìĦľ
ĠC zech
are t
Ġíı¬ ì§Ģìħĺ
ëıĦ ë¥´
Ġì¡°ìĦł ë¯¼ì£¼ì£¼ìĿĺ
ë¯¸ ìĸ´
Ġsurround ing
Ġ urban
Ġret ire
Ġìĭł ê²½
ĠFor m
Ġet c
Ġg raph
Ġcapt ured
ì» ·
ì¡° ì§ģ
ëĦ¤ ìĭľìķĦ
íķĺëĭ¤ ê°Ģ
Ġê°Ģ ìŀħ
ĠP it
Ġa thlet
ĠW at
Ġë§ĪìĿ´ íģ´
Ġfig ure
Ġeff orts
ar o
Ġet hn
Ġthe atre
Ar t
Ġp ict
Ġë² Ĺ
ë¶ ķ
ĠMar sh
Ġpre p
Ġc erem
Ġformer ly
ĠEnter tainment
Ġd ial
ĠìĦ± ìłģ
ĠíķŃ ìĥģ
Ġc oin
Ġíķľ êµŃìĿĺ
Ġì§Ģ ëĥĪëĭ¤
ĠìĹ° ì¶ľ
Ġcomp ared
anc ing
ost er
ëıĦ ì¿Ħ
we ight
Ġì§ĢìĹŃ ìĿĦ
Ġveh icles
ìĦ± êµ°
A b
Ġimm ig
Ġìłľ ê¸°
ìŀĳ íĴĪ
ĠìĻ ¼
ĠTr ust
ĠHol y
M ay
Ġê±´ ê°ķ
ë¡Ń ê²Į
H z
æ³ ķ
ê° ĻìĿĢ
ĠIndian a
é »
ĠTur key
Ġìĥ Į
it o
Ġf irm
Ġp al
U K
Ġsc oring
ĠSwed en
ĠS av
on ents
Ġ5 2
Ġch ampion
Ġclass ical
ìłĲ ìľ¼ë¡ľ
ĠìķĦ ëĭĪëĭ¤
a ug
o is
Ġì§Ģ ìłģ
ê´Ģ ìĿ´
Ġs earch
ĠSt ory
ê³µ ìĿĺ
ĠíĻį ë³´
ëıĦ ìĻĢ
Ġro ll
y es
ë° ĸ
ĠD J
Ġcon stitu
Ä į
ĠB rian
ĠR oss
Ġê²Į ìĿ´
Ġest ate
ìĺĢ ìľ¼ë©°
ĠH an
A L
ĠS ound
ĠìĨĮ ëħĢ
Ġsec ret
Ġex ec
ë¦¬ íĬ¸
Ġë§ĪìĿ´ íģ¬ë¡ľ
Ġar ts
ĠS F
ĠK ansas
| }
ĠëĤ® ìĿĢ
ĠëĤ ³
ëł¥ ìĿĺ
est ic
Ġsh op
ĠìłĦ ìĭľ
Ġìŀĳ ìĦ±
Ġnew ly
Ġtem ple
ĠA P
ĠìĪĺ ëĬĶ
Ġë³´ ìĪĺ
ë°Ķ ë¥´
ĠHe art
Ġëĭ¤ ë§Į
¥ íĦ°
êµŃ ìĿ´
g g
ìłĲ ìĹĲìĦľ
Ġclass es
Ġë ĮĦ
Ġl ake
ìŀīê¸Ģëŀľëĵľ ìĿĺ
ĠìķĦì¹´ ëį°ë¯¸
ĠìĻĦ ê³µ
Ġtr ue
Ġengine ering
Ġm iles
ëħ¸ ëıĻ
Ġconc ert
os en
ĠíĤ ¹
Ġë ´Ħ
Ġt aught
Ġh undred
Ġh ab
ĠìĿĺë¯¸ íķľëĭ¤
Ġt ree
ĠìĿ´ ì§ĳ
ĠW W
ìķĺ ê³ł
B ack
ĠìĦľ ë¹Ħ
ĠMel bourne
ìłľê°ķ ìłĲ
ĠëıĻ ìĿ¼
Ġj oint
ĠW isconsin
Ġad apt
ĠëĤĺíĥĢ ëĤĺ
iqu es
ĠReg ion
ĠF inal
ìĬ ´
Ġ4 6
çĶ °
ìłĦ ë¬¸
ê²½ ìĥģ
ì¼ Ħ
Ġìłķë¶Ģ ëĬĶ
ĠìĻ Ķëĭ¤
ìŀĲ ìĿ´ëĭ¤
ĠU t
Ġab andon
ĠH o
C S
Ġê¸° ê³Ħ
se x
ĠM oon
Ġêµ° ì£¼
Ġë§ ¹
195 9
è ²
" (
oot h
ë¶Ģ ìŀ¥
æł ¡
ĠH ard
ìĸ´ ì¡Įëĭ¤
Ġqu ality
Ġgran ted
un ch
ony m
ĠA FC
ĠêµĲ ì²´
ëĦ ¬
ëĭ¹ ìĿĢ
Ġaccept ed
ìĹĲ ìĿ´
ì Į
Ġresult ed
ain ts
U N
Ġìĭł ìĿ¸
Ġgo es
g rad
Ġc ells
ĠSt and
ĠProfess or
Ġì¤ĳ ìĹĲìĦľ
m es
Ġs uit
194 0
al ing
ìĭ± íĦ´
Ġresult ing
h ar
Ġì¶ľìĭł ìĿĺ
ĠëıĻ ë¶Ģ
ĠB ack
Ġìĺ¤ ë¥´
íĺķ ìĿĺ
ĠL ind
Ġre duced
ĠP ass
ant e
è «
Ġhouse hold
Ġmedal ists
ĠìŀĪ ì§Ģ
Ġest imated
Ġë³´ ìĿ´
ì¼Ģ ìĿ´
Ġcann ot
ìŀĲ ìĿ´
el le
B iography
l ife
i ate
ĠíĹĪ ìļ©
ĠEngine ering
ur d
Ġê²½ìļ° ìĹĲëĬĶ
Ġë¶Ģ ë¥¸ëĭ¤
Ġê´Ģê³Ħ ë¥¼
Ġs il
inc oln
Ġr acing
ëĶ °
Ġdecl ared
Ġê²½ ê³Ħ
ë¥ ľ
Ġhe av
íĤ¤ ìķĦ
Ġìĺ¤ ë¦¬
ur ches
ĠR ang
Ġatt ention
ĠB i
ĠJ er
D isc
ĠM ilitary
Ġë§Ĳ ìĿĦ
bum s
Ġappro ach
ê´Ģ ê³Ħ
ìĨĮ ë¡ľ
ĠìĹ¬ ìłĦíŀĪ
j i
ê¶Į ìĿĺ
Ġair port
ëĭĪìķĦ ìĿĺ
Ġ19 15
ur rent
Ġcont emporary
ĠìķĪ ìĹĲ
ĠCap tain
ë£ ©
on ent
Austral ian
ĠíĮĮ ìĿ¼
Ã£ o
ç ¶
Ġsp ons
Ġë³´ ì»¬
Ġsub s
Ġêµ¬ ì¶ķ
ìĤ° ìĿĺ
Ġw ild
Ġp ack
Ġtri al
ìĽĶ ê¹Įì§Ģ
ãĢ İ
Ġm ess
ìłģ ìĿ´ê³ł
Ġfl oor
p ool
ĠColor ado
m itted
Ġc am
ĠN H
Ġsc ulpt
Ġ( ,
Ġfound er
Ã© e
Ġconn ected
ĠëĤĺ ì¤ĳìĹĲ
anc hester
ë©Ķëĭ¬ ìĿĦ
ĠMar ia
Ġtit led
ĠìłĦ ìĦ¤
ĠPhil ip
Ġvill ages
De ath
ãĢĭ ()
ëįĶ ìĬ¤
ĠN FL
Ġ6 5
195 8
íķĺìĺĢ ëĬĶëį°
Ġcr ime
w orks
Ġdesign ated
ç ľ
Ġì¸ ł
Ġs ales
ìķĪ ìĿĦ
Ġê¸° ìĸµ
Ġpos itive
R ail
im inal
Ġst one
Ġf ellow
ìľł ë¥ĺ
Ġìĭ¤ íĸī
íŀĪ ë¡ľ
Ġíĺĳ íļĮ
Ġst ars
ĠMar g
il ing
è ¥
ê³ ±
Ġro b
ĠìĿĺ ê²¬
ì² ©
ĠëĮĢ ë¥Ļ
ĠSwed ish
Ġê° Ŀ
B T
Ġinj ury
lah oma
ì¹ĺ ë¡ľ
ç Ĳ
Ġfl ag
Ġê²½ê¸° ë¥¼
Ġsp ring
ĠAr men
ìĺĢ ê³ł
ro up
Ġb ott
íĤ¤ ìĬ¤íĥĦ
Ġcol umn
Ġrest aur
ĠCol on
an es
ar on
est er
ĠìĿĢ íĸī
Ġê²ĥ ëıĦ
Ġ19 13
ìĻķ ìĿĺ
Ġg ained
Ġatt acks
195 6
Ġt alk
Ġrecogn ized
iv als
n s
195 5
Ġê²Ģ ìĤ¬
ĠD un
Ġì¶© ëıĮ
A A
195 7
O L
ĠS ab
Ġperforman ces
ĠDes ign
ì¿ ¨
Ġëĭ¨ ê³Ħ
ĠDav is
Ġìľł ëĤĺìĿ´
ĠAdm inist
Ġh ap
ĠìķĦ ìļ°
er ick
se e
Ġë¬¸ìłľ ë¥¼
ĠíĥĢ ì¹´
ĠìĿ¸ ë¯¼
ĠSp ace
ĠReg ulations
íĦ° ë¦¬
ĠëĮĢíķ´ ìĦľëĬĶ
ìĥĿ ë¬¼
Ġg overnor
Ġel im
ant on
Ġì§ģ íĽĦ
ĠëĨį ìĹħ
ĠR ad
Ń ī
è ¶
a ver
ill er
Ġ19 11
p et
ä ¾
ĠìĦľ ë¶Ģ
ĠëĦ¤ ìĿ´
ìĹ ĩ
B as
ĠìĤ¬ìĿ´ ìĹĲìĦľ
ìŀĲ íĤ¤
l aw
Ġtw ice
ĠBr ad
ĠTem ple
u ous
æ ¨
Ġ ir
Ġë ±
Ġìĸ¼ êµ´
ĠìĹħ ë¬´
íĶĦëŀĳ ìĬ¤
ĠìĨĮ ëħĦ
ow a
ĠìŀĲ ì²´
ìĿĺ ìĽĲ
ë ®
Ġprincip al
Ġìĸ¼ ë§Ī
ĠS ix
ĠD ark
ĠìĤ¬ íķŃ
ì£¼ ìĹĲìĦľ
Ġê³Ħ ìĬ¹
Ġb att
ĠìľĪ ëıĦìļ°
ĠS u
ag an
Ġì§ĳ ì¤ĳ
R E
ĠPol it
ill ery
ues e
Ġoccur red
ĠìĿ¼ìĸ´ ëĤľ
ìľ¼ ë©´ìĦľ
ĠìĤ¬ ëł¹
ate ur
reg on
ades h
Ġw all
Ġall ows
Ġë¡¯ ëį°
ĠD iv
D av
re ll
Ġk ept
ëĭ Ľ
ëı ¼
Ġmark ed
à ¤
Ġì ī¬
ast e
Ġold est
r um
ìķ¤ ìł¤
le ep
Ġpress ure
Ġfac ility
Ġc arri
ĠK al
Ġsl ow
íĻĶ ìĹĲ
Ġê³µ íı¬
Ġìĥģ ìĹħ
íĹ ¬
Ġpat tern
Ġcandid ate
ĠT est
ĠLe on
Ġrefer ence
ìłľ êµŃ
we et
å ĳ
ĠN A
;" |
ëĲĺìĹĪ ëįĺ
æľ ¬
ĠìłĦ ì²ł
Ġre ports
Ġgre ater
íħĮ ë¥´
ar ia
ĠìĹ° íĺģ
ĠComm and
æ º
Ġ19 16
ĠM un
ĠëĦĺ ìĸ´
ro it
Ġsp read
ë¶Ħ ìĹĲ
orn ey
J apan
Ġì°¸ìĹ¬ íķĺìĺĢëĭ¤
Ġìĺģ ìĹŃ
Ġdam age
êµ¬ ì¡°
Ġë°ĺ ë©´
ĠPl an
Ġìłķ ì°©
é ¦
Ġth ous
Ġë§Įëĵ¤ ìĹĪëĭ¤
ĠG il
Ġf estival
ĠD isc
M y
Ġë¬´ ìĹŃ
Ġëħ¸ ëł¥
Ġì¸¡ ìłķ
Ġì±ħ ìŀĦ
Ġë¹ ¼
ĠCh annel
re tt
Ġhand s
ĠìĿ¸ ê·¼
Ġì¢ħ ì¢ħ
ĠìķĦ ë¦Ħ
' .
Ġth ings
ìĥģ ê³¼
Ġsl ight
ed ing
ĠViet nam
cl aim
Ġs ac
Ġknow ledge
s ch
Ġdis estab
Ġìĺ¨ ëĿ¼ìĿ¸
ëĮĢ ìĻĢ
ìĦł ìĿĢ
Ġwe ight
E uro
Ġform ation
enn y
Ge ography
ĠH ou
ëĲ Ĳ
ĠíĻĶ íķĻ
Ġident ified
ë¶Ħ ìĿĦ
194 8
O P
Ġofficial s
3 00
B I
ê°Ģ ë¡ľ
Ġëª» íķĺê³ł
Ġte acher
Ġstr ugg
Ġë³´ìĹ¬ ì£¼
ĠìĤ¬ìļ© ëĲĺëĬĶ
Ġíĥľ íĴį
k es
ut ing
ĠìĦ¤ ìłķ
um es
Ġsqu ad
Ġser ious
êµ¬ ì¹ĺ
ë± ħ
Ġê³Ħ ìĤ°
Ġëŀ ĺ
Ch rist
j e
ĠB alt
ol ished
ĠíĨµ ìĭł
Ġìłķì¹ĺ ìłģ
Ġreg ist
c ont
ĠB on
Ġjournal ist
ĠM ic
Ġíı¬ ìľłë¥ĺ
m et
Ġg od
ĠF le
Ġhous ing
ĠEc onom
Ġë¯¸ ìķ¼
Olymp ic
h r
ëĮĢ ìĤ¬
Ġd raft
ert o
Ġì¦ī ìľĦ
el ine
Ġì ı
l ov
ord on
ĠH or
R es
Ġact ing
ĠChrist mas
ìłĦ ìĿ´
ë³µ ì§Ģ
ĠMal ays
ur er
Ġê°ľ ìłķ
Ġ190 7
S ources
Ġcre ation
ĠëĤ¨ ë¶ģ
ĠíĬ¸ ë¦¬
åĲ Ľ
west ern
Ġê°ģ ì¢ħ
A ct
c hers
ian ts
ĠJes us
i at
Ġf air
ĠìĤ¬ëŀĮ ìĿĢ
weg ian
å ĸ
ou ts
Ġê±° ë¦¬
Ġë¡ľ ë²ĦíĬ¸
å Ĵ
ìĭľ ìŀ¥
ĠW eek
ĠëłĪ ì½Ķëĵľ
ë© ľ
195 4
ê° Ķ
ìľł íĤ¤
ìĭľíĤ¤ ê³ł
er al
Ġn ortheast
Ġìł ĬìĿĢ
êµĲ ëıĦ
ord in
ly wood
Ġh all
íĶĦ ëĬĶ
Ġìĺ Ĩ
ĠR oy
Ġpos itions
Ġm inister
Ġh ar
ĠM unicip
ê°Ģ íĥĢ
ĠìłĦ ìļ©
Ġê°Ĳ ìĹ¼
ëŁī ìĿĢ
ĠB os
ì½Ķ ìĿĺ
ĠH u
íĢ ´
Ġê°ľ ìĦł
M P
Ġr ac
Ġf ully
ash ion
Ġfac ulty
ë¶Ģ ìĿ¸
Ġcomb at
Ġconfl ict
D ef
ĠK han
Ġê°Ģê¹Į ìļ´
Ġclaim s
in y
ĠD or
ir med
Ġthem e
w ing
Ġprov iding
Ġrec omm
ĠDo ctor
Ġë§Ī ìĵ°
Ġm ap
ĠëĮĢíķĻ ìĽĲ
ĠTown ship
ĠëĮĢ ìĤ¬
ĠíĶ ½
ĠA rizona
Ġìķŀ ëĳĲê³ł
Ġanim als
æ ĥ
Ġcond ition
Ġback ing
ĠL ike
Ġvar i
Ħ ëĬĶ
ec es
ĠFranc is
Ġre form
æĪ Ĳ
o es
Ġë°ľíĳľ íĸĪëĭ¤
m outh
ĠC ra
ĠS em
ĠëĤĺ ëĪĦ
Ġëª¨ ë¦¬
Ġl abor
Ġreg ions
Ġìłķ ìĥģ
ê³µ ìĽĲ
Ġnot es
ĠMill er
Ġsup pl
G eneral
ì ¤
Ġcont ent
Ġcont act
ĠT urn
un te
Ġcont est
Ġcast le
Ġì¡° ìłķ
Will iam
Ġë¬¸ìłľ ê°Ģ
Ġallow ing
Ġë° ĳ
íķ´ ì¡Įëĭ¤
ĠA T
Ġenc our
ĠAtl antic
ëĤĺ ìĻĢ
eg a
Ġì¦Ŀ ê±°
ĠR oll
ĠìĦ¸ ë¥´
ì²ľ êµ°
ap ore
Ġrank ed
íķ´ ë¥¼
ìĽ ł
ĠWh o
Ġ190 6
Ġle tt
Ġmain tain
Ã Ĺ
ast ers
Ġvol ume
Ġparticip ated
ëľ ¨
ëŀ« íı¼
Ġsugg ested
ä¸ Ĭ
Ġëªĩ ëªĩ
Ġadministr ative
ĠMod ern
p a
Ġm om
Ġì² Ļ
ëŁī ìĿĺ
Ġê º
ìļ´ ìĦľ
Ġacc ident
ĠCh ampions
ĠìłĦ ìĤ¬
ĠìľĦ ìĿĺ
Ġì§ĳ ëĭ¨
Ġíķĺ ê¸°
ìĤ¬ ì§Ħ
Ġìľł ìłĦ
Ġl osing
Ġìŀ¥ ê¸°
ĠTe levision
Ġëĥ ī
v o
Ġn et
Ġsim ply
og y
æ ¥
ĠìĪĺ ìĽĲ
Ġcomplet ely
Ġì£¼ ë§Ĳ
¼ Ī
Ġreview s
Ġw ing
Ġìĭľìŀĳ íķĺìĺĢëĭ¤
ĠP ict
ubl in
ĠìĤ¬ìĭ¤ ìĿĦ
Ġê·¸ ëłĪìĿ´
Ġb ron
å¤ ª
Ġì£¼ ëª©
å £
Ġìłľ ìłķ
Ġê°ķ ì¡°
ì¶Ķ ìĸ´
ĠìĦłê±° êµ¬
Ġneighbor hood
ow nt
ìħ °
Ġarchitect ure
Ġìĺ¤ ìĬ¤
ìĿ´ ë¡ľ
Ġoper a
ÃŃ a
ific ations
Ġte le
ĠW olf
íĶĦ ëłĪ
Ġìĺ¤ìĬ¤íĬ¸ëłĪìĿ¼ ë¦¬ìķĦ
ib b
ĠíĨµ ìĤ°
ĠìłľìĻ¸ íķľ
z en
ĠíĻķ ëĮĢ
D igital
ĠB oys
we alth
Ġì£½ ìĿĮ
ê°Ģ ìĭľ
ìķĦ ë©Ķë¦¬ì¹´
Ġ190 5
Ġsett led
hed ral
Q u
ann ing
Ġì į¼
Ġê°Ħ ì£¼
" ),
Ġrece ive
Ġr ural
Ġe as
ĠëĴ ·
Ġë¯¼ ê°Ħ
ç ¸
é ¾
ec ond
Ġf elt
Ġyoung er
M L
Ġìĭľ ìŀ¥
Ġfight ing
Ġcou ple
Ġp le
Ġh y
ĠN ow
ë¥´ íĥĢ
ìĿ¼ ìĿĢ
Ġìĺ¬ ëŀĲëĭ¤
ãģ Ħ
ĠB arn
Ġm ut
ìĿ¸ ì²ľ
ĠM S
Ġì£¼ìĹ° ìľ¼ë¡ľ
ĠW rit
Ġdocument ary
ĠSt at
Ġend s
ir us
¾ Į
Ġpurp ose
ĠìłĦ ì°¨
Ġë ļ
ĠOr chestra
Ġgrow ing
Ġëŀ ľ
b an
F rench
Ġimp act
ĠR en
ĠìĬ¹ê°ķ ìŀ¥
ĠV i
Ġì²´ ê³Ħ
ic ian
ik h
æµ ·
Ġê²¨ ìļ¸
ëĤ´ ê³ł
ĠKent ucky
ĠìĤ¬íļĮ ìłģ
Ġì¢ħ ëª©
ìķ ¨
íķĺ ìĹĲ
ìĦ± ìľ¼ë¡ľ
Ġw ear
t r
ĠD C
ĠB urn
Ġv ess
ìĬĪ íĥĢ
ëŁ¬ ë¦¬
ĠM as
Ġë§Į ëĵľëĬĶ
Ġent ry
ĠëĴ¤ ìĹĲ
ĠT en
Ġhe ro
f rom
Ġë¶Ħ ìŁģ
ë©Ķë¦¬ ì¹¸
ĠëłĪ ëĵľ
Ġlyric s
Ġauthor ity
Ġëĳ Ķ
ìĭľ ìĬ¤
ìĿ¸ ëĵ¤ìĿ´
j oy
iv a
ĠP ier
m iss
å ³
Ġexper iment
ê°ľ ë¥¼
Ġlead ership
Ġse vent
Ġc e
Ġdef in
ou red
clud ed
ìĭ¤ ìĿĦ
Ġf olk
ĠSt ock
Ġorgan ized
Ġp oll
ê³ł ìĨįëıĦë¡ľ
S ongs
ìĨĮ ìĦ¤
Ġìłķ ë¦¬
ì§Ģ ë¦¬
Ġveh icle
Ġun ique
Ġim age
Ġexp ansion
ĠìĮ ĵ
C ont
hip s
ç¾ ©
w ich
Ġíĸī ìĤ¬
ĠìĿ´ ëŀĺ
Ġìĺ¤ íĶĪ
íĺ¸ ê°Ģ
Ġac id
ac ts
ĠH amp
Ġìłľ ìĿ´
íĥĢ ë¡ľ
Ġ5 4
ĠìĪĺ ê°Ģ
Ġì¶©ì²Ń ëĤ¨ëıĦ
Ġcap tain
Ġ5 9
' (
ìĹĲê²Į ëĬĶ
Ġë²ł ëĦ¤
Ġext ra
ĠëĮĢíļĮ ìĹĲìĦľ
Ġìĭ¤ ìłľë¡ľ
Ġo x
Ġì½ ©
ĠF ederation
194 6
Ġf ans
Ġíķ¨ ìĪĺ
in ally
Ġplay off
ev in
ìľĦìĽĲ ìŀ¥
Î ±
ĠìķĮ ìķĦ
Ġì¶ľ ë°ľ
Ġ ;
Ġtri ed
Ġcrit ical
ĠìĿ´ ìĬ¬ëŀĮ
l an
ĠëĿ¼ ìĿ¸
ĠRepresent atives
D A
ĠMary land
ul ed
ĠìŀĲ ìĿ´
ĠìĿ´ ìĭľ
erv ed
Ġchar ts
ĠìĿ´ ëłĩê²Į
ëĵ± ìŀ¥
ect ic
ë¶ģ ëıĦìĿĺ
Ġbrother s
Ġdou b
ĠInf antry
ĠìķĦ ë©Ķë¦¬ì¹´
195 2
II I
in th
Ġê° ¤
Ġìĭľ ìĿ¸
Ġë§Ī ë²ķ
ĠA ud
ĠM inistry
ê¸° ê³ł
ĠìĨĶ ë¡ľ
ì¤ĳ êµŃìĿĺ
ra st
ĠìĿ´ìĬ¤ ëĿ¼ìĹĺ
Ġexp ected
Ġíķĺ ëĬĺ
Ġs umm
ë¹Ħ ê°Ģ
Ġt im
Ġëĳĺ ëŁ¬
ĠìļĶ ì½Ķ
ĠMex ican
ë§Ī ìĿĺ
Ġm ill
Ġì±ĶíĶ¼ìĸ¸ ìĬ¤
D ec
Ġocc asion
ourn ey
êµĲ ìĿĺ
ĠìĤ¬ ë¡Ģ
ĠM anchester
Ġìľł ìĹĶ
Ġcont ain
Ġp aid
â Ĩ
ĠSt one
Ġê¸°ëĬ¥ ìĿĦ
V ideo
Ġìłķë¶Ģ ìĿĺ
ĠëĮĢíĳľ ìłģìĿ¸
íŀ ĺ
éĿ ¢
ĠìĿ¸ ìĤ¬
IN E
uild ings
o en
Ġset s
Ġdef ined
Ġê´ĳ ê³ł
ĠíĻĪ ëŁ°
éķ ·
ĠëĨį êµ¬
ìķĦ ìĿ¼ëŀľëĵľ
ìŀĲ ëıĻì°¨
Ġ190 9
ëħĦ ê³¼
ĠìĿ¸ ëĶĶ
Ġexist ing
ĠíĥĦ ìĥĿ
ĠìĪĺ ë¦½
Ġar rang
ì¼ Ī
ì¡° ìĤ¬
Ġsugg est
Ġë¬¼ ë¡ł
ĠS on
194 9
ist ry
é ļ
Å «
ëŀ Ĳ
Ġliter acy
å¹ ´
R C
Ġad vert
ke ep
ìĿĮ ë°ĺ
ĠP oint
M I
ëł ´
ĠCro at
Ġex change
Ġsup ply
S up
ìĭł ìĿ´
Ġë¡ ¤
ë¥ĺ ìĿĺ
Ġadd ress
æ Ģ
ë³ĳ ìĽĲ
ìĬ¤ íĮĮ
ĠI r
i Ã³n
ul ate
B ibliography
ĠL abor
ĠH and
Ġìĺ® ê²¨
ĠR on
ĠìĿ´ìļ© íķĺìĹ¬
Ġë§Ī ë¦¬ìķĦ
ê ¾
ìłģìľ¼ë¡ľ ëĬĶ
Ġeduc ated
ĠEm peror
Ġch airman
Ġsaf ety
ĠBill board
ĠSh ort
ç ´
Ġport ray
' m
æ ¼
ê¸° ëħĲ
æ ŀ
is a
ĠìĪĺ ìłķ
ĠìĨĮ ìŀ¥
ond er
Ġauthor ities
ìĺ¬ ë¦¼íĶ½
ĠìĬ¤ íĥ
ëī´ ìļķ
ëĵ¤ ëª©
ag u
íķľêµŃ ìĸ´
S I
ĠM ach
ĠL incoln
els h
ĠT rib
Ġhistor ic
ĠMan agement
F ootball
Ġpolit ics
ĠìĿ¼ ìĿ´
Ġë¶ķ ê´´
ëħĦëĮĢ ìĹĲ
Ġë¶Ī ë¦°ëĭ¤
Ġval ley
ĠF ord
ëĿ¼ íģ¬
è¥ ¿
Ġhead quarters
ĠT a
Ġl ibrary
Ġëª½ ê³¨
Ġs ides
ìĿ¸ êµ¬
ìŀĲ ëĵ¤ìĿĺ
ĠE ric
Ġtr ust
H on
Ĩ į
Ġc art
ãĢ Ģ
Ġgirl s
Ġ rom
c an
ë¹Ħ ëĶĶìĺ¤
ĠAust ria
Ġag ent
ëł Ľ
Ġë§Ī ëĵľë¦¬
Ġinhab it
ĠN ic
ëĲĺ ìŀĲ
íĤ¨ ëĭ¤
in ch
ĠR ose
Ġfl ow
ord ers
Ġê¹Ģ ìłķ
» ê²Į
ĠH ur
ìĦĿ ìĿĦ
ĠO regon
Ġst ream
ĠìĦ¸ ì¢ħ
Ġeff ort
Ġìĭľ ê°ģ
ì¹ĺ ìĽĲ
ĠíķĻ ìĤ¬
ĠP u
ì¹´ìĿ´ ëıĦ
Ġto wer
Ġm icro
ever al
Ġfrequ ently
Ġê³ł ëĵ±
ĠBrig ade
Ġê¹ Ĭ
ĠPr in
ê¶Į ìĿ´
b ell
b ox
am ing
Ġrel atively
Ġm orning
Ġro yal
ĠHon or
O T
ĠS oc
ĠìĪĺ ìĺģ
Ġmusic ian
ë¦¬ ê¸°
ind er
ĠA ge
og en
Ġfin ish
ĠG all
ie val
ĠSund ay
Ġap art
Ġíĥĳ ìŀ¬
A wards
Ġp air
ĠServ ices
Ġëģ ¼
Ġcanc er
Ġshow ed
Ġì£¼ ìĹĪëĭ¤
ivers ary
Ġë°ķ ë¬¼ê´Ģ
ĠHam ilton
ĠìŀĲìĭł ìĿĦ
ĠíĮĲ ëĭ¨
ì§Ģ ë§Ī
íĻľ ëıĻ
ĠPhilipp ines
Ġê³µ ìľł
ìĹ°êµ¬ ìĨĮ
Ġëĸ¨ ìĸ´ì§Ħ
c ow
Ġê·¸ ëłĩ
ë¡ľìĦľ ìĿĺ
Ġê²Ģ ìĿĢ
ĠìķĦëĤĺ ìļ´ìĦľ
im ens
êµŃ ìĿĢ
N orth
ëĵ ¯
ĠìĬ¤ ë¯¸
Ġon to
195 3
ĠìłĦ ì£¼
Ġê³µ ê³µ
j an
Ġê±´ ëĦĪ
Ġbur ied
if ul
Ġë¯¸ ëĶĶìĸ´
Ġsy nt
ĠìłĢ íķŃ
Ġpr int
Ġvis it
êµŃë¯¼ íķĻêµĲ
d ale
ĠìĦ Ń
g a
Ġb ought
Ġìĭł ëĿ¼
Ġbe aut
or gan
ĠOk lahoma
193 0
Ġmach ine
Ġnuc lear
d i
at ab
ipl om
n ce
ê³¼ ë¥¼
ëªħ ìĿ´ëĭ¤
ĠM C
Ġlaun ch
Ġj ur
ĠS C
ĠëĤĺ ëĵ¤ëª©
Ġtre es
ê´Ģ ìľ¼ë¡ľ
åº ľ
ĠN ev
ĠMed ical
Ġìłķë³´ ë¥¼
Ġse em
Ġë²ł ë¥¼ë¦°
Ġst ock
ĠìĪ ²
Ġa ired
ant asy
tt ps
un ter
Ġoccup ied
ĠLt d
ìĦ¸ ìĹĲ
ë¡ł ìĿĦ
Ġsucceed ed
é Ħ
ìĬ¤íģ¬ ë°Ķ
gl as
ì§ Ĳ
Ġë§Ī ëł¨
Ġgu est
ĠA uthor
Ġê· ł
è» į
ëĿ¼ìĿ´ ìĸ¸
å¾ ·
app y
Ġtw enty
ĠS R
ìĸ´ ëıĦ
ë§Ī ë¥´
Ġdr iver
ĠQueens land
ac hers
Ġme ant
Ġì£¼ ëĬĶ
ĠN BA
ĠìĬ¤ íĭ°
ëĭ¹ ìĿ´
g ment
T reat
ĠIn formation
Ġë¶Ģ ê·¼
Ġê¸° íĽĦ
ial s
Ġê³ł ìłķ
Ġëĭ¨ ë°±ì§Ī
Ġì±ĶíĶ¼ìĸ¸ ìĭŃ
ap olis
Ġpass es
ĠíĶ¼ìķĦ ëħ¸
S ince
ìĶ ¬
Ġë°©ìĭĿ ìľ¼ë¡ľ
D S
Ġc alc
ĠD a
Ġr aces
ĠHar ry
ĠìĿ¼ë°ĺ ìłģìĿ¸
ĠìľĦ íĺĳ
ë¡ľ ëıĦ
Ġven ues
ë©´ ìĿĺ
ëłĪìĿ´ ëĵľ
Ġìľł ìĿ¼
ĠHow ard
ê°Ģ ê°Ģ
Ġsp ect
ì¦Ī íĤ¤
Ġì¶© ë¶Ħ
Ġsp ot
ë²Ħ ê·¸
ĠëıĦ ìĦľê´Ģ
ĠìĤ¬ë§Ŀ íķĺìĺĢëĭ¤
Ġattem pts
ab y
å¯ º
qu es
Ġsit uation
ĠìĺģíĻĶ ë°°ìļ°
ìĹ° ìĨį
ëł¥ ìľ¼ë¡ľ
Ġ5 3
Ġê³³ ìĹĲ
Ph il
ë ĩ
r Ã©
ĠO d
ëĭĪ ëĬĶ
T o
Ġra in
Ġh orse
Ġv otes
ĠAmerican s
ĠíĻķ ë³´
ĠìŀĪìĹĪ ì§Ģë§Į
ëł Ĳ
Ġë¹Ħ ìļ©
ĠRe al
Ġcomp l
ĠìĤ´ ìĿ¸
ol as
ĠN ap
ìĦľìļ¸ íĬ¹ë³Ħìĭľ
é Ł
Ġìĺ ¹
uc cess
Ġh ydro
ir ty
ĠN ick
ĠA BC
ĠL eb
ĠAnd erson
ĠìľĦìĽĲ íļĮ
ĠìĹĲëĦĪ ì§Ģ
Ġìļ° íģ¬ëĿ¼ìĿ´ëĤĺ
ĠFr ont
ry st
ĠZ h
Ġì±Ħ íĥĿ
ë²Ī ìĿĺ
Ġconver ted
S ing
ëĭ¤ ìĿĮ
e k
ĠArgent ina
ë¥´ íĤ¤
ĠìĦł ê³ł
ĠA cc
ĠëĭĪ ìĭľ
Ġappl ied
h t
íĮĮ ìĿĺ
al y
Ġë¬´ ê¸°
Ġíİ¸ ê³¡
ile y
R eg
Ġfind s
Ġìµľ ìļ°ìĪĺ
Ġmult i
Ġse ats
Ġë¶Ī ëŁ¬
ĠìĿ´íĽĦ ìĹĲ
Ġcent uries
Ġì¢ Ģ
D r
M C
Ġìŀ¥ êµ°
ĠìĽĲ ìŀĲ
Ġ190 4
ĠMag azine
Ġhold s
ĠRec ord
ectic ut
ĠG i
ĠìĻ¸ ìĹĲëıĦ
ê¾ ¼
ĠíĿ °
193 9
Ġlo an
Ġë§Įëĵ¤ ìĸ´ì§Ħ
en h
ĠëĬĲ ëĤ
Ġfig ures
ë¡ľ ë¡ľ
ĠK ey
194 7
od ox
ĠFor ces
ç Ħ
ĠI C
Ġte aching
Ġto uch
ĠìľĦì¹ĺ íķ´
Ġre ject
Ġmeas ure
íĥĢ ì¹´
ìĻ ľ
Ġê¸°ë¡Ŀ ìĿĦ
Ġsim ple
ë³´ëĭ¤ ëĬĶ
Ġsubsequ ent
Ġfe et
íĺ¸ ìĿĺ
ìĦľ ë¡ľ
ĠíĹ Ŀê°Ģ
Ġmem ory
Ġìī½ ê²Į
ê¹Įì§Ģ ìĿĺ
ë¹Ħ ìĭľ
£ ł
Ġs ons
u ly
Ġdro pped
Ġr ing
Ġl ot
ĠAd vent
ĠReg ional
Ġs ay
Ġm ig
íİĺ ë¥´
inem a
Ġìĭľ ëĤĺ
Ġë¬´ ìŀ¥
ĠíĶĮ ëŀ«íı¼
ĠTur kish
ad ow
S ome
Ġprom otion
rom e
ĠC P
ĠDe ad
Ġinsp ired
ĠëĤ´ ìĹĲìĦľ
ĠAll en
Ġrap id
el ve
gh an
Ġë ½
Ġpro ceed
ì¢ħ íķ©
ĠT s
ĠE th
ë¬¼ ìĿ´
Ġcont aining
Ġref used
ĠC re
Ġaltern ative
? "
D F
Ġs urn
ĠAb d
st ream
ĠS P
ì£¼ ìĹĲ
åħ ī
Ġê°ķëł¥ íķľ
f r
ê¹ ¨
Ġmaterial s
ĠìĦ± ìĿ¸
áĨ ŀ
ĠìĪĺ ìŀħ
ĠíĨµ íķľ
Ġd aily
ìŀĲ ê¸°
ĠAl an
Ġreturn ing
ĠìĿ´ ë²Ī
ìĬ¤ íı¬ì¸ł
ĠìĬ¤íİĺ ìħľ
Ġarrest ed
ĠE ach
ë¹Ħ ì¹ĺ
194 4
Ġm is
Ġìĭľ ëĤ´
ept ion
êµ¬ ëł¤
Ġbron ze
s ky
ĠìĪ «
ë¶Ģ ìĻĢ
ĠìĤ¬ ìŀ¥
ol es
ĠìĹĲ íĶ¼ìĨĮ
íķľ íİ¸
ĠD ave
ĠB ou
íĶĦ ìĿĺ
ĠWh it
ent ed
Ġex am
ë¦¬ ëħ¸
Ġì£¼ ìĭĿ
Ġìĸ´ëĸ »ê²Į
Ġm ind
ëĲĺìĹĪ ì§Ģë§Į
Ġìłģ ê·¹
Ġc ab
ag ar
Ġsing ers
Ġend ing
ë¬¸ ìĹĲ
ĠT ai
ìĹ° ë§¹
ĠìĤ¬ëŀĮ ëĵ¤ìĿĢ
leg es
Ġcust om
Ġeffect ive
ĠìĿĺ ë£Į
Ġart icles
ra ine
ip e
Ġy our
Ġb al
Ġì·¨ ê¸ī
Ġsom ething
ìŀ ł
re es
Ġal t
å §
ĠíĥĪ ëĿ½
rel ated
194 1
íķĺëĭ¤ ê³ł
S R
ĠC emetery
Ġê³Ħìķ½ ìĿĦ
s ki
ĠíĨµ íķĺìĹ¬
Ġch osen
l ines
Ġìŀ¬ ì§ģ
ìłĢ ìļ°
Ġdr ive
Ġnecess ary
ë Ī
Ġë°ĽìķĦ ëĵ¤
n ight
Ġë¬´ ëłµ
ut ies
ë¦¬ ì¼Ģ
ov en
ê²½ ìĿĺ
Ġ5 6
ĠC ost
ĠS ky
Ġs outheast
or ter
it i
Ġê² Ĳ
Ġfl ood
ĠJ am
Ġê·¸ê²ĥ ìĿĢ
Ġìķ¡ ìħĺ
Ġë¯¸ëĵľ íķĦ
Ġenem y
ëıĦ ìĦľê´Ģ
ĠBr on
æ´ ŀ
ë¦¬ ëĤĺ
ëĮĢ ìĤ¬ê´Ģ
f e
ìŀĲ ìĹĲê²Į
ĠíıŃ ë°ľ
E L
alle l
å ´
ĠD u
ĠQue bec
ĠB eng
Ġnomin ated
Ġc al
Ġìļ ķ
red ited
ìĿ´íĥĪë¦¬ìķĦ ìĿĺ
Ġcomm ander
ìĭľ ìĬ¤íħľ
b urn
ĠíĮ Ŀ
ê²° ìĬ¹
ill ing
ym n
ĠìķĦë¥´ íĹ¨íĭ°
Ġëĭ¤ ìĦ¯
Ġre act
ur ance
ĠíĨ °
Ġíİ ł
T BC
Ġp ages
Ġh yp
Ġê·¸ ê³³
ĠBudd h
ê´ĳìĹŃ ìĭľìĿĺ
ìĿĺ ìĿĺ
Ġì¹¨ ê³µ
ĠB ah
íķĺëł¤ ëĬĶ
Wh ile
S m
Ġc ert
íĸī ìĿĦ
w ise
ĠR eb
k h
Ġwin ter
Ġp arliament
Ġhap pen
Ġe arth
Ġë¬¸ ìŀĲ
Ġ189 0
z er
íį¼ ìĬ¤
ĠF riend
ĠíļĮ ë³µ
r at
Ġ vert
ĠWal ter
ĠInd ones
Ġë¯¸ëĵľíķĦ ëįĶ
Ġpower ful
Ġn ob
ik i
Ġnorm al
ac he
ìĿ¸ ëĵ¤ìĿĢ
Ġê²½ íĸ¥
Ġex clus
O W
ĠB an
Ġcon vers
è Ĺ
Ġëį´ ë§Īíģ¬
ownt own
ĠíŀĪ ëį°
ĠìłĢ ìŀ¥
Ġíĺ¸ íħĶ
ĠìĿ¸íĦ° ë·°
ì¡Į ìľ¼ë©°
Ġsqu are
ê ¿
Ġext ensive
ĠS ilver
ëł¥ ê³¼
Ġres c
ĠL ow
Ġr h
éĻ ¢
E A
Ġìķł íĶĮ
Ġíŀĺ ìĿĦ
os lav
ìĺģ êµŃ
ĠCom ics
Ġ( ),
Ġb urn
Ġder ived
For mer
Ġh arm
ag ues
Ġact ions
pr ise
ian g
Ġìľł íĬľ
Ġê¸Ī ìľµ
Ġcon ference
Ð »
Ġy ellow
194 2
ĠìĿ´ìłĦ ìĹĲ
Ġaud ience
ĠìĤ¬ ëĬĶ
ì¢ħ ìĿ´
p osed
if ically
ograp her
ĠìĹĨ ìĸ´
ëĦ¤ ìĬ¤
é Ĥ
ist a
ëĭ¹ íķľ
Ġìĺģ ìĥģ
ĠL ast
Ġë³´ ë©´
Ġunder st
Ġn arrow
Ġr ang
Ġproper ties
ra v
Ġë³¸ ëŀĺ
Ġadv anced
ĠG ard
ìłľ ìĹĲ
Ġattempt ed
Ġê¸°ì¡´ ìĿĺ
d ie
Ġun able
ĠS el
195 1
b ar
Ġëģ Ĭ
Ġapp arent
Ġco al
ĠM and
ĠLeg isl
ĠìķĬ ìĿĦ
Ġì´Ŀ ë¦¬
Ġpublic ation
ĠìĿ´ ëŀĢ
åľ °
Ġretire ment
ĠK at
Ġpart ner
Ġìĺ¬ íķ´ìĿĺ
ëĿ¼ê³ł ëıĦ
ë¶Ģ ìĹĲìĦľ
ĠS in
ë²ł ë¥´íģ¬
Ġdist ingu
Ġsign al
Ġref ers
Ġìµľ ëĭ¤
Ġê³µê²© ìĿĦ
Ġlett ers
M on
ew ay
Ġmethod s
ìķ¤ìł¤ ëłĪìĬ¤
ìļ° ëĵľ
r ine
ĠO ffic
íİ Ļ
Ġìŀ¬ ìłķ
ĠAd am
ĠìĿ¸ ê°Ģ
ĠD ublin
ëĮĢ ìĹĲìĦľ
Ġê¹ Į
ole c
se ason
ĠíĨµ ê³Ħ
Ġì´Ī ë°ĺ
ĠK er
íĮ ¬
ĠìľłëĤĺìĿ´ íĭ°ëĵľ
Ġfem ales
le ts
Ġcom ic
ĠC ape
Ġhistor ian
ĠDie go
Ġs um
S chool
c ar
Ġloc ations
Ġë¿Ĳ ë§Į
ê²Į ìĿ´
Ġbro ke
B est
F ollowing
ëĿ¼ ëĶĶìĺ¤
all as
ĠJan e
Ġs ense
ì£¼ ê°Ģ
h at
Ġìĺ¤ íĨł
or us
å® ¶
ìĿ¸ ìĹĲ
ĠR ugby
ĠE lementary
Ġíŀ Ĳ
Ġv irt
ëĭ¹ ìĿĦ
Ġì» µ
ä¸ ĸ
ĠSing apore
Ġê°ľìĹħ íķľ
ĠT it
L C
Ġìĭľ ê¸°ìĹĲ
ĠH ills
Ġê·¸ ëł¤
ì¡° íķ©
P er
ĠìłĦ ìĹŃ
ĠGu ide
ĠHou ston
Ġb ow
Ġl iber
ĠW ell
ì ī
Ġweap ons
ì§Ģ ê¸°
ri ev
A nt
Ġjud ge
s er
Ġgu ard
it able
Ġperform ing
Ġíĥľìĸ´ ëĤľ
åĮ Ĺ
Ġchall eng
Ġëĵ±ìŀ¥ íķĺëĬĶ
ĠS T
ãĢī ,
Ġappro ved
ĠD ick
Dav id
ĠAd v
ë°Ľ ìĿĢ
ter y
Ġperman ent
! "
ĠL iter
ĠìłĦíĪ¬ ìĹĲìĦľ
Ġíħ į
iam ond
ë¨¸ ìĬ¤
ĠConn ecticut
Ġìŀ¥ ì°©
á º
ëĲĺìĹĪ ëĬĶëį°
íį¼ ëĵľ
Ġíĺķ ìłľ
ĠS n
av ed
Ġê³ł ìļ©
Ġrelig ion
Ġì¡° íķ©
ĠSchool s
Ġì£¼ìŀ¥ íĸĪëĭ¤
Ġethn ic
ĠReg ister
Ġë¹ ¨
Ġeconom y
Ġfunct ions
ë°ĸ ìĹĲ
ĠChild ren
ĠSec urity
ĠìĤ¬ëŀĮ ìĿĺ
Ġprot ection
ëħ¸ ìĬ¤
ffic ient
f ort
struct ure
Ġfield s
ĠD omin
ìĭł ë¬¸
ph as
Ġë°Ľ ëĬĶ
ĠíĶĮ ë¡ľ
ĠìĤ¬íļĮ ì£¼ìĿĺ
ĠëŁ¬ ë¸Į
ts burgh
åİ Ł
Ġcall s
ham mad
ĠG ram
ìĬ¤ íĮħ
Ġim pl
Ġachie ved
ĠSt ew
ĠëĤĺ ëĬĶ
æ Ħ
ĠíķĦë¦¬ íķĢ
Ġb ul
Ġcy cl
å Ŀ
ìĺ¤ ë¦¬
f all
Ð ¹
ĠíĬ¸ ë¡ľ
çĶ Ł
ĠëĤĺìĺ¤ ëĬĶ
Ġmerg ed
ìĦ¸ê¸° ìĹĲ
ĠJac ob
Ġad ult
Ġsc ript
j o
Ġs ki
ot ic
ĠV is
ĠPat rick
Ġde ploy
Ġëª© ìłģ
oc ation
Ġim pr
Ġland s
ĠíķĢ ëŀĢëĵľ
ìķ¼ êµ¬
Å Ł
ĠCh ile
Ġë§Ī íģ¬
Ġcomm ittee
Ġa im
ĠB eat
íĥĢ ì§Ģ
Ġp owers
ĠLouis iana
h ing
Ġì§ Ĳ
im ents
ë©´ ìĹĲìĦľ
ĠPortug uese
ch a
O fficial
ĠìķĦìĿ´ ëıĮ
ĠSqu are
ang el
ê¸° ë¡Ŀ
ĠìĦľìļ¸ ëĮĢíķĻêµĲ
ì°¨ ë¥¼
ë¨ ¹
Ġìĭľìŀĳ ëĲĺìĹĪëĭ¤
Ġë°ĸ ìĹĲ
Ġres ources
b ra
ĠìĤ¬ìļ© íķľ
Ġro t
. '
es ign
ĠFore ign
ĠM it
íķĺ ìĭľ
ĠìĹ¬ê¸° ìĦľ
Ġê¸¸ ìĿ´
ĠT y
Ġinc ident
ëĤ Ļ
ang er
Ġstra ight
Ġcreat ing
êµŃ ìĿĦ
Ġë³Ģ íĺ¸ìĤ¬
ì§Ī ìĿĦ
ĠO ak
Ġattack ed
íĻ Ī
Ġ0 1
Ġbe y
E ast
Ġê·¸ëŀĺ ìĦľ
ìĮ į
J an
Ġê´Ģ ìĭ¬ìĿĦ
ë¶Ħ ìĿĺ
Ġpass ing
ĠG allery
ìķĪ ìłĦ
ìļ° ì£¼ìĹ°
Ġhom es
Ġactress es
A ss
Ġê´Ģ ë£Į
êµ¬ ë¡ľ
ëł¨ ìĿĺ
ĠMos cow
Ġstar ring
éĻ ½
ĠBow l
ĠìĪĺ ì¶ľ
Ġr isk
u ilt
ĠëĭĪ ì½ľ
Ġcompet ed
ĠL as
pl ace
ĠL u
ç¥ ŀ
ĠDe ath
ĠíĻķ ìłķ
ê° Ĵ
ĠìłĦ ê°ľ
Ġbeg in
iv ate
ëĤ ©
ìłĲ ìĹĲ
Ġf uel
êµĲ ìĪĺ
ĠV ers
ëŀĺ ê³¤
Ġcop ies
ĠìĿ¸ íķĺìĹ¬
ab ama
Ġent itled
Ġìĩ ł
au x
Ġhot el
ã Ĩį
ê³ł ê¸°
ĠEx press
S te
Ġíĥľ íıīìĸĳ
è Ī
ëĭĪ ìĿĺ
ï ½
ĠìĿ´ë£¨ìĸ´ ìł¸
th odox
Ġconf irmed
ac ent
ìĹħ ìĿĦ
ĠìĥĿíĻľ ìĿĦ
Ġscient ific
ĠL at
ĠìŀĲ ë³¸
ĠíĪ¬ ìŀĲ
ëĳ ĺ
ìĬ¤ íı¬
Ġí Ĥ¬
ĠëĮĢ ê·ľëª¨
P ublic
Ġcomp ar
Ġì°½ ìĦ¤
ìķ Ĺ
F I
iam i
ì¡° ë¥¼
Ġìº ĺë¦¬íı¬ëĭĪìķĦ
Ġopp osition
CA A
Ġìĺ¬ ë¦¬
Ġch o
Ġrecord ings
h ard
ĠK ings
Ġêµ¬ìĦ± ëĲľ
ìĿ¼ ë¡ľ
Ġì½Ķ ëĵľ
ëĭĪìĭľ ë¦¬ì¦Ī
ì£¼ ëħĦ
ê³Ħ íļį
æŃ ¦
ê³ł ëĵ±
ĠK l
Ġinhabit ants
Ġë³´ ìĿ´ëĬĶ
ad i
Ġact s
ĠPh ill
ĠíĬ¸ ëŀĻ
ĠR a
Ġdef end
ĠëĲĺìĹĪ ìľ¼ë©°
ĠìķĦ ë¯¸
Ġíķľ ìłķ
Ġbey ond
íĥĢ ë§Ī
ìĸ´ ìĻĢ
ĠìĤ¬ ìļ´ëĵľ
Ġëĭ Į
ĠìķĶ ìĤ´
ìļ© ìľ¼ë¡ľ
ë¹Ħ ìĿĺ
Ġeduc ational
ist ers
p o
ran e
ëĦ¤ ìĿ´
Ġ190 1
Ġbas ic
Ġr ival
Ġpre par
ê°Ģ ìĿ´ëĭ¤
ĠG arden
Ġv ent
ĠP ot
Ġsett ing
ard o
ĠêµĲ íĨł
ĠM ember
Ġem ig
ĠG ordon
Ġì¶ľ ìŀ¥
ĠAnth ony
Ġcomp ris
Ġë¶Īê°Ģ ëĬ¥
ìĿ¸ ìłĳ
Ġopp osed
unn el
Ġì§Ģ ë¦¬
Ġsh ared
Ġpro s
por ter
Ġroad s
C ast
d on
ĠWh at
ĠëıĻ ìĿ¼íķľ
æ ¬
Ġcomp ilation
Ġapplic ation
or age
Ġlearn ing
Ġì§ģ ìĽĲ
C ar
ĠëĮĢ íĺķ
ìĦł ìĹĲ
Ġë¹Ħ ìľ¨
ag en
Ġë©ĶìĿ´ ìłĢ
ĠA R
ê´Ģ ëł¨
Ġì°¸ ìłĦ
rop ri
ëĮĢ ìŀ¥
Ġen joy
E lect
P ol
R ober
cl op
Ġì½ĺ ìĦľíĬ¸
Ġcorn er
level and
íĻĶ ëĬĶ
H ar
ĠìĿ´ ë¯¼
Ġê²½ê¸° ìŀ¥
Ġë§Į ìķ½
um a
ĠM icro
íĸĪ ê¸°
ì¹´ ê³ł
193 6
ĠëĨĴ ìĿ´
ìĽ °
Ġbusiness es
L ife
ri ff
194 3
ĠAff airs
Ġf ought
ĠìĬ¤ íģ¬
Ġìŀĺ ëª»
ĠëıĦ ìĽĢ
ĠíĶĦ ëŀĢ
b ach
f riend
ĠPh ys
Ġob tained
Ġt vN
ê³¼ ëĮĢíķĻ
ëĭĪ ë²ĦìĬ¤
Ġcor rect
Ġì¤ĳíĻĶ ìĿ¸ë¯¼ê³µíĻĶêµŃ
m it
ìķ½ ìĿĦ
ìĿ´ëĿ¼ê³ł ëıĦ
ìŀ¬ íĮĲ
Ġcont rast
Ġult imately
ĠìĿ¼ ìĽĲ
ëĭ¨ ìľ¼ë¡ľ
ĠìĿ´íĥĪë¦¬ìķĦ ìĿĺ
or ro
Ġc overs
ĠìĬ¹ ë¦¬ë¥¼
Ġcons um
Ġ9 5
Ġsurv ey
ĠD ance
è §
" ).
ëıĻ ìĿĺ
Ġsix th
ĠìŀĲ ë¦¬ë¥¼
ene z
ĠK a
ĠIslam ic
ĠI mp
Ġshort ly
Ġmat ter
ell i
Ġatt rib
Ġprof ile
Ġv o
ĠN ich
in er
h ann
st ar
ì§Ī ìĿĺ
im ore
ĠìĤ¬ìļ© ëĲĺìĹĪëĭ¤
Ġìľł íĤ¤
ĠDet roit
Ġê³µ êµ°
g or
éĥ ¡
w here
ĠëĤ Ń
íĮ ©
R ep
ĠìĪĺ íķĻ
Ġesc ape
ĠS ri
ĠGirl s
Ġv ac
ìĭľ ìĻĢ
ĠìĪĺ ìĹ¬
ë¹Ħ ëĬĶ
ĠLab our
Ġpi ece
ìĸ´ ìĬ¤
ĠTod ay
Ġp un
Ġê°Ģ ê²©
h o
Ġëł Į
lin ed
ĠìķĦ ëŀį
ë©´ ìĿ´
ĠM em
Ġh am
Ġì°½ ë¦½
Ġagric ultural
ì²´ ìĹĲ
êµŃ ìľł
Ġin struct
Ġíķĺ ëĵľ
rid ges
le ase
ag g
Ġ189 6
Ġíĺ ĲìĿĺ
Ġcrit ics
ris is
ĠëĮĢìĥģ ìľ¼ë¡ľ
oy d
ìĥģ ìĹĲìĦľ
ĠíĹ¤ ìĿ´
P art
Ġíı¬ì§Ģìħĺ ìĿĢ
4 00
ĠìĤ¬ëŀĮ ìĿĦ
æľ Ŀ
ëĵľ ëĿ¼
t i
E c
ë ¤Ħ
Ġindepend ence
ours es
ì¡° ëĬĶ
Ġê²½ìļ° ëıĦ
ĠT ig
ĠBroad cast
S ch
ig ation
ê³¼ ìłķ
ĠëĴ¤ ë¥¼
Ġref lect
ìĤ° ë¦¬
ì¡± ìĿĺ
íħĲ ì¸ł
ĠëĿ¼ íĭ´
E ducation
Ġcon stant
Ġ25 0
íĻĺ ê²½
stitut ional
Ġy ards
Ġìŀ¥ ì¹ĺ
Ġtemper ature
c ome
Ġ188 9
ëł¥ ìĹĲ
Ġíķĺ ìŀĲ
ipp i
Ġslight ly
M ich
ëıĻ ìľ¼ë¡ľ
ar ks
Ġëĭ Ľ
Ġë³µ ìŀ¡
ĠC ab
ĠStud ios
Ġheav ily
Ġê¹Ģ ìĦ±
íļĮ ìŀ¥
ë£ ¸
ĠN a
ì§Ī ëŀľëĵľ
Ġvis ited
ìĦľ ìĿĺ
ĠìĿ¼ ì¢ħ
ĠL yn
Ġê³ł íĸ¥
om y
ĠëıĦ ìĽĢìĿĦ
ĠìĹĲ ìĸ´
ë²ł ìĿ´ìĬ¤
ival ent
act ive
ĠíĨł ë¡ł
ë°ĺ ëıĦ
ĠDou glas
ĠI l
H S
Ġë¬ »
Ġê°ľ ìĭł
ĠSen ior
ĠíĮĲ ê²°
ĠH D
ĠK arl
ìłĦ ìĿĢ
Ġë°ķ ìłķ
en z
I tal
bo ards
ĠMo ore
ĠK am
Ġëĵ± ìĹĲìĦľ
ë ļ
Ġë§Į ì¡±
ĠíĽ ¨
sp ec
d am
ic i
ĠìĦĿ ìĤ¬
Ã ł
Ġt ry
Ġìĺ¤ ìłĦ
ìķĺ ìľ¼ë©°
ism s
Ġ190 2
ĠìľĦì¹ĺ íķĺê³ł
v ey
le ased
Ġ190 3
Ġneed s
Ġ5 8
Ġre ar
ĠOn ly
Ġtechn ical
pl es
ĠSing h
Ġhe ight
n old
ĠK ë¦¬ê·¸
ê³µ íĻĶêµŃ
ĠCE O
ëĬ Ħ
ĠAm ong
íķľ êµŃìĿĺ
y st
ĠìĿ¸ ê¸°
ë¯¸ ìĿĺ
ìĸ´ ëĵ¤
F irst
19 20
Ġ189 5
Ġëĭ µ
ens ity
ëıħ ë¦½
ë¦¬ íĭ°
íĨ ±
ĠD ur
ĠCommon wealth
ĠìłĦëĿ¼ ë¶ģëıĦ
ĠìłĲ ì°¨
Ġì¦Ŀ ëªħ
Ġëŀ Ń
íĺķ ìĿ´
Ġconn ection
ĠN ik
ĠíĥĢ ê³ł
Ġ6 00
íĿ ¡
ãĤ ¹
Ġkill ing
Ġì²Ń ëħĦ
M ajor
ìłĦ ëĿ¼
ĠìĿĮ ìĭĿ
ord an
Ġro ugh
Ġconsist ed
ĠíĽ¨ ìĶ¬
ë°Ľ ìķĦ
ëĿ¼ ëĵľ
os m
ëıĻ ë¬¼
ĠW orks
Ġhe ard
íĥĢ ë¥´
Pl ot
Ġì¤ĳ ë°ĺ
Ġfound ing
ê´Ģ ìĿĺ
ç µ
ĠL og
Ġì² ¨
Ġhab it
sc ape
« ĵ
ìĺ¤ ìĬ¤
Ġident ity
Ġsh all
Ġëĵ ¯
ĠH ans
è¡ Į
Ġê³¼ ìłķìĿĦ
ĠRober ts
â Ĺ
ì²´ ë¡ľ
ult an
ĠCol omb
Ġìļ© ìĸ´
oth ing
ograph ics
ĠE ag
Euro pe
ĠìĬ¤ íĨł
Al though
Ä ĥ
ë¯¸ ìĪł
Ġë°ĺ ë³µ
Ġë°ľìĥĿ íķľ
Ġë§¤ ëħĦ
Ġê°ĢëĬ¥ ìĦ±ìĿ´
ĠPubl ishing
ìĬ¬ ë§ģ
H igh
ĠP ope
ĠìĿ¸ ê°ĦìĿĺ
ĠC our
ãĤ ¤
ì¤Ħ ê±°ë¦¬
ĠB uilding
Ġê°Ģ ë¡ľ
Ġì°¸ ìĦĿ
ë¯¸ ëĭĪ
L eg
ĠC all
ĠíĺĦ ìĭ¤
ĠìĹ ł
Ġì§ ĵ
g al
ap ted
if er
Ġìłľìŀĳ ìĹĲ
ìºĲëĤĺëĭ¤ ìĿĺ
B orn
iss ance
Ġav oid
Ġcl imate
Ġrec ip
ê¸° ê°Ħ
ĠAf ghan
ĠIsrael i
Ġc as
Ġb ishop
Ġê¸°ë°ĺ ìľ¼ë¡ľ
Ġdo ctor
A f
Ġsp ok
ĠìĨį ìĹĲìĦľ
è ĭ
Ġste el
M ilitary
Ġn ick
íİĺ ëĿ¼
B r
Ġdirect ors
Ġ iron
Ġë ®
ĠE arly
ĠBrother s
Ġíķĺ ê²Į
uss ion
ë¡ľ ë°Ķ
Ġê³ł ìłĦ
ê¸° íĽĦ
ĠìķĦ ì£¼
ĠV ideo
ĠìĹ° ìĺĪ
Ã Ł
Ġëħ¸ ë¶Ģ
Ġanim al
f it
Ġë²łìĿ´ ì§ķ
¥ ¬
ëł ĺ
ud get
Ġë°©ìĨ¡ êµŃ
% ),
ì§Ģ ìĤ¬
Ġê¸°ìŀ¬ ëĲľ
ã ħ
Ġa uth
Ġplann ing
ìĿ´ìĹĪ ê³ł
uss ian
Ġcons ecutive
ĠìŀĲ ê²©
Ġëį ®
ìĭ¬ ìĿ´
t op
ĠSt ra
ë¦¬ ì¦ĺ
idd en
b ound
ĠëŁ¬ìĭľìķĦ ìĿĺ
ç ķ
ëĶĶ ìħĺ
Ġìŀł ìĭľ
ĠMatt hew
Ġë³´ ìķĪ
Ġ7 2
ĠF all
Ġ6 6
wh ile
Ġì°¨ì§Ģ íĸĪëĭ¤
G l
E E
ĠìĿ´ ìŀ¬
in ter
n i
Ġì¡° ê¸Ī
Ġresp ond
int end
Ġì§§ ìĿĢ
ĠM L
Ġëħ¸ ë²¨
Ġdec re
Ġoffic es
R O
ìĤ° êµ°
ì§Ħ ìĿĦ
Ġse lect
Ġë¶Ī ê³¼
Ġì§Ģ ìĭĿ
Ġposs ess
Ġord ers
y ard
ê ¶
Ġb oys
Ġë¶Ħ íķł
ĠPortug al
Ex p
ust er
Ġan s
Ġëĵ± ìĿĢ
Bl ack
C ent
Ġgl ass
ë¥ĺ ë¥¼
Ġíĥ ģ
ë Į
er ts
ann ed
Ġëĸ¨ìĸ´ ìł¸
Ġëĭ¨ ìĿ¼
Ġmax imum
o a
ram a
ĠRog er
Ġ5 7
ìĹĪ ì§Ģë§Į
ìķĦ íĤ¤
Ġabandon ed
Ġstar ts
ìĿ´ ëįĺ
ĠL ang
ĠíĶ¼ íĦ°
Ġíĺķíĥľ ìĿĺ
ud a
az a
ĠëĤĺ íı´
ĠSt aff
g ency
ĠG ab
ĠAl abama
Ġturn s
ìłģ ìĿ´ëĭ¤
Ġad vent
Ġëĭ ¥íĦ°
Ġíķľëĭ¤ ê³ł
Ġpil ot
íĬ¸ ëŀĻ
Ġent rance
ra f
Ġk il
ĠR ain
ĠT an
ol o
ì§Ģ êµ¬
Ġë§ Ľ
ĠNor wegian
ĠP ur
ê´Ģ ê´ĳ
ann y
ĠBe fore
ro c
ìĨĮìĪĺ ìŀĲ
íĺĦ ëĮĢ
Ġfail ure
Ġdeterm ined
ic ians
in cluding
ë²ķ ìĹĲ
Ġsy nd
Ġë¨¸ ë¦¬
ĠìĿ´ëģ ĦëĬĶ
ì£¼ êµ°
al em
ĠìķĦ ìĿ´ìĬ¤
Ġto ward
Ġh ired
Ġë³´ ì¡°
Ġíķľëĭ¤ ëĬĶ
Ġf ranch
ĠL in
ë¬´ ë¶Ģ
ë¦Ń ìĬ¤
Ġíķ´ ë°©
ĠTh rough
ĠìĽĲ ì¹Ļ
az ines
ĠëĽ°ìĸ´ ëĤľ
ĠìĥĿ ì¡´
ĠìĽĮ ìĭ±íĦ´
ĠB erg
ä¸ »
igen ous
Ġcompet itions
ob e
íģ¬ ëĬĶ
Rail way
ĠAl i
Ġren ov
ĠR ick
éĥ ¨
Ġpasseng er
l ay
ol t
ë°ķ ë¬¼ê´Ģ
Ġtransl ation
ock ed
ë¬¸ ìĿ´
ì¹´ ëĵľ
ĠTh ird
Ġê¶Į íķľ
ĠTok yo
N C
ê³ł ë¡ľ
ĠC BS
ĠìĨĮ ìĪĺ
ĠíĶĮ ëĿ¼
ìĬ¤ ëŁ¬ìļ´
Ġband s
ìļ° ëĿ¼
ĠAr k
Ġpl ot
ĠC ow
rop ical
el son
Ġë¦¬ê·¸ ìĿĺ
ug u
St ar
193 8
Ġgl obal
ëł¤ ëĬĶ
ĠìłĦ íĺĢ
íĬ Ģ
ograph ical
Ġbrief ly
I L
Ġf un
Ġexist ence
Ġsports people
ur ation
íķĺê³ł ìŀĲ
p oint
Ġë°± ìŀĳ
ĠìĿ´ ìĦ±
ãĥ¼ ãĥ
ĠAg ain
ĠA st
ĠìĤ¬ëŀĮ ëĵ¤
Ġwrit e
or ough
Ġstat istics
Ġspe ech
Ġw ays
Ġ189 8
ant age
f ound
el er
ÃŃ n
Ġs occer
íģ¬ ëŀĺíĶĦíĬ¸
in burgh
ĠD om
ìĤ¬ ìĹĲìĦľ
ĠìķĦ íĭ°
Ġíıī ìĸĳ
Ġmunicipal ities
ĠV in
Ġhold ing
s et
u y
æ ·
ĠT ar
Ġph ase
Ġdef ense
ĠN C
ĠíĮĮ ìĽĮ
ĠL INE
ìĤ¬ ìłĦ
Ġêµ¬ì¡° ë¥¼
Ġìłķ ì°¨
Ġë¯¼ì£¼ ëĭ¹
Ġh ill
ĠR un
ìŀĲ ëĵ¤
Ġì¹´ ëĵľ
Ġloc omot
æ° ´
ëĪĦ ìĬ¤
O ver
Ġìĺ ·
Ġg uns
íĨł ëĭĪ
Ġinv asion
Ġì¡ ±
or ia
ìĭľ íĤ¬
ë³´ íĨµ
Ġdec ades
Ġneg ot
Ġcon ce
ĠV o
Ġcaus ing
ĠìĻĦ ë£Į
ĠF arm
Ġíķ© ìĿĺ
ĠìĪľ ìľĦ
Ġëį°ìĿ´ ë¹Ħëĵľ
ê±´ ìĦ¤
Ġë°ľë§¤ ëĲĺìĹĪëĭ¤
H er
P aul
ic ide
ĠIn ternet
ful ly
íķĺëł¤ ê³ł
ĠìĿĺ ìĥģ
ë¶ Ļ
ĠD eb
íĥĢ ë¥¼
ĠT el
Ġst ores
os ite
ĠíĽĦ ìĨĲ
Ġch ampions
Ġcar ry
ĠìĽĲ ìłķ
Ġprop os
ur day
ĠO cean
ì¡° ê°Ģ
as ure
Ġequ al
Ġìľ µ
R el
Ġh our
ì° į
Ġëª¨ ìĬ¤íģ¬ë°Ķ
Ġdo ing
ê¹Įì§Ģ ëĬĶ
æľ ´
re p
Ġintro duction
ĠìĨį ìĹĲ
is d
ë Ĵ
ìĦľ ìĹĲ
ê´ĳ ì£¼
Ġalleg ed
Ġë¶ īìĿĢ
ìĨĮ ìĹĲìĦľ
ou ver
I nt
íĸī ìľĦ
ĠëķĮ ìĹĲëĬĶ
ist ol
Ġmay or
Ġíķĺ ë©´ìĦľ
ëĦ ĺ
Ġë¿ Į
Ġdr ivers
Ġìķ½ ìĨį
ĠCro wn
Ã ´
ë ¤¼
ĠDis ney
íĴĪ ìĿĦ
ĠìĹĨ ê³ł
Ġëĭ¹ìĭľ ìĿĺ
iss ippi
193 7
ìĿ¼ ìĿ´
Ġì§ĢìĹŃ ìĿĢ
Ġprot ect
Ġìĭ¬ ê°ģ
Ġ( ;
atab ase
Ġo vers
Ġëħ¼ ìŁģ
ĠíĶĦë¦¬ ë¯¸ìĸ´
ëĮĢ ìĭł
Ġext rem
ird s
ì£¼ ë¯¼
Ġre asons
Ġs ought
ìĬ¤ ìľĦ
ìĦł ìĹĲìĦľ
ĠEr n
ĠìĥĿ ëªħ
ĠIndepend ent
ol ly
Ġext ension
ëª¨ ëį¸
è ī
st an
Ġìļ´ ìłĦ
ìĹĪ ëĬĶëį°
Ġcol lected
Ġê³Ħ ê¸ī
Ġëª¨ íĹĺ
is f
Ġan th
Ġsol id
ç ©
Ġrece iving
bor ough
ìĤ Ń
é İ
ë¦¬ ìĸ¸
ĠìĿ´ë£¨ ìĸ´ì§Ħ
ig ious
ìĭľ íĹĺ
Ġgener ation
ĠBec ause
ìĹĲ ë§Į
se ud
ĠÃ Ĺ
âĢ ¦
Ġmain tained
Ġprogram me
éŁ ĵ
ìĪĺ ìĻĢ
Ġì° į
ĠíĶĮëłĪìĿ´ ìĺ¤íĶĦ
ty pe
ĠRep ort
ĠìĿ¼ ìłķ
ob a
Ġt end
uc ks
Ġì¸ µ
íķ¨ ìĹĲ
P A
Ġj azz
l ow
el and
âĢ ľ
Ġíķµ ìĭ¬
Ġpri est
on i
Ġë¶Ģ íĻľ
Ġëĳ ¥
ĠìĭľëĮĢ ìĹĲ
ĠìĹĦ ë§Ī
è ı
åŃ¸ æł¡
ëĤ ¼
ê¸° ìķķ
Ã© t
ĠS port
Ġoper ate
Ġstand ards
Ġê³µ ë¶Ģ
ĠìĺĪ ìĥģ
ĠíĮĢ ìĿĢ
ĠëĮĢ ë¦½
Ġíģ´ëŀĺ ìĭĿ
ĠH om
ĠR abb
ĠìŀĲ ìĤ´
Ġf aith
ä» ģ
Ġcont ained
ĠíĦ ¸
Ġíķ´ ìĸĳ
J ames
Ġë³´ ëĬĶ
ĠSp r
Ġbelie ve
n ia
ìłĲ ìĿĢ
ĠìĿ´ê²ĥ ìĿ´
U C
ĠN aval
Ġsc ale
Ġin ternal
Ġro utes
Ġì½Ķ ì¹ĺ
Ġlic ens
us es
ter m
and o
ug ar
íĽĪ ìŀ¥
ìĿ´ìĹĪ ìľ¼ëĤĺ
Ġr ise
unt ing
inn ers
Ġb illion
Ġìĥ ĺ
ĠI owa
ìº ł
ĠSoc orro
Ġcontrib uted
ĠìĹŃìĤ¬ ìĥģ
ëıĻ ìĿ´
O rig
íĬ¸ ìĻĢ
Ġì¤ĳ ìĿĺ
ĠH ere
Ġíķ© ê²©
w en
ĠíĬ¸ ëŀľ
ëĿ¼ ê°Ģ
ĠH ell
Ġher self
D C
Ġre ign
ĠS ee
ot te
ìĿ¸ íĦ°
ĠF ac
for c
ĠL P
s pe
ĠëĮĢíĳľ íĮĢ
ĠYear s
ĠN ob
id el
Ġ8 8
it als
ĠíĨµ ìłľ
è ©
ëĦ ¨
Ġgr ade
Ġìļ´ ìļ©
Ġìĭľê°Ħ ìĿ´
own ed
Ġd ie
ĠìŀĲìĿ´ ìĸ¸
Ã ¥
h aps
yth m
Ġë©´ ìłģìĿĢ
íģ´ ë¦¬
an ch
ĠW ing
Ġch urches
Ġgreat est
íĪ °
z i
ĠìľłëĭĪ ë²Ħ
Ġs and
ĠM ix
Ġem phas
ĠíĻ ĭ
ĠìĿ´ ì¤ĳ
ĠI ron
ĠP ap
ĠH orn
ĠìĿĮ ëł¥
Ġdom estic
Ġt rying
ĠëĲ Ĳëĭ¤
ê²łëĭ¤ ê³ł
Ġê·¸ íķ´
ìĽĲ ê³¼
ĠìĤ´ ê³ł
Ġdis app
åĴ Į
ĠëıĦ ëĭ¬
ì¦Ī ì¹´
d r
ĠB ry
ìĬ¤íħĮ ìĿ´ìħĺ
íķ´ ì§Ħ
ĠëĤĺ ìĦľ
ug oslav
d o
Ġìĸĳ ìŀĲ
ĠìĿĺíķ´ ìĦľ
Ġrecogn ition
ĠêµŃ ê²½
ĠBl ues
Ġinst all
Ġìļ° ìĦł
è Ļ
ĠJ ay
ĠW elsh
Ġ188 0
ĠAnton io
Ġsc enes
M ost
ĠìĽĶ íĻĶ
s ong
ic ts
Ġì·¨ ëĵĿ
ĠLINE AR
ìĬ¤ ëŁ½
ap es
Ġ6 3
Ġë£¨ ìĿ´
ĠO ST
Ġh its
ìľł ìĿĺ
Ġê°Ī ëĵ±
Ġregard ing
am o
ĠP ear
ëĭ¹ ìĭľ
Ġsupport ing
Ġê³ł êµ¬ëł¤
Ġstri ke
Ġsub urb
ĠìĤ¬ íĽĦ
ĠStew art
re te
am ic
íħĮ ëĦ¤
ĠêµĲ ì°¨ë¡ľ
l ong
ĠìľĦìĽĲ ìŀ¥
Ġë¹Ħ ëĤľ
Ġpaint ing
ìķĪ ìĿĺ
ĠìĿ¸ ê¸°ë¥¼
ĠCol lection
ìĤ° ìĿĢ
Ġis lands
Ġm el
ëĬ ¬
Ġë°© ì¶ľ
íĺķ ìĿĢ
Ġìĸĳ ìĦ±
Ġsh ape
i ac
che ll
Ġa x
ĠìŀĲ ëħĢ
Ġì½Ķ íĮĮ
ars h
íŀ Ĳ
é ĺ
ĠìľĦ ë°ĺ
ĠPl aces
Ġìłķ ë³µ
ĠëĤ´ ìĹĲ
ĠF inn
ĠìĪĺ íĽĪ
Ġë²¨ ê¸°ìĹĲ
Ġs an
Ġch oice
Ġqu ant
ĠêµŃë¯¼ ìĿĺ
ĠPal ace
Ac adem
Ġë¹ĦêµĲ ìłģ
Ġì¡°ìĦłë¯¼ì£¼ì£¼ìĿĺ ìĿ¸ë¯¼ê³µíĻĶêµŃ
ĠìĨĲ ìŀĲ
ĠTer rit
r ations
Ġcommission ed
âĨ Ĵ
ĠìĦł ìĿĺ
ĠëĤ´ìļ© ìĿĦ
Ġal one
ìļ°ì£¼ìĹ° ìĥģ
ĠL et
ĠR ights
ĠMc G
ĠKn ight
ĠíĮĮ íĬ¸
ĠPrim ary
Ġre in
ĠëĲ ¨
Ġìłģ ìĿĢ
ĠIn n
ĠìĤ¬ë§Ŀ íĸĪëĭ¤
ìŀĳ ê³¡
Ġres istance
ìķĺ ëįĺ
ĠHot el
Ġê³ł ìĨį
Ġì±ĶíĶ¼ìĸ¸ìĬ¤ ë¦¬ê·¸
Ġdec or
ê·¸ ë¦¬
íĬ¹ë³ĦìŀĲì¹ĺ ëıĦ
Back ground
Treat ies
ëįĶ ëĿ¼ëıĦ
Sc ott
Ġíĸī ìĦ±
ĠìĬ¤ì½Ķ íĭĢëŀľëĵľ
ĠëĲĺ ì§Ģ
ĠíĥĢìĿ´ ê±°
ĠTam il
ĠE very
achel or
Ġë¡ľ ë§¨
ë¥ ¨
ĠíĿ¡ ìĪĺ
Al bums
Ġm ent
ĠìĪĺ ìĤ¬
ast ery
olog ies
ëĦĪ ìĬ¤
f ather
ì²ĺ ëĵľ
Ġê°ĸ ì¶Ķ
Ġqu ite
ĠíĸĪ ì§Ģë§Į
ĠíĪ¬ ìŀħ
ĠVol ume
Rec eption
ĠìĤ¬ìĭ¤ ìĥģ
Ġform al
Ġ189 9
Ġdyn asty
Ã© s
Ġpi eces
S an
Ġm us
Ġtransl ated
et ry
Ġd iplom
ĠW y
Ġìłľ ì¶ľ
ĠSe ason
ĠHol lywood
Ġpat ients
ì° Į
íĥĢ ëĬĶ
ĠëĤĺ ìĻĢ
Ġ8 00
Ġpol ic
A ugust
ĠIm perial
ì ©
olog ists
ĠìķĦ ë²Ħ
Ġapp eal
Ġpoet ry
ĠìĻ¸ ìĹĲ
ê³µ íķĻ
Ġstreng th
Ġì ³
Ġp up
ëħ ģ
ĠìļĶ ìĨĮ
ëĤ¬ ìľ¼ë©°
ĠíĻĶ ë¬¼
ĠíĴ ĭ
Ġle ct
Ġê±´ êµŃ
ĠLaw rence
ë¡ł ê°Ģ
a ire
ĠB illy
ĠE ver
ĠKenn edy
Ġs ale
B L
ĠìļĶ íķľ
T r
ìĶ¨ ëĬĶ
ë¡ľ ìļ°
g ow
ĠìĬ¹ ìĿ¸
Dem ographics
ìĭľ ëĮĢìĿĺ
Ġag ed
Ġìº Ħ
ĠìłĢ ì§Ģ
ink ing
Ġenvironment al
Ġa str
í Ľ
Ġobserv ed
Ġì§ĳ íĸī
ĠN ord
Ġar ran
Ġliter ary
Ġë¦ ´
ç Ł³
l ad
Ġì¶ľ ìŀħ
íĪ¬ ìĬ¤
Ġbir ds
Ġocc urs
ì² ¼
Ġìłķ ëıĦìĿĺ
Ġres erv
Ġp ull
Ġre aching
íĻĶ ë¡ľ
ĠìŀĪìĹĪ ìľ¼ë©°
ĠL ov
ë®¤ ëĭĪ
çĦ ¡
ëħĦ ê²½
æ° ¸
Ġì£¼ êµĲ
ë¦¬ ëĭ¤
Ġm and
ĠëĿ ł
ë¬¸ ìĿĺ
ĠJu an
em en
ra structure
ê²½ ìĺģ
ĠìĤ Ń
Ġentire ly
Ġb an
Ġë¡ľ ëĵľ
Ġc row
Ġw alls
Ġêµ¬ ì²´
ĠCl in
Ġì²´ ìľ¡
Ġocc as
ĠBas ketball
hemat ics
ĠAn ne
Ġë³¸ ê²©
Ġíı¬íķ¨ ëĲĺìĸ´
Ġrepresent ing
ê² Ķ
å ĥ
ë²Ī íĺ¸
Ġìĭ± ìĸ´
N S
ĠA le
ph a
R oman
ĠBr uce
ëħ ¹
ĠB ull
ĠìĦ¤ì¹ĺ ëĲĺìĸ´
ĠìĹ´ ëĮĢ
ĠV ar
ĠH op
ĠB uck
193 5
ĠPlay er
a fter
ìħ ī
ĠCent ury
ìĭľíĤ¨ ëĭ¤
ê¶Į ìĹĲ
ut ation
ĠìĪ Ń
Ġa id
å ĵ
ĠC ook
ëłĪ ìĺ¤
Ġrequ est
ĠMalays ia
Ġ8 5
Ġdesc ription
ĠMP s
ĠB ible
ĠA S
Ġch ain
Ġìĺ¤ íĶĦ
Ġad apted
ĠíĿ ĺ
ëŁ¬ìĭľìķĦ ìĿĺ
Ġadj acent
' re
Ġê³ł ìĨįëıĦë¡ľ
ìĭł ìĿĢ
ĠE ven
Ġclos ely
ëĤĺ ê³ł
ition ally
ç¸ £
ov iÄĩ
ë° ´
Ġcons ult
ay an
ĠìĦ¸ ìļ´
U EFA
Ġê²°ê³¼ ë¥¼
ĠOper a
ĠCo oper
Ġf ashion
ĠìĻ Ķ
ëĭĺ ìĿĺ
ë£¬ ëĭ¤
anc ouver
ĠêµŃ ë¬´
ìĹĪ ìľ¼ëĤĺ
ĠHar ris
fer red
ê°ľ ìĿ¸
Ġê³¨ ëĵł
Ġë¯¸ ëĭĪìĭľë¦¬ì¦Ī
Ġë¦¬ ëįĶ
ìĤ¬ ìĬ¤
ìŀĲ ëĵ¤ìĿĦ
ex ual
Ġin aug
S im
ĠW he
Ġcross ing
Ġconsist ing
ì¦Ŀ ìĿĦ
ĠLa ure
Ġchem ical
ĠPrin cess
ĠëĮĢ íķŃ
æľ Ī
v ements
Ġëĭ¨ íİ¸
ĠDef ense
ĠM ission
In ter
I f
Ġb odies
og le
Ġinvol ving
Ġrul ed
ri k
Ġregard ed
W rit
Ġë³´ ê¸ī
Japan ese
ĠEd inburgh
æ ģ
Ġf ram
hes is
Ġinst alled
ĠìĿ´ ìłķ
Ġsymb ol
ĠAm b
d ied
ìľ¼ë¡ľ ëıĦ
Ġëħ¸ ìĺĪ
Ġm arg
Ġd ates
Ġh air
ëĮĢ ì¤ĳ
Ġ9 9
Ġapp oint
R ich
Ñģ Ðº
ĠìĦ¸ ìĽłëĭ¤
Ġìłķë¶Ģ ê°Ģ
Ġì§Ī ë³ĳ
ĠìķĦ ìĺ¤
n ot
å ²
ĠìĹ° ìŀ¬
ë¥´íĤ¤ ìĺĪ
Ġexpress ed
ĠP a
ëĮĢ ëĮĢ
ĠS ac
ì§Ħ ìĿĺ
Ġv ice
Ġse lection
ĠìŀĦëªħ ëĲĺìĹĪëĭ¤
Ġsuccessful ly
ĠWeb site
ìķĦ ìĦľ
ìĬ¨ ìĿĢ
Ġj unior
Ġexper i
Ġbehav ior
w all
Ġanim ated
ĠëıĦ ìļĶ
arg o
Ġìĺ¤ íŀĪ
Ġë¬´ ìĹĩ
Ġprov ed
ĠK evin
Ġcomm it
ĠAdminist ration
Ġse ems
ĠíĥĪ ì¶ľ
ĠHer itage
è Ĭ
Ġp ed
R I
ĠVill age
b i
ĠìĽ¨ ìĬ¤íĬ¸
Ġed ge
ë³´ ë³ĳ
ĠíĮĮ ëĿ¼
Ġì¶Ķìłķ ëĲľëĭ¤
ëĵľ ëłĪ
Ġinc orporated
P ort
ìĹŃ ìĿ´ëĭ¤
Ġì¶ķêµ¬ ëĭ¨
ìĺ¤ìĬ¤íĬ¸ ëłĪìĿ¼
Ġg ar
Ġì¹´ ìĿ´
ë§Į íģ¼
ĠT reat
Sp ec
ĠOr thodox
Ġcr iminal
Ġcaus es
ë°Ģ ë¦¬
å° ¹
ĠK T
ĠMr s
r ons
ĠSh ah
ĠP A
é¾ į
ail ing
Ġsom ew
od a
Ġw arn
c i
e qu
ĠNor man
ou stic
ĠPro duct
ĠíĹ ¨ë¦¬
Ġlead s
ak ed
193 3
ĠFred erick
Ġpar allel
193 4
Ġwe alth
Ġtra v
ĠC her
um in
ĠMet ropolitan
ĠëĲĺ ë©´ìĦľ
il k
Ġestablish ment
m illion
ì² ¨
Ġ0 3
ur i
ĠR ey
Ġë§Į íģ¼
Ġbel ief
Ġlim it
ìĤ¬ ëŀĮ
Ġë¯¸ ëĭĪ
ë¬¼ ë¡ľ
Ġob jects
ĠëĤĺëī ĺ
emb le
ĠOper ation
aval ry
ĠíĿ¬ ë§Ŀ
Ġìĺ¤ ëŀľ
ĠC F
Ġê²½ê¸° ìĹĲ
ĠìĦ¸ê³Ħ ìĹĲìĦľ
ìĿ¸ ìĿ´ëĭ¤
ĠLeb an
H istor
ë¦¬ì§Ģ ëĦĲ
Ġíĥ Ŀ
ĠMount ains
Ġë³´ ê±´
ì¢ħ ìĿĢ
ìļ° ê³ł
Ġprem ier
ìłĦ ìľ¼ë¡ľ
ë§Ī ë£¨
êµ¬ ìĻĢ
ĠMont real
g ers
ĠMc K
ìĿĮ ìĹĲëıĦ
ĠHarv ard
R S
Ġê°ľ êµŃ
Ġw aters
ëĿ¼ìĿ´ íĦ°
íķĺëĭ¤ ëĬĶ
ìĬ¤íĬ¸ ëĿ¼
ĠGl obal
ĠìķĮ ê²Į
ĠC H
op ter
Ġan cest
Ġì¶Ķ ì¸¡
é ¡
ĠC are
Ġg etting
w eb
Rober t
W A
ĠR ap
Ġë§¡ ê³ł
Ġinflu enced
Ġëªħ ëªħ
ĠHistor ical
ĠìĿ¸ ê³µ
enez uel
Ġst orm
ĠìķĪ ëĤ´
ud i
el ess
Ġfoc used
Ġprote in
ĠPit tsburgh
ĠP as
ĠO ri
Ġm art
193 2
ann els
ĠM iami
om as
ish ops
Ġlaw yer
Ġposs ibly
B uildings
ä½ ¿
Ġp rice
ĠThe n
Ġspec ifically
ĠìłĪ ëĮĢ
Ġì į¨
Ġê±° ëĮĢíķľ
eg et
Ġë¶ģ ìĦľ
ëĭ¹ ìĹĲ
Ġìĸ´ ëłµ
Ġê°ķ ìłľ
Ġê±° ìłĪ
Ġíķ´ëĭ¹ íķĺëĬĶ
Ġìħ ĭ
ĠêµŃê°Ģ ìĿĺ
Ġrepresent ative
ĠìĿ´ ìĿµ
ĠGl as
Ġê¸Ģë¡ľ ë²Į
å¤ «
Ġ189 7
Ġro oms
Ġêµ¬ ë³Ħ
ìĸĳ ìĿĺ
ĠB uff
ĠìŀĪìĹĪ ìľ¼ëĤĺ
Ġval ues
ĠC arn
ê¼ ¬
Ġw atch
ĠìĿ´ìķ¼ ê¸°ë¥¼
Ind ian
ë©´ ìľ¼ë¡ľ
Ġê·Ģ êµŃ
ì§Ģ ë©´ìĦľ
ĠAb out
Ġl aid
iver pool
ëĦ Į
éĥ ½
Ġs ections
Ġact ual
íĶ¼ ìĬ¤
Ġworld wide
ra k
ĠOtt oman
Ġf ictional
ĠS i
Ġ( ~
Ġìĭł ìĦ±
or ig
Ġl at
ĠRuss ell
Ġtw elve
od ge
Ġsequ ence
ic us
ê°ľ íĺģ
rop s
ĠêµĲ ìĤ¬
ìĥī ìĿĦ
ĠMiss issippi
ĠìĤ ½
ĠAnd re
Ġê·¸ ìĹĲ
Ġmom ent
Ġë£ Į
Ġs ust
Ġfin ishing
Ġinvestig ation
Ġex act
ĠRail road
ĠP ir
Ġë½ ĳ
Ġim ages
ĠAtl anta
ĠìĬ¤íĥ ł
ĠíĹ¤ ë¥´
ìĹĨ ëĬĶ
le ton
Ġëĭ¨ ì¸µ
ch ant
Ġcompos ers
Ġbott om
Ġbo at
Ġtechn iques
ëĮĢ ìĽĲ
o om
Ġëĵľ ëĿ¼ìĿ´
amp ton
ĠëłĪ ìłĦ
Ġfund ing
Ġì§ĢìĽĲ ìĿĦ
ê¶Į ìĿĢ
ĠëķĮ ìĹĲ
Ġê°ľ ê´Ģ
ìĪł ìĿĦ
ĠS oul
ĠìĬ¤ íĤ¤
ĠìĺĪ ë¹Ħ
Ġpurp oses
Ġê³µ ìĤ¬
Ġrail road
ĠìĿĢ íķĺ
Ġleg end
Ġthe ater
Ġstand s
ĠP ed
Ġ6 8
Ġnorth west
Ġìķŀ ìĦľ
Ġfact ory
or row
ì°¨ ë¡Ģ
ĠìĿ´ì§ĳ íĬ¸
Ġìĭľ ìĥģ
Ġcon qu
Ġë¶ģ ëıĻ
Ġbro ken
Ġreturn s
ìļ´ ìĺģ
ĠíĥĢ ìŀĦ
ê³µ ìĭĿ
ĠìĿ¼ë³¸ ìĹĲìĦľ
Ġc atal
Ġê·¸ê²ĥ ìĿĦ
ent ially
Ġpasseng ers
h ost
ĠU pper
Ġê²½ ìľł
Ġì²ł íķĻ
Ġìĸ» ìĹĪëĭ¤
Ġ7 6
Ġ6 1
Ġearl iest
Ġê³ ½
Ġëıħë¦½ ìļ´ëıĻ
ĠHaw ai
Ġfle et
ĠO ur
Ġed ited
clus ion
Ġìĭľê°Ħ ìĿĦ
ĠÃ ī
ìŀħ ëĭĪëĭ¤
Î ¿
se a
íķĦ ëĵľ
ĠV ic
ê³µ ë¦½
duc ing
ĠAust in
Ġcop y
Ġm ist
Ġíķĺ ëĬĶëį°
Ar ch
og ether
Ġdevelop ing
ĠëĬ¥ ëł¥ìĿĦ
uk i
Pop ulated
ĠìķĦ ëĿ¼
ef ef
ĠTr ade
Ġneigh bour
ëĤ Ń
ig e
ĠSy mph
ĠëĤ¨ ëıĻ
Ġimport ance
Ġarg ued
ĠM aur
Ġre action
ĠM ethod
ĠE nt
Ġexp ed
ather ine
Ġz one
Ġê³ł ë¬¸
r ong
t hen
am an
f eld
Ġë§Ī ì¼Ģ
ĠíĶĦ ë¦°
ĠíĬ¹ë³Ħ íķľ
c ount
Ġpers ons
ĠíĻķ ìĭ¤
Ġtri es
ĠChrist opher
Ġìłľ ìĸ´
ìĪĺ ìĹĲ
íĬ¹ë³Ħ ì¶ľìĹ°
Ġê°Ģë¦¬ íĤ¨ëĭ¤
ĠëıĻ ìĿĺ
ì¶ľ íĮĲ
Ġf aced
ê³ ½
Ġdescrib es
ë ĪĪ
ë° ¤
Ġê²ĥ ì²ĺëŁ¼
ì¿ł ìĬ¤
ë¦¬ê°Ģ ìĿĺ
ìĹĲ íĬ¸
os ure
Ġìķ½ ê°Ħ
ĠG rant
ĠK y
ĠCon stitution
Ġsubs id
ìĿĮ ìĿ´
Ġent ertain
ol id
Ġ6 2
ìķ¼ ìĭľ
ĠV erm
Ġìľłíĺķ ë¬¸íĻĶìŀ¬
Ġnick n
Pl ay
Ġsup erv
ĠìľłíĬľ ë¸Į
Ñ ĥ
ĠI T
Ġë¶Ģ ìĥģ
ìľł ìĤ°
Ġê°ľë´ī íķľ
on ian
íĥĢ ìļ´
ĠíħĮ ëŁ¬
et a
ìļ° ìĿĺ
F l
Ġn arr
ĠF il
Ġcon cluded
ĠW a
Ġag greg
Ġhum ans
h op
Ġfund s
E p
t own
ĠF ern
Ġd a
ĠíĶĦë¡ľ ìĦ¸
ĠBelg ium
ĠìļĶ ìĥĪ
ĠB ox
ĠBroad way
ëĵľ ìĭľ
Ġground s
Ġeas ily
ĠG ib
Ġì§ĢëıĦ ìŀĲ
Ġëĭ¤ íģĲ
ĠD ue
ĠL anc
Ġíĸī ë³µ
Ġê·¸ ëłĪ
íĶĦ ëĿ¼
ĠíĪ¬ ìĸ´
ĠíĸĪ ê³ł
ĠìķĮ íĮĮ
Ġê¹Ģ ì¢ħ
Ġchampionship s
Ġpartn ership
Ġcomb ination
Ġf resh
ĠPe ace
Ġsur g
Ġb ill
M arch
Ġíı¬ ê¸°
Ġìŀ¥ ëĤ¨
E M
ĠS ax
ìĦ± íĻĶ
ĠìĪĺ ì§ĳ
ĠëłĪ ìĺ¤
ĠD allas
ĠN HL
ĠEd ition
Ġë¯¸ìĤ¬ ìĿ¼
ĠëĮĢ ë¹Ħ
so ft
ĠìĤ¬ ë²ķ
ĠEv ans
Ġinterp ret
f ile
ĠD ak
Ġê°ľ ìĦ¤
Ġeng aged
Ġc ourses
ĠG a
Ġun iform
ĠíħĮ ìĿ´
Ġìĺ¤ëŀĺ ëĲľ
Ġc ore
ĠC atal
ter ed
ë°ķ ìĬ¤
Ġb ond
ë°Ľ ê³ł
ĠíĸĪ ìľ¼ëĤĺ
ĠC leveland
Ġê¸ī ìłľ
R T
b ishop
Ġc rown
Ġê³Ħíļį ìĿĦ
Ġ7 7
Ġro of
ìĬ¹ ìĿĦ
Ġê ±
Ġë°ĺ ìĺģ
Ġì°½ ìĽĲ
ell ows
ĠëıĦ ë§Ŀ
Ġres igned
ĠëıĻ ëĤ¨
ì¤ĳ íĻĶ
ic it
ĠìĤ¬ íĨł
Ġ6 9
att an
ìĭľ ì²Ń
us hed
ĠëĿ¼ ìĿ´íĬ¸
Ġk ick
ĠëıĦ ì¤ĳ
ĠBar ry
ë°Ķ ìĿ¼
ĠB art
Ġë°° ìĹŃ
ë¶Ħ êµĲ
Ġë£¨ ìĿ´ìĬ¤
ĠíĮĢ ìĿ´
Ġìĥģëĭ¹ íŀĪ
Ġcerem ony
Ġprofess ion
y g
ë¦¬ ì½Ķ
ĠAg ency
Ġcour ts
c ussion
ell ite
ĠDe an
Ġì°½ ì¡°
ë³´ ëĬĶ
Ġprom ote
Ġë¥ ¼
ĠAlex and
Ġinj ured
ĠëĦĵ ìĿĢ
íĹ¤ ìĿ´
Ġter ror
Ġneg ative
ĠF urther
Ġë³ĳ ìĤ¬
ĠB omb
Ġê°Ģ ëĤĺ
Ġë¡ľ ë´ĩ
Ġinc ome
Ġguitar ist
ĠíĿĶ íŀĪ
ac le
ist ant
ĠG ran
Ġtra il
Ġdo or
éĸ Ģ
ì¸ł íĤ¤
Ġê±° ëŀĺ
ĠíķĻ ìĬµ
ë¶Ħ ìĿ´
åı ²
f ish
Ġì¼ Ī
Ġê·¸ ìĹĲê²Į
ĠPu erto
ĠìĿĺ ì¡´
ĠìĿ´ ìłľ
Ġpain ter
Ġ ille
ĠíĻ© ê¸Ī
b r
Ġv oted
Ġcl imb
ĠìĨĮìĨį ìľ¼ë¡ľ
ĠR oc
ĠìłĦ ê³µ
Ġviol ence
Ġì¶ľ ë§Ī
Ġì£¼ ìĸ´
ë¦´ ëŁ¬
K ë¦¬ê·¸
Ġë¹ Ļ
Ġ187 0
Ġcont rolled
ĠL ieutenant
íĻĶ íķĻ
Ġoper ates
Ġë²ķ ìłķ
ĠP sych
ĠíĺĦ ìĹŃ
ì£¼ ìĻĢ
ĠìĨĮ ë°©
W omen
Ġsched uled
Ġ10 1
ĠìŀĪìĹĪ ëĬĶëį°
Ã ª
ĠR ub
êµŃ ìĹĲ
Ġ6 7
Ġth row
Ġfl u
Ġproduc ing
Ġì¤ĳ ê³Ħ
ins ula
B ar
Ġnot ably
ĠM ind
duc ational
ĠPl ace
ĠìłĲ ìĹĲìĦľ
Ġview s
N N
Ġs oci
ĠJ erry
ì¹ĺ ìķĦ
Ġë¸Į ë£¨
Ġequ ivalent
8 00
Ġì «ĵ
Ġk id
ìĬ¬ ëŁ¬
ë³´ ìĿ´
inist ers
Ġphil osophy
ĠBalt imore
íħ ĶëłĪë¹ĦìłĦ
Ġê·¼ ëĮĢ
Ġcateg ory
ĠF und
Ġì¶ľìĹ° íķĺìĺĢê³ł
ĠìĿĳ ìļ©
Ġìłľê³µ íķľëĭ¤
Ġê°Ģ ìĻĢ
íĨµ íķ©
Ġfound ation
Ġì§Ģ ëĭĮ
St ation
S ub
Ġs ell
Ġinters ection
íķ´ ëıĦ
Ġref uge
Ġe lement
Person nel
ĠK o
ä¹ ĭ
ë¹ĦìķĦ ìĿĺ
ĠH ug
ple te
ĠY outh
ĠWalk er
Ġê°ĸ ì¶ĺ
ming ham
Ġt or
ĠëĮĢ ìŀ¥
Ġte en
Ġvis ual
6 00
Ġì½Ķ ë¡ľëĤĺ
ĠH end
è ĪĪ
Ġw eather
ĠM ans
Ġê¸Ī ìĨį
ĠìĻĢ ìĿ´
Ġrev olution
Ġass ess
h u
ì§Ģ ë©°
Ġso le
Ġg ain
Ġre ally
Ġres ear
Ġì§Ħ íĻĶ
Ġimpro ve
Ġex erc
Ġì§Ħ ìŀħ
ĠB ush
ĠMet ro
p ower
Ġíĸīìłķ êµ¬ìĹŃ
ìĿ´ ìĥģ
ĠíħĮ ë§Ī
Ġ ri
ĠìĺĪ ìĤ°
Ġê³¨ ëĵľ
ant ly
Ġking dom
Ġíķ´ ìĦ¤
ìĿ¸ ëĵ¤ìĿĺ
ĠLiber al
Ġop in
Ġìĺ¤íŀĪ ëł¤
ĠìĥĿ ê²¨
ĠEn vironment
Ġide as
íĸ Ħ
ìłĦ ê¸°
ĠJim my
ê²Ģ ì°°
Ġrepe ated
Ġì¶©ì²Ń ë¶ģëıĦ
A pp
Ġì°¨ ìĿ´ê°Ģ
Ġtyp ical
ìłģ ìĿĺ
Ġê¸° ìĥģ
Ġíķľ ë²Ī
ĠG on
Ġit ems
ĠN atural
ĠìĿ´ìļ© íķ´
å ¦
Ġë² ¡
ì¶ °
Ġemploy ees
Ġg ets
Ġlin k
ann e
ç ı
Ġë³´ ìĺĢëĭ¤
Ġapplic ations
Ġjur isd
ĠëĮĢ ìĪĺ
ëł¹ ìĿĦ
Ġìĭľì¦Į ìĿĦ
Ġë³Ģê²½ ëĲĺìĹĪëĭ¤
ĠAlf red
Ġadv ance
ol ph
ë²ķ ìĿĢ
ëłĪìĿ´ ìĭľìķĦ
p op
ëıĦ ìĹĲìĦľ
Ġë¨¸ ë¬¼
ìĬ¤ íĶ¼
c ious
ĠìĤ¬ìļ© íķĺê³ł
.. ..
Ġresident ial
Ġ189 4
Ġon es
cy clop
Ġdef ensive
B ur
l ig
ĠC rit
ĠF ive
Ġíĥľìĸ´ ëĤĺ
ĠDen mark
Ġopportun ity
ë²ķ ìĿĺ
ìķ¨ ë²Ķ
ìħ Ī
ë£Į ë¥¼
Ġë³Ģ íĻĺ
åı ¸
Ġw itness
et on
ĠìĬ¤ ë§ĪíĬ¸
ĠìĭĿë¯¼ ì§Ģ
Ġr ivers
ĠEx ecutive
edd ing
ĠD igital
Ġsub stant
Ġcar bon
ĠìľłìĤ¬ íķľ
Ġt ur
Ġar med
ĠJ ordan
Ġë©¸ ë§Ŀ
Ġg olf
ĠSt ars
Ġê³µ íĻĶ
Ġs ave
Ġcon sequ
ê°Ħ ìĹĲ
ëĭ¹ íĸĪëĭ¤
ort on
ĠìĹŃ ìĿĦ
Ġd ivers
Ġíķ´ ìĤ°
b ridge
Ġp ione
ĠR yan
ĠìĿ¸ ìĥĿ
Ġvol unte
Ġcon vent
ten ance
ĠF ried
19 18
ĠO m
ìĦĿ ìĿ´
Ġred uce
Ġs ession
ĠM ess
ìĦł ìľ¼ë¡ľ
ĠìĽĲ ëħĦ
ĠW ard
aught ers
het ic
Ġopp osite
ê³ł ìĿĺ
Ġê·ľ ì¹Ļ
at ures
ĠSc ient
e ast
Ġê²½ ì£¼
ĠPet ers
u ins
ĠíıĲì§Ģ ëĲľ
ä¸ į
Ġint elligence
Ġë°©íĸ¥ ìľ¼ë¡ľ
ĠJohn ny
19 28
Ġê°Ģ ìĿĦ
Ġë¶Ģ íķĺ
ìľ¨ ìĿĦ
ĠN ever
os ph
Ġê¼ Ń
ĠM VP
ĠìĿ´ìļ© íķľ
ì¶© ì²Ń
ĠëıĻ ìķĦ
go ing
ĠìĹ¬ê°Ŀ ì²łëıĦ
ĠF ather
ĠMarg aret
A ng
en berg
ìĸ¸ ìĿĦ
Ġìº Ķ
ĠíĽĦ ê¸°
ĠJ ess
ĠíĮ¨ ìħĺ
ì°¨ ìĽĲ
Ġsk ills
ĠëłĪìłĦ ëĵľ
ê·¸ ìĿĺ
ĠComm ander
Ġhe at
ous es
Sports people
ĠíķŃ ë³µ
ĠRes erve
Ġê¹ ĬìĿĢ
ì¼ °ëĭ¤
Ġë Į
Ġdoc uments
á ¹
êµ¬ ìĦ±
ĠBl ood
f efef
ĠìĿ´ íķĺ
ĠMor gan
Ġdiv isions
fefef e
ìĹŃ ìĿ´
ĠSam uel
ĠCont rol
Ġìľłëªħ íķĺëĭ¤
ĠìĿ¼ ìĿ¼
Ġë°©ë²ķ ìĿĦ
Ġë§Īëĵľë¦¬ ëĵľ
Ġrepl ace
ë¹ Ĺ
Ġg ang
ĠêµĲ íĻĺ
ĠíķĻ ìĪł
ĠL l
ĠíĢ ¸
ĠD anish
ĠJ TBC
Ġv ide
M c
Ġimpro ved
Å ¾
ìĿ¼ ë¦¬
ë© į
Ge orge
ìħ Ģë¡ľ
Ġë¬¸ ìĭł
ĠíĽĦ ìĨį
ĠìĿ´íĽĦ ìĹĲëĬĶ
Ġbelong ed
Ġëĭ¨ ëıħ
Ġelect ronic
Ġsepar ated
Ġë¹ł ë¥´ê²Į
ìĹ¬ ìĦľ
Ġshow ing
ĠTh us
Ġsing ing
Ġgood s
ĠN CAA
ĠëĮĢ ê³µ
ĠìłĲ ìĿĦ
as a
Ġìŀ¡ ì§Ģ
ĠG ill
P res
ĠB ase
Ġë³´ ëĥĪëĭ¤
ìĦ¸ ë¡ľ
ìĭľ ë¦¬ì¦Ī
ok ing
ĠíĶĮ ëŀĺ
Ġjoin ing
wh o
Ġfl at
Ġj ump
Ġë ·
Cl ub
ch i
å° ı
Ġprison ers
ê±° ìļ´
ë°Ķ ë¡ľ
Ġìķ¼ ìĬ¤
Ġë¸ĮëĿ¼ ìļ´
Ġaccom pan
ĠìĦ± ìĨĮìĪĺìŀĲ
ĠK az
ĠìĤ¬ê±´ ìĿĦ
Ġpen al
ĠíĶĦë¡ľ ê·¸ëŀĺ
Ġro c
ĠM A
ĠëıĻ ìŀĳ
ìŀĳ ê°Ģ
Ġinv ited
ìĦľ ê°Ģ
Ġst ating
Ġin form
ĠSat urday
âĪ ¼
Ġë³´ ìŀ¥
ì°¨ ê°Ģ
Ø §
ĠìĤ¬ ìľł
ĠL ib
íĻĶ ìĻĢ
Ġnot hing
ĠG ener
Ġb ra
ĠS af
ĠìĪĺ ìĨ¡
æľ ĥ
Ġíİĺ ìĿ´ì§Ģ
uz z
ê² ł
oc a
Ġaccom mod
Ġre ality
ĠëĦ¤ìĿ´ ë²Ħ
Ġf an
ip h
ĠíĬ¹ ì§ĳ
O K
b oy
ĠW ol
ì°¸ ì¡°
ĠìĿ´ëģĮ ê³ł
f inal
y ers
Ġex amples
Ġì§ģ ìĹħ
Ġdev ice
ĠìĻĦ ìłĦ
Ġexhib ition
ĠìĹŃ ìľ¼ë¡ľ
ĠAl bum
Ġeng ines
Ġê¸°ìĪł ìĿĦ
Ġë²łìĿ´ìĬ¤ ë³¼
ĠR ow
Ġê²½ ìĦ±
ĠìĦľ ë²Ħ
Ġb rig
Ġì¡° ìŀĳ
Ġë²Īì§¸ ë¡ľ
ìļ° ì¹ĺ
Ġì¡° ì¢ħ
in ian
Ġì¶ľ ê°Ħ
ĠìĬ¤íĭ° ë¸Ĳ
ĠKel ly
Ġëĵ±ìŀ¥ íķľëĭ¤
19 29
Ġcol leges
ĠíķĺëĤĺ ëĬĶ
ì¼ĵ ëª¬
Ġìĺģ ìĽħ
ëģ Ķ
Ġpro ced
Ġproduc ers
Ġimpr ison
ìĶ¨ ìĿĺ
Ġpurch ase
ë³´ ê³ł
Ġêµ¬ ìĨį
193 1
ĠRang ers
ĠìĻ¸ ë¶Ģ
Ġh ttp
ë¬ µ
ĠBet ween
ĠìĹĨëĭ¤ ê³ł
Ġwh y
cept ion
ĠWind ows
Ġí ľ
ĠëıĦ ì¿ł
Ġret ail
Ġdet ails
C al
P re
Ġì¡° ì¹´
ë¯¸ ê°Ģ
m i
Ġcor por
com p
ĠSup port
c ell
Exp atriate
çļ ĩ
âĢ ĺ
Ġ9 8
Ġhead s
H A
íĨł ìĿĺ
æ² ³
ĠDon ald
ĠR and
19 14
ĠëĲĺ ë©´
Ġë©Ķ ìĿ¸
Ġcharg es
Ġn om
ĠìĦł êµĲ
ĠìłĢ ëħģ
Ġmot ion
Ġcle an
Ġë¹ł ë¥¸
Ġjob s
i op
Ġìĭł ì²Ń
ìĭĿ ìľ¼ë¡ľ
Ġíķ© ìĦ±
ĠG ary
Ġag ency
ĠìĹĲ ëıĦ
Ġrest ored
ĠëĤĺë Ī
êµ° ìľ¼ë¡ľ
ro t
ĠìĺģíĻĶ ìłľ
ãĥ ©
Ġd ies
ì²´ ìĬ¤íĦ°
ëħĦ ìĹĲìĦľ
Ġê¸° êµ¬
ĠB ed
et ime
Ġe ye
ìĹĲê²Į ìĦľ
ĠJos Ã©
Ġd uty
ì§ Ŀ
ĠSec ret
æĶ ¿
Ġcom ed
Ġìĥģ ìĬ¹
Ġme ets
Ġarch ae
ĠìĿ´ìľł ëĬĶ
ĠL am
Ġg arden
ĠTra il
ĠíĽĦ ìĹĲëĬĶ
Ġê±´ ë¦½
ìĿ´ìĹĪ ìľ¼ë©°
Ġíķĺ ë©´
Ġcompet e
ia h
Ġì¡° ìłĪ
ëĭ¨ ê³Ħ
Ġë¶Ī ë²ķ
Ġco oper
ĠV ancouver
ìĭľì¼ °
é º
ĠíĶĦ ëŀŃ
ĠCamp bell
ìķĪ ìĹĲ
l ie
ĠìłĦ íĽĦ
Ġì¹´ ë¥´
Ġë¸Į ë¦¬
L P
ãĢ Ĥ
ĠìĿĺ ë¬´
é Ń
ìĤ° íĻĶ
ë¯¸ëĶĶ ìĸ´
ĠM es
ĠG T
Ġass ass
ìĤ¬ ìĿ¸
ĠL ost
Ġìĥģ íĴĪ
Ġfact ors
ĠíĻĶ ìĿ´íĬ¸
ìĿ¸ ëªħ
íģ¬ ìĬ¤
M ark
Ġown ers
Ġsurv ived
ĠìŀĲìĿ´ìĸ¸ ì¸ł
v i
íļĮ ê°Ģ
ĠW oman
Ġ9 6
Ġann iversary
ëī´ ìĬ¤
ĠL ocal
ìĪĺ ìĽĲ
ç Ł
ë¿Ĳ ë§Į
ĠìĻ¼ ìª½
ĠìĺĪ ì¸¡
ĠS ud
ĠD aily
Ġ7 8
Ġìŀ¥ êµĲ
Ġcall ing
ĠStan ley
ê°ľ ê°Ģ
Ġë¯¸ ì¹ĺ
Ġbro wn
ĠìĿ¸ëıĦ ëĦ¤ìĭľìķĦ
Ġëĭ¤ ìļ´
Ġdo ct
Ġìĭł íĺ¸
ë¥ Ń
ĠL iverpool
ĠFrank lin
ĠColl ins
ĠM i
ì§Ģ ìŀĲ
ĠMark et
ĠìĹ° ëĮĢ
Ġcred ited
Ġsurn ame
ĠC hem
Ġë°Ľ ì§Ģ
ĠTai wan
Ġ188 5
Ġunivers ities
ì£¼ ìĿ¸
Ġìķŀ ìĹĲ
Ġrele g
d y
ĠR acing
ĠíĶĦ ëĿ¼
íħ ľ
Ġres erve
B E
å Ĩ
Ġadv antage
ë¥´ ê¸°
íĬ¹ë³Ħ ìĭľìĿĺ
u its
Ġê³µ íĻĶêµŃìĿĺ
ĠAthlet ic
Ġë¹ł ìł¸
å¸ Ŀ
ure au
ĠìĤ¬ ë¦½
Ġrece pt
ê°ķ ìĿĺ
ot ional
Ġì£¼ ê³ł
ë¯¸ ë¥¼
ĠìĪĺ ëª©
ĠëķĮ ë¶ĢíĦ°
J une
ĠL A
ĠCh all
Ġëĵ± ê¸ī
aw ay
ĠL ane
ĠN av
ĠD al
ĠíĿ ī
æ ¸
Ġìłķ ì§Ģ
Ġíļ ¡
ìĨĮ ìĻĢ
rain ian
igg est
ĠUk raine
19 19
ash i
ĠF ood
íĪ¬ ëĭĪë²ĦìĬ¤
Ġind uct
Ġswim ming
Ġb rain
Ġe gg
Ġê²Į ìĬ¤íĬ¸
ëĲĺ ë©´
ĠìĬ¤ ë¦´ëŁ¬
ĠThom pson
Ġë§Ī ì¸ł
ê³µ ìĤ°
Ġíĸ¥ ìĥģ
Ġmy th
l on
Ġëĳĺ ì§¸
ĠR ound
Ġë§Ī ì¹¨
Ġê³µìĭĿ ìłģìľ¼ë¡ľ
ab ad
ĠíĨµíķ´ ìĦľ
or er
Ġn or
ĠK u
Ġt ank
Ġëħ¼ ìĿĺ
Ġregular ly
Ġst ret
ëħĦ ìĿ´
Ġë³ĳ ìĽĲ
t ing
Ġìĭł ìķĻ
ĠP un
Ġd ig
Ġd og
Ġìŀ¬ ê°ľ
Mich ael
ìĨ¡ ëĿ¼ìĿ´íĦ°
Ġìŀīê¸Ģëŀľëĵľ ìĿĺ
ìŀ¥ ìķł
G M
ĠA qu
ĠAuthor ity
ĠJ un
Ġprov incial
Ġì°° ìĬ¤
le ans
íŀĪ ëĬĶ
ĠMor ris
Ġë³µ íķ©
ìłľê°ķìłĲ ê¸°ìĿĺ
ëª¨ ë¥¼
Ġíķ ¸
ĠCh ampion
Ġtransport ation
è ¼
fess ional
ĠSe attle
ĠOffic er
ĠìĬ¤ íĨłë¦¬
ĠìĬ¤ íĶĦ
ĠìĥĿ ê¸´
ĠìĦľë¹Ħ ìĬ¤ë¥¼
ë¦¬ ìĭľ
ol ia
ĠL ank
Ġcomp osition
Ġìķ¤ ëĵľ
ìĩ ł
is hers
ê¸° ìĦľ
Ġì į
ĠìłĦ ì§ģ
ë§Ī ìĵ°
Ġì½Ķ ë¦¬ìķĦ
O U
ĠM ap
Ġup d
Ġíķ´ ìĦľ
Ġëĭ¬ ëĿ¼
ĠëĵĿ íĳľ
ĠN ash
ĠK now
ĠI an
ail and
Ġcolon ial
r m
Ġë »
ìĺ Į
ĠBroadcast ing
ur u
ìĪĺ ìĿ´ëĭ¤
Ġì§Ģ ê¸ī
ĠRob inson
t rans
an ian
Ġacc used
ĠìĹĲíĶ¼ìĨĮ ëĵľ
ĠìĪĺíĽĪ ìŀĲ
ĠíļĮ ìłĦ
Ġëĭ¤ë¥´ ëĭ¤
est yle
Ġr ich
ìķ µ
ê¸° ëıħêµĲ
Ġfact or
ìĦ¸ íķľ
ì¦Ī ëĭĪ
Ġm ales
ë©´ ìĿĢ
ĠìĦ¸ ìĿ¸íĬ¸
æī Ģ
Ġgrad u
Ġw orth
Ġìĺ¤ ì¹´
Ġf ine
ro ke
Ġdep end
) âĢĻ
ë¥ĺ ê°Ģ
Ä «
Ġíĺ¼ ëŀĢ
ĠB eg
ĠN BC
ĠHamp shire
ë¶Ģ ëĮĢ
ìĭł ê²½
b at
h ttp
Ġdr iving
ĠY ugoslav
Ġë°ľë§¤ ëĲľ
ĠPal est
Ġíķľ ëķĮ
ind ing
C rit
Ġst orage
ĠìľĦíķ´ ìĦľëĬĶ
Ġfranch ise
Ġcl in
ĠN elson
íĮĲ ìĿĦ
Ġìĭľ ìĤ¬
Ġaff ected
i ece
Ġì ¥Ĳ
ë°ķ ì¥Ĳ
Ġb udget
ê¸° ìĹĲìĦľ
ĠH it
íķĻ ìĽĲ
ĠOn ce
T wo
êµŃ ìľ¼ë¡ľ
ì¹´ ìĿĺ
Ġìĥģ ë¥Ļ
Ġa f
ĠL anguage
ìº ĺë¦¬íı¬ëĭĪìķĦ
Ġ18 60
Ġëıħ ìŀĲ
æ ¯
aw are
ĠíĻľ ë°ľ
ĠĠ ĠĊ
ãĥ «
ê²½ ê¸°ìĹĲ
ëł¸ ê³ł
íĶĦ ë¥¼
íĭĢ ëŁ¬
Ġc ards
Ġfav our
ìĸ´ ìł¸
ĠBrook lyn
Ġis ol
ĠGlas gow
Ġm outh
Ġìłķ ê¸°
ĠAng l
Ġm ine
ĠT ower
ĠíŀĪ ìĸ´ë¡ľ
êµŃê°Ģ ëĮĢíĳľ
Ġìĭ±ìĸ´ ìĨ¡ëĿ¼ìĿ´íĦ°
ĠìĹĦ ì²Ń
ìĦ¸ ìĻĢ
J ew
ĠN iger
ry pt
ìĺĢ ìľ¼ëĤĺ
Ġê°ľìµľ ëĲľ
ren e
Ġcharg ed
Ġë¶Ģ ëĮĢ
ĠìłĦìŁģ ìĿĦ
Ġv eter
oc ol
ĠD yn
ĠíĦ° ëĦĲ
ĠSpe ed
Ġê³µ íĨµ
ine a
íĶĦ ëŀĢ
Ġinter ests
Ġclass ic
ĠC C
ìĹ°êµ¬ ìĽĲ
ĠCommun ications
ob by
Ġì£¼ ê´Ģ
ĠìľĦ ìĦ±
ill o
ĠíĿ¬ ìĥĿ
j amin
ic ial
ĠAlbert a
Ġìŀ¥ ìķħ
ĠF act
D ist
íĨµ ê³Ħ
Ġê²Ģ ì°°
Ġreject ed
Ġp ool
ot ten
ĠL ith
ë§Į ìĿĢ
Ġê±´ ì¡°
Ġf lying
ĠV ice
ĠN ar
Ġë³´ ë¬¼
ĠìĿ´ ë¥´ëĬĶ
Ġìĺ¬ ìĬ¤íĥĢ
Ġpresident ial
ĠMot or
ĠìĿ´íĽĦ ë¡ľ
ê°Ģ ìĹĲ
ĠìĬ¤ ì¹´
ĠëĦĺ ëĬĶ
is er
Ġcover age
Ġcy cle
Ġtra ined
com ing
ĠíĶ¼íķ´ ë¥¼
W orks
Ġt ail
ĠS ite
Ġë¬´ ëį¤
ĠMed icine
Ġíı¬ íķŃ
ĠDi ocese
Ġë¦¬ ì²ĺëĵľ
ĠìŀĳíĴĪ ìĿĦ
Ġì£¼ ëĳĶ
eng er
Ġb it
Ġë°° ì¶ľ
ĠTh ough
Ġover l
Ġdam aged
C ities
ĠH old
ĠV ik
Ġëĵľ ëŀĺê³¤
Ġê·¸ëŁ¬ íķľ
al ia
ë¦¬ ìļ°ìĬ¤
ìĺ¤ ìĿĺ
is ode
ĠAll iance
Ġë°© ìĤ¬
Ġë¶ĢìĤ° ê´ĳìĹŃìĭľ
Ġv ary
Ġì°¨ ìĿ´
â ĺ
Ġm ort
Ġfre edom
ĠìłĢ ìĪł
19 24
Ġì§Ģ ëĤ¸
ĠBrazil ian
íĺķ ìľ¼ë¡ľ
ĠCub a
f are
çĽ ¸
ĠR ef
Ġì¤ĳ ìĿ¸
ĠCo le
] ,
Ġê° Ķëĭ¤
M od
Ġê¸°ë¡Ŀ íķľ
ĠëĤ ¸
anc er
ë²ł ìĬ¤
Ġut il
Ġ {
Ġê°Ħ ëĭ¨
Ġm olec
ë²Ħ ëĵľ
ì £ł
Trans portation
Ġëħ¼ ë¬¸
ĠìĬ¹ ê°Ŀ
A pril
ĠìłĦ íĮĮ
ëłĪ ëĤĺ
ħ ìĬ¤
ol y
ëĶĶ ìĬ¤
Ġcirc um
Ġret ained
Ġpra ised
O D
Ġstand ing
ìĭľìķĦ ëĵľ
ĠCh and
ĠUt ah
) -
Ġob tain
Ġê°ķìĽĲ ëıĦ
íĬ¹ ì§ķ
Ġsqu adron
Ġì¤ĳ ìĿ´ëĭ¤
ìĺģ ìĿĺ
ĠíĺĦìŀ¬ ê¹Įì§Ģ
ĠL uther
ĠCar ter
Ġdistrib uted
ela ide
ë¡ł ìĿĺ
Ġëĭ¤ ì¼Ģ
Ġ8 2
Ġëªħ ìĿ´
ĠíĮĲ íĥĢì§Ģ
Ġë²ķ ì¹Ļ
ĠJo hann
Ġadv oc
J uly
Ġíķ «
ĠEx t
Ġì¶ľ ë²Ķ
ĠSp irit
Ġì½ ¤
19 22
Ġíķ´ ë¦¬
i able
ĠìĪĺìĥģ íĸĪëĭ¤
Ġ7 1
Ġun f
Ġm ac
ĠN ative
Ġstat ement
B el
ëĭ¤ ë©´
ĠMur ray
esc ription
Ġinstr uments
ir i
ĠìĿ´ ê¸°
us alem
ãģ ª
Ġëľ» íķľëĭ¤
Ġd owntown
ĠP ad
ĠC arm
ĠCh amber
ê³µ ìĹ°
ĠëĤ¨ ìĦľ
ê ¶¤
ĠC ass
E v
ĠS everal
oth y
ë²Īì§¸ ë¡ľ
ìĬ¤íİĺ ìĿ¸ìĿĺ
Ġì¢ħë¥ĺ ìĿĺ
Ġê¸° ëĮĢ
ĠCon vention
Ġcapt ure
ìķĦ íĭ°ìķĦ
Ã¶ r
Ġstar red
ĠìłĢ ìŀĳ
Ġlook ing
ĠìĿ´ ë¥¸
Ġsugg ests
Ġen l
ë³´ ë¥¼
y les
Ġt ick
im m
Ġë¬´ ê²Į
íĺģ ëªħ
Ġb ran
Ġê³³ ìĹĲìĦľ
ĠìķĦíĭ° ìĬ¤íĬ¸
ê¸° ìĹĲëĬĶ
Ġë³´ ìķĦ
K B
ro v
Ġì»¤ ë®¤ëĭĪ
b al
ĠìĦ± ëĬ¥
Ġë³´ ë³ĳ
Ġres idence
com mun
ĠS ign
Ġê¹Ģ íĥľ
Ġd uties
ĠìĿ´ìłĦ ìĿĺ
éĦ Ń
ĠP age
íĭ° ìĬ¤
Ġì²ł íķĻìŀĲ
h l
Ġë¶Ī ìķĪ
Ġíı¬íķ¨ íķĺìĹ¬
Ġstop ped
ĠF alls
ìĹ¬ ìĦ±
Ġa er
Ġch ose
ĠëĿ¼ìĿ´ ìĺ¨
ph one
Ġ 00
Ġì¹ľ ìĿ¼
op al
Ġdeg rees
ìĺģ ìĥģ
ĠBern ard
ĠV enezuel
ä¸ ĭ
Don ald
Ġd oll
ĠN on
oen ix
ìĹ°ìĨį ê·¹
Ġre ferences
ĠìĿ´ ë¤Ħ
Ġì¡° ë³Ħ
Ġcomm itted
ĠíĻĶ ê°Ģ
Ġcost s
Ġìĭł ë¢°
ĠUp on
Ġë°Ľ ëĬĶëĭ¤
íĥĢ ìĿĺ
ing en
Ġì²ľ ìĹ°
iv an
Ġë©Ķ ìĭľ
ĠD ays
Ġdesc end
Ġê¸°ìĹħ ìĿ¸
ic ate
Ġm ilit
ĠJ ose
Ġdid n
Ġterm inus
Ġdel ay
Ġc aught
ĠEn cyclop
he me
ĠFin land
Ġì¹´ ë©ĶëĿ¼
ĠAss oci
ĠEn ergy
ĠíĸĪ ìľ¼ë©°
Ġdiv or
ìģ ľ
Ġmet res
are st
ë¯¸ ë¥´
ĠCh art
Ġass umed
ĠìŀĲ ëĬĶ
ë©ĺ íĦ°ë¦¬
è¶ Ļ
N T
íĦ° ìĬ¤
ĠëķĮ ìĿĺ
ë²ł íĬ¸ëĤ¨
ìļ° ì£¼
Ġdis pl
Ġb iggest
ĠIn s
ì´Į ìĿ´
C y
ë ¿
Ġìŀ¥ ìĭĿ
íķĻ ë¶Ģ
íĻĶ íķľ
Ġë°Ķ ëĿ¼
ĠC ulture
Ġìĸ´ ìĽĮëĵľ
r ace
Ġatt ached
ë± Ģ
ĠC R
ìłľ ë¥´
ĠëĤĺ ìĿ´íĬ¸
ĠBir mingham
Ġb anks
ĠC hen
æľ ī
æ± Ł
ì§Ħ íĿ¥
Ĺ ëĤł
ac on
ìĤ° ë©´
Ġíİĺ ìĿ´ìĬ¤
ĠG ray
Ġdec ade
d in
ĠíĮĢ ìĿĦ
Î ½
forman ce
ĠíĦ° íĤ¤
Ġëª©íĳľ ë¡ľ
ĠE mer
arm a
ë¯¸ ëĬĶ
íļĮ ìĹĲ
Ġmed ieval
Europe an
ĠAnd y
Ġtri p
ĠF ull
Ġì¤ĳíĻĶ ë¯¼êµŃ
ĠVi enna
ì¡° ìĹĲ
p re
ëĦ¤ ëįľëŀĢëĵľ
æŀ Ĺ
ëģ Ħ
Ġappear ing
Ġì²ĺìĿĮ ìĹĲëĬĶ
u in
ĠW right
ĠM ond
ĠMu hammad
ĠF ight
ìļ° ìĹĲ
ĠHind u
Ġt ennis
ìłĦ íĪ¬
unn ing
ĠBor ough
Ġíĸī ìľĦ
Ġphot ograph
Ð ²
Ġë°ľíĳľ íķľ
Ġìĸ» ìĸ´
ë¦¬ ìķĪ
it ars
Ġdiffer ence
Ġte achers
Ġë°ĺ ëĵľìĭľ
Ġ189 3
Ġì¡´ìŀ¬ íķĺëĬĶ
ĠS ongs
n ers
ĠìĤ¬ ìļ°
eg as
am er
Ġì£¼ íĥĿ
Ġd ry
ĠìĹ° ê´Ģ
Ġnewsp apers
ĠëĮĢ ë¦¬
Ġì·¨ ìĨĮ
h ill
Ġ7 3
Ġìĥģ íķĺìĿ´
Ġinter ior
ĠAust rian
Ġunder t
Ġown ership
ri x
ant ine
Ġìķ µ
ìĽĶ ëĵľ
ĠTra ining
Ġì§Ģ ëĭĪ
Ġuns uccess
ĠOr leans
Ġìĵ° ìĿ¸ëĭ¤
ĠO S
Ġmon arch
h attan
ĠT HE
Ġch annels
Ġw ave
Ġsevent h
ĠìĪĺ ìĦĿ
Ġëŀ Ģ
ren a
ĠìĿ´ ëĭ¤
Ġ? )
Ġf ishing
íĤ ´
Ġlin ked
lo ad
Ġìŀĩ ëĬĶ
I G
Ġë ĺ
ĠN ag
ĠInd ians
ĠëĬ ¦
in ces
ë¦¬ ìĹĲìĦľ
Ġë³´ ê´Ģ
ĠL ad
R ed
ss on
ĠëĤĺíĥĢ ëĤ´ëĬĶ
Ġìĺģ ìŀħ
ĠGu y
Ġrepl acement
Ġsecond s
ĠëĤ¨ ìĿĢ
ĠëłĪ ìĿ¸
Ġpict ure
19 25
íģ °
ĠíĻĶ ìŀ¬
ë¹Ħ ìĹĲ
Ġë³´ ìĬ¤
ĠëĨĴ ìķĦ
Ġsound track
Ġëĭ¨ ìľĦ
Ġp itch
ì§Ģ ìłķ
ì½Ķ ìĬ¤
ors es
íĿ ĳ
çĻ ½
ĠIndones ia
ë° ¥
Ġë³´ ëĤ¸
ĠNH K
ìĨĮ ëħĢ
ì ¯
Ġch ance
Ġì§Ģ íĤ¤
Ġë°Ľ ìĿĦ
19 27
ìĺ¨ ìĿĺ
ĠNaz i
Ġb ed
Ġë§ŀ ìĿ´
Ġíĭ Ģ
Ġsignificant ly
ĠSar ah
ĠëĪĦ êµ¬
Ġf ly
Ġw ine
ë³´ íĺ¸
Ġë¶Ļ ìĹ¬
ĠN i
ĠíĽĦì¿ł ìĺ¤ì¹´
Ġgrad uate
ĠìĿ¸ ê¶Į
Ġë§¤ ìĿ¼
Ġinit i
ĠìĿ´ ì¦Ī
Ġus er
ĠëĮĢ ìĦ±
ìĦ¸ ëĮĢíķĻêµĲ
Ġê¹Ģ ëıĻ
íĪ¬ ìķĦ
Ġdis miss
íĬ¸ ë¦Ń
Ġì§Ģê¸Ī ìĿĺ
Ġexperi enced
ìŀ¥ ê´Ģ
ĠëĤ´ ìĿĺ
Ġê·¹ìŀ¥ íĮĲ
h and
Ġíģ Ĳ
ocr atic
Ġëľ» ìĿĦ
ot an
Ġpopular ity
ĠH as
Pro duction
ĠTig ers
ĠArab ic
äº Ķ
Ġass ault
Ġìĸ´ ëĶĶ
Ã© n
Ġdesign s
Ġì´Ŀ ëıħ
ĠS ultan
Ġ7 4
th a
ĠJ ason
ê³µ ëıĻ
ĠìĨĮ ë©¸
ìķ¼ ìĿĺ
Ġj ourney
ĠG ulf
Ġf est
ìĭľ ìĬ¤ì½Ķ
ĠìĿ´ ì¢ħ
ess ions
Ġê°ķ ìĿĺ
Ġsouth west
writ ers
ìłķ ê³¼
Ġë³¸ ê´ĢìĿĢ
Ġl it
íĨ ¡
ì¦Ī ëĬĶ
ìĥī ìĿĺ
Ġìĵ ¸
ĠSymph ony
l iving
ëĵ¤ ìĸ´
Ġchap ter
Ġextrem ely
Ġor chestra
Ġun us
ĠìĿ¸ ì¢ħ
ĠìĬ¤íİĺ ìĿ¸ìĿĺ
ëħĦ ëıĦ
ĠT rad
ĠëıĻ ìĽĲ
Ġì°¸ ì¡°
ĠG riff
ĠíŀĪë¡ľ ìĭľë§Ī
ĠGra ham
ĠE qu
Ġìĺ¤ ìĺ¤
Ġìĺ¤ë¥¸ ìª½
Ġspirit ual
ĠT ype
Ġrece ption
Ġpaint ings
ĠF el
ĠAfghan istan
Ġarr ival
Ġhost s
ĠìĭľëĤĺ ë¦¬ìĺ¤
ë¦¬ ê²Į
ĠìķĬìķĺ ê³ł
Ġp hen
Ġte x
ĠR y
Ġë¶Ħ ê¸°
iction ary
Ġt ack
ĠìĿ¼ë¶Ģ ëĬĶ
ìĦĿ ìĿĺ
íħĮ ìĿ´
ëĿ¼ìĿ´ ëįĶ
ĠB aker
Ġacc ur
Ġstr ing
ĠB M
ĠìĤ¬ê±´ ìĿ´
A ir
ĠM ult
ri el
Ġadapt ation
B us
ê±° ëŀĺ
m aster
ĠìĿ´ ìĪĺ
ĠìłĦìŁģ ìĿ´
Ġcar rying
Ġíı¬íķ¨ íķľëĭ¤
b ow
Ġs ed
ĠE C
ë¬´ ë¦¬
ĠìłľìĻ¸ íķĺê³ł
ĠColon el
íĺ¸ ì¿ł
i ors
íķľ ìĿĺ
ĠK r
Ġìłľ ëĮĢë¡ľ
Ġë§ĪìĿ´íģ¬ë¡ľ ìĨĮíĶĦíĬ¸
ìĤ° ìĿ´
ĠD og
ë¬¼ ìĿĢ
Ġweek ly
E m
ĠSt re
Ġe yes
Ġabs or
Ġexpress ion
ĠíķĺìĺĢ ê³ł
Ġthe ore
Ġadm itted
orks hire
Ġpl ate
ĠC ode
ĠH unt
19 26
Ġê³µ ì£¼
A g
Ġother wise
ĠëĤĺíĥĢ ëĤľëĭ¤
Ġf ired
le te
Ġprep ared
S eptember
Ġìĺ¤ ë¦¬ì§ĢëĦĲ
R o
ê·¸ ë¦¬ìĬ¤
ĠëĬĲ ëģ¼
Ġê ½
ë²ķ ìĿ´
Ġ189 2
Ġìľ ¨
Ġê³¼ íķĻìŀĲ
ê°ķ ìĽĲ
Ġ3 60
19 23
Ġc ous
Ġfe ed
ì¦ Ĳ
ĠìĨį íķľëĭ¤
ĠPict ures
Ġë§Ī ì¹ĺ
æ ®
Ġsuccess or
Ġd im
Ġper cussion
Ġmembers hip
Ġf alls
Ġdesign er
y ll
el lect
ĠëĬ¥ ëł¥
Ġíķľ ëĤĺëĿ¼
Ġìŀ¬ ìľĦ
Ġshe l
Ġfl o
en burg
ãģ ¨
ìĪ ¨
Ġìļ° ëł¤
ri p
Ġíı¬ íĬ¸
L E
Ġëī´ ì§Īëŀľëĵľ
ĠëĳĲ ìĹĪëĭ¤
Ġê²½ìļ° ëĬĶ
ĠMod el
ĠLegisl ative
ĠìĤ¬ íĥľ
ìĦł ê³¼
ĠëĤĺ ì¹ĺ
Ġë ´
Ġm ir
ul us
ĠíĶĦ ëĿ¼ìĿ´
ĠArch itect
ĠP rom
Ġ189 1
ĠíĻľëıĻ íĸĪëĭ¤
ĠU C
z h
Ġë¯¸ ìĬ¤íĦ°
ëĵ Ń
Ġë° ¥
ĠTro phy
Ġìłľ ìĿ¼
l og
Def unct
L ater
Ġê³µ ìĿĦ
ĠìĹŃìŀĦ íĸĪëĭ¤
19 21
ĠìĤ¬ ëĭ¨
ê°Ģ ë¯¸
ëĩ ¨
m at
Ġmed icine
íİĺ ìĿ´
Ġtrans ition
Ġ8 1
Ġìĸ¸ ìłľ
Ġëĵ± íĮĲ
amp s
íĨµ ìĿĦ
Ġc old
as i
ĠìĬ¤ ì¼Ģ
Ġê°ľë°ľ íķľ
ĠìĬ¤ íĬ¸ë¦¬
Ġ Âł
res ents
ĠM other
ĠëĮĢ ê¸°
ìłķ ìľ¼ë¡ľ
ìķĦ ì¹´
Ġíı¬ ëıĦ
Ġclass ified
Ġê³ł ìľł
Ġ7 00
Ġì°¨ ë³Ħ
ĠWay ne
ub le
Ġì°¸ê°Ģ íķľ
Ġfr ag
F ictional
ĠíķľêµŃ ìĸ´
Ġd ating
Ġb atter
êµĲ ë¥¼
íĽĦ ì¿ł
ak u
Ġë°ľê²¬ ëĲľ
O ctober
ìĿ¸ ì¡°
as hed
ì² ¸
ĠV el
ì¡° íĮĲ
for ce
Ġ7 9
ì´Ŀ ëıħ
Ġíļ¨ ìľ¨
ĠëıĻ ìĦ±
Ġë°© ìłķ
ĠS H
ìĿ´ ëĭĿ
ê°Ģ ëĿ½
Ġì°½ ëĭ¨
Ġin sc
ĠTh ailand
G o
il st
m osp
Ġth ick
ĠE ss
Ġì£¼ ê°Ħ
Ġë°Ķ ëĳĳ
íķĺ ë£¨
ĠAl t
Ġsec retary
Ġoffer ing
Ġëªħ ëĭ¨
Ġì¶ľìĭł ìľ¼ë¡ľ
ĠëĮĢ ëŀµ
ĠìĿ¼ ì¹ĺ
Ġpublic ations
Ġê³µ ìĽĲ
ìĬĪ íį¼
Ġdi agn
ĠìĥĿ ìķł
ĠJer usalem
ĠìĦłìĪĺ ê°Ģ
St ate
n ew
o ard
ĠPh ot
M al
Ġê²½ê¸° ëĬĶ
Ġdif ferences
ëŀĢëĵľ ìĿĺ
Ġê°Ī ëĿ¼
Ġíıīê°Ģ ë¥¼
ĠO t
ĠìķĦ ëĵ¤ìĿ´
ĠìķĬ ìľ¼ë©°
ĠìĿ¼ë¶Ģ ë¥¼
Ġlegisl ation
Ġconstitu ency
Ġì§Ħ ì£¼
ì² «
Ġa head
íı¬ ë¡ľ
íİĻ íĬ¸
K BO
s m
Ġent ering
å® ĺ
ĠJ azz
ab led
iss ue
ĠĠĠĠ ĠĠĠ
Ġceleb rated
is b
ĠëıĮìķĦ ê°Ģ
ĠUn it
ë°© ìĿĺ
Ġstre ets
ra ham
ìĨĮ ìĨį
Ġcont ext
ç Ī
ĠìĿ´ ì¹ĺ
íĬ¹ ìĪĺ
ĠTe le
ĠAg ric
ĠíĴĭ ë³¼
Ġì±Ħ ìļ©
Ġìŀ¡ ìķĦ
Ġcontrib utions
ĠSerb ia
íĭ° ìĺ¤
or ial
ot ype
ĠT ob
ëĭĪ ìĬ¤íĥĦ
Ġrestaur ant
Ġdra wn
ĠìĿ´ ì§Ģ
Ġfilm ed
Ġì½Ķ ëĦĪ
ĠK BO
ìĬ¤íĭ° ë²Į
Ġcap able
Ġë© ĺ
Ġì½ĺ ìĬ¤íĥĦ
ë£Į ë¡ľ
ìłĪ íķľ
or st
Ġë§Ī íĭ´
ì½ §
Ġê¸¸ ìĿ´ëĬĶ
Ġp arent
ĠM all
ìĿ¸ ê°Ħ
ë¹ ħ
at ur
Ġê·¸ ìĻĢ
ĠëĤĺ ìĻĶëĭ¤
O per
ĠìĦł ë³´
Ġsc heme
Ġì¢ ģ
Ġpo em
Ġassist ance
ĠCarl os
ĠíıĲ ìĩĦ
ëĳ¥ ìĿ´
ĠHung arian
Ġpl us
ãĢī (
Ġ188 8
ìľ¼ ëĭĪ
pp ing
ìĹŃ ìĹĲìĦľ
ë®¤ ì§ģ
ĠL ower
Ġpubl ishing
ëĲĺìĹĪ ìĿĦ
Ġcollabor ation
ìłľ ìĻĢ
Ġar c
Ġg ene
ĠìĿĮë°ĺ ìĿĢ
Ġmag azines
å Ĥ
äº Į
Ġl ov
Ġmount ains
Ġst ages
Ġê·¸ ëĵ¤ìĿ´
Ġexec uted
ibb ean
ìĹĲ ë¥¸
Ġoff ensive
Ġë§Īì§Ģë§ī ìľ¼ë¡ľ
Ġch air
Ġrest rict
Ġprot ected
ĠHung ary
M e
ĠM aj
ĠClass ic
ĠS hip
ê²Ģì°° ì²Ń
ĠëįĶ ë¸Ķ
Ġâ Ī
å¿ ĥ
Ġìĸ´ëĸ ł
X Ã£
å ĩ
Ġdeliver ed
Ġapp ropri
Ġìĭ¬ ë¦¬
ĠíĸĪ ëįĺ
âĢ ¢
ë§Ī ëĭĪìķĦ
æ ¢
Ġv eget
Ġexpl os
Ġ ign
Ġin stitution
Ġc ited
Ġë¡ľ ì¼ĵ
ĠAd elaide
Ġ11 0
Ġê³Ħ ê¸°ë¡ľ
Ġë°ĺ ë°ľ
ĠNov a
Ġaud io
Ġrequire ments
st ances
ĠìĿ´ íĺ¼
Ġcandid ates
ëĭ¤ ë¦¬
Ġland ing
d ers
ãģ Ĺ
ĠN et
ìĬ¤ ì»µ
id ay
St ud
Q ue
Ġ188 4
L ive
ĠHe b
Ġë°ľíĳľ íķĺìĺĢëĭ¤
Med al
ĠSl ov
Ġin fl
Ġse gment
Ġfin als
íĻĶ ëĲĺìĸ´
f iction
ĠìķĪ ëıĻ
ìľ¼ë¡ľìĦľ ìĿĺ
ĠK on
ĠU nd
ë¹Ħ íĬ¸
êµ° ìĤ¬
ĠìķĦìĤ¬ íŀĪ
ç¶ ĵ
Ã «
Ġin her
è¨ ĺ
Ġ15 00
inc inn
Ġê°Ģ ìĬ¤
ç ¯
ĠS M
ĠMay or
Ġjust ice
Ġì¶ľìĭľ ëĲĺìĹĪëĭ¤
iv ated
Ġparticip ate
ê¸° ê¹Įì§Ģ
Ġcommun ication
Ġìĵ° ëĬĶ
Ġêº ¾
Ġmed ium
ĠëģĿ ëĤľ
ê³¡ ë¦¬
Ġshoot ing
Ġa ware
ch ang
ĠDr agon
Ġprot est
re leased
æĸ ¹
re hens
ĠL ud
Ġinv ent
Ġì§Ģë°© ìĿĺ
Ġaccompan ied
d oor
ĠOrgan ization
I R
ëĶ ķ
st ad
Ġcover ing
Ġë¹¼ ìķĹ
ìĽĮ ì¦Ī
æĺ Į
ĠH unter
ìĤ° ëıĻ
ĠM eg
ìķĦ ëĤĺ
ĠIn vest
Ġt all
ĠRoman ia
ĠN eg
Ġag o
Ġì¶Ķ ì²ľ
ĠíĶĦë¡ľê·¸ëŀ¨ ìĿĦ
ìķĪ êµ°
orn e
Ġrequ ires
ĠPri x
Ġst ood
ĠSev en
Ġd ub
Ġinf rastructure
Ġpr ime
Ġs elling
Ġê°Ģ ìĦľ
N or
Ġìŀ¬ ê±´
m ont
ĠR est
ëħ¸ ë¯¸ìķ¼
Ġcoach ing
ì§Ħ ìĿ´
Ġsever e
Ġenc ounter
Disc ography
att ers
ĠAn na
Ġper haps
ç¾ ħ
Am endment
Ġíı¬ ìľĦ
Ġê°ķ ëĤ¨
ĠConf eder
Ġg rant
Ġê°ĸ ëĬĶ
Ġqual ified
a ired
Ġpre ced
ĠMarsh all
b ody
Ġpr on
Ġrep resents
ĠH ud
ë© ķìĭľì½Ķ
ç ¿
ĠL aur
app ing
Ġê¹Ģ ìĿ¼
Wh at
f inals
ê³ł ìĨį
ĠAd ams
Ġìį¼ ëĭ¤
ë°Ķ ìĿĺ
Ġhead ed
Ġarran ged
incinn ati
Ġal co
Ġì§Ħ ìķķ
ĠíĺĦ ìĥģ
ì¸µ ìĿĺ
ak ia
e enth
ĠS aints
íķ´ êµ°
ict ions
å¾ Į
ryst al
ĠG et
Ġcoast al
ĠR ud
ast s
Ġus ers
Ġíĸ¥ íķ´
ĠìĿĺ ìĭĿ
ĠThe ater
ìĸĳ êµ°
udd en
íĻĶ ëĲĺìĹĪëĭ¤
Ġì£¼ ëĭĪìĸ´
ĠìĿ¼ ìĭľ
Ġmanufact uring
ĠF itz
Ġë¶Ģ ë¥´ëĬĶ
ĠY orkshire
Ġêµ¬ íĺĦ
è¡ Ĺ
Ġìĥģëĭ¹ íķľ
Ġìľł ê¸°
ëĭ¨ ì§Ģ
ì£¼ìĿĺ ë¥¼
Ġsup posed
ĠíħĮ ìĬ¤íĬ¸
ĠìĿ´ ìĺģ
è ¾
ĠH um
ìķł ëĭĪ
Ġs now
ë¹Ħ íĸī
id o
íļĮ ìĹĲìĦľ
er i
å¿ ł
ĠProt est
Ġìŀ ī
ir ation
ĠìĦ± ëĤ¨
Ġlearn ed
G C
Ġ8 9
ĠLim ited
ê¶ Ĳ
ĠD ub
ĠëĤĺíĥĢ ëĤ¸ëĭ¤
Ġìĭľìŀĳ ìľ¼ë¡ľ
Ġres ign
Ġê·¸ëŀĺ íĶ½
Ġen h
it is
am ents
Ġê°Ģ ì¹ĺ
ov o
Ġren ew
ìłľìŀĳ ì§Ħ
Ġë§Ī ìĬ¤íĦ°
ĠW restling
Ġtechn ique
È Ļ
Ġan ch
æ° ĳ
Ġmin ing
Ġìĺ¤ íİĺëĿ¼
ĠìŀĳíĴĪ ìĿ´ëĭ¤
ĠOn line
ê°ģ íĺķ
h um
ik o
Ġv irus
ë£ °
ê·¸ ë¦¬ê³ł
ĠìĻķ êµŃìĿĺ
Ġaccom pl
ĠWW E
T ax
S K
ĠB eck
Ġëıħ íĬ¹
oph one
ĠC art
ì¹´ ë¯¸
ĠìķĦë¥´íĹ¨íĭ° ëĤĺ
Ġplan et
Ġwe ak
R ock
ĠM ack
apt ist
Ġìĭľìŀĳ íķĺìĹ¬
ëĿ¼ìĿ´ íĬ¸
åĸ Ħ
Ġì²´ ì½Ķ
ĠìķĦë¦Ħ ëĭ¤ìļ´
êµŃ ìŀ¥
M usical
ran ean
ĠëĤĺ ìĿĺ
ê¸Ī ìĿĺ
íİ¸ ìĦ±
S o
Ã¨ re
æ¼ ¢
M et
íĤ¤ íį¼
ĠI ce
Ġw ounded
íĥĢ ëĤĺ
Ġdeterm ine
Ġf ixed
ĠO range
Ġsub d
19 10
ish ment
Ġhousehold s
ĠëĤĺ ê³ł
ìĹ° íŀĪ
ìĬ¤íİĺ ìĿ¸
é ¤
ĠìĿ´ ë²¤
íĶĮ ë¡ľ
Ġpri ze
ĠëĤĺìĺ¨ ëĭ¤
ê² ¸
ëĵľ ìĻĢ
ĠìŀĪ ìĿĮìĿĦ
Ġê±´ ëĭ´
âĪ Ĵ
ĠDer by
ìĹ ĳ
Ï Ħ
ëĭ¤ ìĿĺ
Ġì§Ħ ë³´
Ġíķ´ëĭ¹ íķľëĭ¤
ìĦ¼ íĬ¸
Ġdem and
æħ ¶
ĠíĴį ë¶Ģ
Ġë¬´ ìĭľ
Ġë°Ľ ê²Į
Ġkil omet
Ġìłĳ ì´ī
Ġrel ative
ĠMad rid
å³ ¶
Ġn aval
ìĦĿ ìĿĢ
ãģ ĭ
Ġê°ľ ìĽĲ
Ġcol our
Ġkey boards
íĭ° ëħ¸
Ġìŀ¥ ë¹Ħ
ë¥´ ê°Ģ
ĠâĢ »
z z
ro duction
ìłĦ ìĤ¬
Dec ember
Ġs un
Ġl iqu
ag s
ach t
Ġrepl acing
Ġl ap
Ġì¤ĳ ë¶Ģ
ìĿ´ ìļ©
Ġf iled
Ġm anga
Ġìŀ¥ ìĨĮ
Ġêµ° ëĮĢë¥¼
ĠL ate
ëĵ± ê¸ī
Ġdest r
Ġë¹Ħ ë¡Ŀ
ĠëĶĶ ë¹Ħìĭľ
ĠìłĲ ìłĲ
ĠPer u
ìĹ¬ìŀĲ ê³łëĵ±íķĻêµĲ
Ġìĭł íĻĶ
ebr aska
. ),
ëĮĢ ë¬¸
Ġìĭľ ìĹĲ
ë°° ê²½
ĠApp le
ê°ľ ë¡ľ
ë°© íĸ¥
Ġnot e
L S
Ġí Ī
ĠìŀĦ ëĮĢ
in ate
ĠC ensus
Ġì¶ ¤
aj a
èģ ĸ
L ove
Ġcritic ized
ĠBang l
Ġê¸Ī ë©Ķëĭ¬ë¦¬ìĬ¤íĬ¸
ĠìķĮëł¤ ì¡Įëĭ¤
Ġspe ak
ìĤ¼ ê±°ë¦¬
Ġë¹Ħ ìĥģ
Ġpeak ed
ĠìĦ¸ê³Ħ ìĿĺ
ĠìłķíĻķ íķľ
om p
Ġì§Ģ ì¼ľ
Ġë°ľ ëªħ
ĠìĪľ ê°Ħ
eop les
Ġpar ks
Ġdisestab lished
Ġê²ĥ ìĿ´ë©°
iel der
ĠìĿ´ê²ĥ ìĿĦ
êµŃ ìĹĲìĦľ
ì»¤ ìĬ¤
Ġexcept ion
ĠS id
ìĻķ ìĿ´
ĠíĦ° ë¯¸ëĦĲ
Ġindic ate
ĠN E
Ġsk in
ĠCam er
S econd
Ġíķĺ ìļ°ìĬ¤
C H
Ġso il
ë°ľ ìłĦ
ĠArmen ian
Ġb on
ì§Ģ ìĿ¸
ang erous
ëĭ¤ ìĭľ
ĠY ank
ì¢ħ ìĿĦ
ĠìĿ´ ëĵ¤ìĿĺ
Ġëĭ¤ ìĪĺìĿĺ
Ġë¯¸ ëĤĺ
Ġë¶Ħ ëħ¸
Ġë¯¸ ëĤĺë¯¸
ĠS occer
ìĸ´ ë²Ħ
ĠëĮĢë¶Ģë¶Ħ ìĿĢ
h us
st ery
Ġê°Ģ ê²Į
ĠCh ron
ãģ Ł
Ġìĭľì¦Į ìĹĲ
Ġlic ense
ĠìĹĲëĵľ ìĽĮëĵľ
Ġëı ķ
ë²ł ë¥´íĬ¸
ĠìĤ° ë§¥
Ġpenal ty
Ġë¯¸ êµ°
m und
ê¸° êµ¬
Ġregist ered
un es
Ġê°Ģ ìĿ´
t ure
19 00
U p
ĠH IV
ĠìĤ¬ ëĥ¥
Ġan ime
Ġê°ľ ë§ī
av an
ëª¨ ëĵł
é¦ ¬
ĠG iants
ul um
ater n
ass ador
Ġpol y
ìĻķ íĽĦ
Ġìĭľ ëĵľ
Ġj unction
Ġíİĺ ìĿ´
íħĲ ëıĦ
Ġrough ly
rib ed
ëĦĪ ë¨¼íĬ¸
Ġc atch
Ġëħ¼ëŀĢ ìĿ´
Ġhor ror
çĲ Ĩ
v ision
ĠìĿ¸ ì§Ģ
osaur us
ĠDr ive
ë¥´ ëħ¸
ĠìĦ¸ ëł¥
ãĥ ª
ë°© ìĿĦ
ê³¡ ìĿĦ
Ġs uff
íķĺ ìļ°ìĬ¤
ìĦľ ìĸĳ
Ġì§Ģ ìĸ´
Ġëªħ íĻķ
Ġì²Ń ëĤĺëĿ¼
ĠìĹ°êµ¬ ë¥¼
ĠRob in
ĠF ab
ìĪĺ íķľ
ĠMan hattan
Ġtem porary
Ġscient ists
êµŃ ëĮĢíķĻêµĲ
Ġê¹Ģ ë¯¼
Ġìĭ¤ ì§Ī
ë²Ķ ìľĦ
e ed
ìĥģ íĥľ
l ock
Ġtest ing
Ġf illed
ĠStud io
Ġre un
ĠF rid
ì´Ŀ ë¦¬
ĠSystem s
Ġ9 7
Ġìĥ¤ ë¥¼
Cl ass
íĦ° ë¥¼
Ġìĭł íķĻ
w inning
enc ing
Ġê°Ĳ ìĤ¬
ëłĪìĿ´ íģ¬
æĿ ¾
Ġeven ing
ìŀ İ
ìĻĢ ìĿ´
Ġíķ ĳ
P ost
Ġëı ¼
Ġco ordin
ourn ament
Ġreg iment
Ġìĭľ ì¹´ê³ł
ip er
Ġauth ors
ur ers
ìŀ¬ ë¥¼
Ġfl ows
Ġcred its
f olk
ĠT ak
ĠìŀĳìĹħ ìĿĦ
ĠìĨĮë¹Ħ ìĹĲíĬ¸
I m
Ġexist ed
m ate
D an
ìĹĪëĭ¤ ê³ł
Ġê¸ į
Ġíħ Ĳ
ëĵľë¡ľ ìĿ´ëĵľ
op es
Ġpract ices
ĠT ol
Ġ9 2
Ġìļ´ëıĻ ìĿĦ
p m
ê¸° ëĬ¥
Ġê³ł ìĭľ
ĠA ld
Ġìĭł ì²´
ens on
ĠCommun ist
Ġde leg
Ġê±° ì§ĵ
ĠB enn
ä½ ľ
L G
Ġê°ľ ì¡°
Ġíķ´ ìĹĲ
Ġê°Ģ ì¡Įëĭ¤
Ġpl ane
Ġmod ified
Ġasp ects
ê·¸ ëłĪ
åħ ¨
ĠAbb ey
l ater
Ġh ang
ê³ł ê°Ģ
Ġdev ices
ê³Ħ ê°Ģ
Ġconcern s
Ġo ption
ĠíĮĮ ìķħ
Ġì£¼ ìµľ
ĠíĹĿê°Ģ ë¦¬
Ġ rif
19 17
ìĹ° ê¸°
Ġë¬¸ìłľ ë¡ľ
Ġ0 9
is ition
Ġbe ach
ì¡ ¸
å® ļ
Ġëħ¸ ì¶ľ
ĠMe an
Ġplatform s
Ġev olution
ê²łëĭ¤ ëĬĶ
ĠB urg
P a
Ġsurround ed
le an
C ap
al se
ĠP S
ir k
ĠìĿ´íĽĦ ìĿĺ
Ġsub jects
Ġf ile
ìĿ´ ë¯Ģë¡ľ
ĠìĹŃìĤ¬ ìłģ
Ġìĭľ ìłķ
ĠN ep
ëªħ ê³¼
Ġë°Ľìķĺ ê³ł
ĠN ation
Ġr ide
Ġê°ģê°ģ ìĿĺ
claim ed
è ±
ĠA y
Ġ9 3
ark ed
ìº Ķ
ĠëĮĢíĨµëł¹ ìĿ´
Ġthous ands
íķĺ ìľĦ
Ġê¸°ë¡Ŀ íķĺìĺĢëĭ¤
Ġì²ľ ìķĪ
ĠK an
ìĭ¤ ìĿĺ
Ġvide os
w ig
Ġbusiness man
ĠëĮĦ ìĬ¤
Ġì¤ĳ ìĦ¸
Th omas
íĥĢ ìŀĦ
íİĺ ìĿ´ìĬ¤
ĠíķĺëĤĺ ìĿ¸
Ġstay ed
Ġê¸° ìĽĲ
Ġíģ¬ ë£¨
ĠìĨį ìĿĺ
Ġëħ¹ ìĥī
ĠSecond ary
ĠìĹ¬ ëıĻìĥĿ
ëĶĶ ìĽĢ
il arly
ĠL ock
Ġìĭľ ìľĦ
ĠG un
ë¬¸ ìłľ
Ġìłľê³µ íķĺëĬĶ
Ġoccup ation
ĠëĬĺ ìĸ´
ĠCons ervative
ath y
ìĦ¤ ìĿĦ
ĠëĤĺìĿ´ ë¡ľ
Ġs ort
ĠR ena
M art
íĨ °
k now
Ġmiss ions
ëŁ ¿
ĠDak ota
Ġìĸ´ëĸł íķľ
Ġunder standing
Ġìĭ¬ ìĤ¬
Ġìĵ° ê³ł
c ia
Ġìľł íĸī
Ġìĥģ ìľĦ
Ġì½Ķ ë¥´
Ġcr ash
ĠV iew
ĠëıĦ ìĻĢ
ĠíķĻ ë¬¸
ìŀĲ ìĹ°
Ġrun ner
v an
Ã ¦
ab ilities
ĠSte el
ĠCharl ie
Ġfrequ ency
ĠStand ard
C urrent
Ġìłķ ë¹Ħ
Ġë¡ľìĬ¤ ìķ¤ìł¤ëłĪìĬ¤
Ļ íķ©
em ale
Ġpro hib
Ġr ating
ĠëĲĺ ìŀĲ
mer ce
is ch
Ġmain tenance
Ġinst ance
Ġspok en
ct ic
T op
Ġs oul
ro ph
ì²ĺ ìĬ¤
ĠMic hel
Ġv ic
ĠìĽ ĥ
Ġìĭľìŀĳ íķľëĭ¤
Ġprocess es
ĠElect ric
ĠëıĻ íķ´
Ġë© °
ì£¼ìĿĺ ìĿĺ
Ġëľ ¨
ens es
Ġë§Ĳ ìĿ´ëĭ¤
Ġrespons ibility
Ġíĺ¼ íķ©
êµ¬ ë¯¸
Ġdem olished
or o
Ġam ateur
ĠìĬ¤ íĮĮ
ĠMit chell
Ġagric ulture
Ġë¬´ ëĮĢ
Ġelev ation
Ġh a
ìĭľ íĥĢ
Ġë² ¼
Ġë¦¬ ë²Ħ
Ġë³Ģ íĺķ
Ġcomp onents
Ġsign if
Ġdisc ip
h aw
Ġsh ut
ĠìŀĦ ì§Ħ
Ġs leep
ëĭĪ ìĬ¤íĬ¸
ĠGo ogle
Ġbroadcast ing
s a
ud es
Ġwhe el
Ġbran ches
ann er
Ġê²½ìļ° ìĹĲ
Ġadd ing
ic on
ĠM ig
ĠëĮĢ ìĤ¬ê´Ģ
Ġë§¤ ëĭĪ
íģ´ ë¦°
Ġë¸Ķ ë¡ľê·¸
ument al
åį ģ
Sp anish
ìĹĲìĦľ ë§Į
ĠPl ant
Ġre nd
ĠìĤ¬ìļ© ìŀĲ
ĠíĻĶ ìĤ°
u ber
ìĿ¼ ìĬ¤
Ġman ner
Ġterrit ories
ĠNev ada
Jan uary
r ating
Ġ eth
Ġquest ions
ĠíĽĦ ìĽĲ
ìĪĺ ëıĦ
ë² ¡
Ð¸ Ð¹
ĠD oc
Ġíķ´ ìĥģ
ĠíĽĪ ìŀ¥
ì¦ ī
Ġê·¸ ëłĩê²Į
uk a
ĠM D
ĠìĿ´ìĤ¬ ìŀ¥
ĠìľĦì¹ĺ íķľëĭ¤
og a
ĠìĿ¼ë¶Ģ ê°Ģ
ĠTrans port
ìĿ´ ìĭľ
ĠH ig
ê³µ ì£¼
ĠìĨį íķľ
ar us
Ġë¶Ħ ìľĦ
ĠìĦłê±° ìĹĲìĦľ
R et
ĠE U
ĠS ay
íĮ¨ ë¥¼
pro fit
ĠB ranch
ìĹ ł
Ġwithd raw
ĠìŀĲ ê·¹
ĠìĽ ħ
Ġë°ľ êµ´
Ġëı Ķ
Ġë¬ ¶
Polit ical
ĠìĿ¸ ìłĳ
ĠëĮĢíķĻêµĲ ìĹĲìĦľ
ĠìĿ´ ìĶ¨
ĠZ one
Ġshe ll
Ġche ck
ëŁŃ ìĭľ
íĥ ±
Ġíķĺ ìľĦ
erb ai
Ġìľł íķľ
rib ution
ĠíĻĶ ìĦ±
Ġë°ľê²¬ ëĲľëĭ¤
ĠMov ement
ra it
ĠB ud
Ġoccasion ally
ìĹŃ ìĿĺ
ĠY e
ĠíĬ¸ ìľĦ
K ing
Ġrec re
Ġë°ľìĥĿ íķĺëĬĶ
ĠìĽ¨ ìĿ´
Ġsomew hat
ĠEx per
ĠìķĬ ê²Į
u art
ĠMar ie
ĠSt age
ĠA er
Ġl ists
ìŀĳ ìłĦ
Ġstri p
Ġh ttps
ĠìĨĮ ìĨ¡
ĠìłĢ ìĦľ
ĠìłĦìŁģ ìĿĺ
ĠD S
ĠìºĲëĤĺëĭ¤ ìĿĺ
Ġì§ķ ìĹŃ
ĠSt orm
ĠìĤ¬ìļ© ëĲĺê³ł
Ã¼ n
Ġê´Ģëł¨ ìĿ´
ĠFre edom
Ġentertain ment
Ġc risis
ëªħ ìĹĲ
oll o
ìĹŃ ìĿĢ
Ġê²° ë°©
l ar
Ġf ear
ëŁ¼ ë¹ĦìķĦ
Ġens ure
å Ģ
Ġ188 7
êµ¬ ë¦¬
oc c
ican ce
ĠìĺĪ ìĪĺ
ament al
ĠìĤ¬ëŀĳ ìĿĦ
Ġc up
ĠíĶĦë¡ľê·¸ëŀ¨ ìĿ´ëĭ¤
us ing
ĠìĤ¬ë§Ŀ íķľ
Ġë¹ħ íĨł
ç ĩ
ĠCap ital
J os
ìĽĲ êµ°
ìħ ĭ
ĠìĿ´ë£¨ìĸ´ ì¡Įëĭ¤
Ġm emorial
iv ation
Ġinc orpor
ĠìĹĨëĭ¤ ëĬĶ
ĠT erry
ë¯¸ ëĤĺ
å® ®
ĠëĳĺëŁ¬ ìĭ¸
' ve
Ġsan ct
st ers
Ġëĭ «
Ġven ue
ĠíĺĪ ìķ¡
ĠE BS
ë¶ĢíĦ° ëĬĶ
æ ĩ
Ġmed als
ìĻľ ëŀĢ
Ġìŀ İ
ìĸ´ ë¦°
ĠìĤ¬ ìłĦ
Ġê°Ģ ì§Ħëĭ¤
Ġëľ» íķĺëĬĶ
Ġdefeat ing
ress es
ë³´ íĹĺ
ĠíĻĶ ìŀ¥
Ġinj uries
ë¶Ģ ìĤ¬
Ġbe ar
is p
ĠêµĲìľ¡ ìĿĦ
ëħ¸ ë¥´
Ġjud ges
ë ¼Ī
ĠM aced
ri or
ot al
Ġë°Ķ ê¿
ows ki
ë® ¬
íĨł ë¯¸
Ġë§Ĳ ìĹĲ
Ġsur re
Ġcrow d
Ġ8 4
ĠìķĦ ëıĻ
ë³ĳ ìĿĦ
Ã¡ s
Ġste am
ĠCat hedral
Ġstr uck
Ġs olution
ìĭľ ë¯¼
íĮĲ ìĿ´
Ġcontrovers y
ĠìķĦìĿ´ ëĶĶ
Ġì²Ń ì£¼
ĠíĬ¸ ëłĪìĿ´
Ġbound ary
ĠI P
ĠF isher
um i
ìľ Ļ
æľ ¨
ĠS che
ĠK ap
ĠíĬ¹ ìĿ´
duc er
ĠB ureau
ĠCont in
ĠâĢ ł
Ġë§¡ ìķĦ
ĠRich mond
Ġher itage
ĠëĿ¼ìĿ´ íĶĦ
Ġê¹Ģ ìĶ¨
Ġportray ed
or ous
" ;
ĠR av
ĠN ad
Ġìŀ¬ ë°°
ìĿ´ ìĦ¼
ëĤ´ ìļ©
ina e
Ġt ied
ĠM TV
Ġì²´ ìłľ
J ust
Ġm ental
ĠìŀħíķĻ ìĭĿ
Ġë§Į ì£¼
Ġìłķì±ħ ìĿĦ
ĠíķĻ ìľĦë¥¼
ro ck
ĠC old
ĠìĿ´ë¦Ħ ìĿĺ
ĠíĸīëıĻ ìĿĦ
gar ia
Ġt ask
ig ion
ĠArk ansas
Ġê°Ģ ìĬ´
ĠìĹ´ ëł¸ëĭ¤
ĠHol land
íļĮ ëĬĶ
Ġê°Ĳëıħ ìĿĦ
Ġì¡°ìĦł ìĿĺ
ew ork
Ġëį §
ìĽĶ íĺ¸
ĠSo ft
Ġ187 1
. :
ĠìĦ± ê²½
ë¦Ħ ìĿĦ
Ġform ally
Ġlong est
Ġê´Ģê³Ħ ê°Ģ
ĠìĹ°ì£¼ ìŀĲ
Ġê³¨ íĤ¤íį¼
Ġinter ested
ĠKe ith
Ġpolic ies
Ġsome one
Į íĹ¨
Ġorgan isation
å¼ µ
ĠëĲĺ ë©°
ĠìĹĨ ìľ¼ë©°
ê¹ Ķ
ë°Ķ ìĭľ
inc orporated
Ġmov ements
Ġ18 0
íĳľ ë¥¼
Ġrele ases
Ġmod e
B et
Ġb iography
ìĿ¼ ê³¼
ìŀĲ ìĽĲ
Ġr ates
ounc ed
ĠVerm ont
ĠP ant
íķĺìĺĢ ì§Ģë§Į
ĠëĨį ë¯¼
ëĭ¹ ê³¼
ef ul
ĠGu inea
å¸ Ĥ
Ġd aughters
ëĭĪ ê°Ģ
Ġvis itors
Ġìĭľë¦¬ì¦Ī ìĿĺ
Ġê³µ ìĹħ
íķ´ ê°Ģ
Ġíĺķíĥľ ë¥¼
Ġd rop
ac re
Ġë°ĺ ëĮĢë¡ľ
ont in
ãĢį (
at ically
Ġìłľìŀĳ íķľ
Ġ188 6
ĠBuff alo
nt il
act ions
Ġexped ition
> ,
ĠP ra
Ġpo ets
al ph
Ġc ool
ĠíĶĦë¡ľ íĨł
ĳ ¤
ìľł ëĮĢ
ìĿ´ìĹĪ ì§Ģë§Į
åı ¤
or p
as p
Ġë°ľê²¬ ëĲĺìĹĪëĭ¤
Ġchall enge
M B
ip per
as m
ĠL arry
ĠìĦľ ìĸĳ
Ġ8 7
Ġíģ¬ ê¸°
ĠìĭĿ íĴĪ
Ġgr ass
Ġperson ality
ãĥ Ī
Ġcred it
Ġbatt les
ĠìĦ¸ë¥´ ë¹ĦìķĦ
ìķł ëĭĪë©ĶìĿ´ìħĺ
ut ers
ĠN am
Ġim ag
ãĥ ĥ
ì´Ī ê¸°
ĠíĻķ ë¥ł
ê³ł ëĬĶ
íĸī ìĦ±
ĠìĿĺ íķĻ
ĠëĤ´ ìħĶëĦĲ
ç¾ İ
ĠìĦł ë°ķ
Ġ8 6
Ġmess age
ĠR io
ĠìķĦ ìķ¼
æ ¿
Ġbir d
( ),
ĠAl aska
T om
ĠLG BT
ĠBr istol
íĽĪ ëł¨
our g
Ġschol ar
ĠìŀĳíĴĪ ìĿĢ
Ġart illery
ĠE sp
m ates
ĠíĺĲìĿĺ ë¡ľ
ug s
Ġíģ´ ëĿ¼
Ġcomm emor
ìĬ¨ ìĿĺ
ĠBy z
Ġph r
Ġcritic ism
ĠC A
Ġpit cher
Ġf oss
Ġìĭľ ë¦¬ìķĦ
ĠMuslim s
R adio
ĠB ey
è ĥ
Ġê²½ìłľ ìłģ
ĠComp uter
ì¡° ì§Ģ
ìĬ¤ ìĽ¨ëį´
ê³¼ ê±°
ar at
ìĹ¬ ê°Ŀ
íĮ ¡
en eg
ìĹĲ ìĦł
ĠCh ang
Ġë¯¸ ìĵ°
ĠS ide
Af ric
is ations
ìĭľíĤ¤ ê¸°
ĠíĻĭ ì¹´ìĿ´ëıĦ
Ġm obile
ç Ńī
Ġê¸Ģ ìĿĦ
Ġë¬´ ìĤ¬
Ġë³´ìľł íķĺê³ł
Ġëª¨ ìĹ¬
Ġjurisd iction
ĠP ack
Ġvict ims
L ou
Ġ8 3
Ġë§Ĳ ìķĺëĭ¤
ĠìľłìĿ¼ íķĺê²Į
ç ·
ĠìĪĺ íķĻìŀĲ
ĠíĽ Į
ĠìĤ¬ëŀĮ ëĵ¤ìĿĺ
ìĬ¤ì¼Ģ ìĿ´
ê³Ħ ìĹĲìĦľ
ĠíĮĮ íģ¬
ĠëĶĶ ìĬ¤
Ġìĭľ ìĿĺ
ĠMunicip ality
ĠProfess ional
Jew ish
ĠL iving
Ġë¶Ħ ìĹ´
Ġìłķì¹ĺìĿ¸ ìĿ´ëĭ¤
ĠìļĶì½Ķ íķĺë§Ī
Ġt ell
Ġmov es
Char les
S W
Ġìĭ± ê°Ģ
Ġëľ» ìĿĢ
ì§Ģ ìĸ´
Ġëª¨ìĸĳ ìĿĺ
æĻ Ĥ
Ġíı¬ ìĬ¤íĬ¸
Ġstrateg y
è ·
ĠP ay
ul u
ê¹ ¥
ĠìĬ¹ ì§Ħ
ĠB ass
Ġì£¼ ìŀ¬
Ġë¶Ī ëłĢëĭ¤
Ġ188 2
ĠAct ion
ĠëĮĢ ë§Į
ì²´ êµŃ
Ġìĥģíĥľ ë¡ľ
it ime
ĠìłĦíĨµ ìłģìĿ¸
ĠBab y
I F
ĠìĹ¬ ê¸°ìĹĲ
op t
ê³Ħ ìķ½
Ġê²ĥ ìĿ´ëĿ¼ëĬĶ
act ical
í ĳ
Ġë¶Ģ ìŀ¥
Ġhelp ing
Ġmeas ures
ìŀ ĩ
Ġê°Ħ íĸī
unn y
forc ement
Ġëĭ¤ ìĪĺ
Ġsold ier
ol ar
Ġì§Ģ ë¶ķ
Ġgu itars
ìĤ° ìĹĲ
ë§ ŀ
Ġìĺ¤ ë²Ħ
ach ment
ë²ł ë¦¬
ĠCar ibbean
Ġì²ł ëıĦìĿĺ
ĠìķĦëĵ¤ ë¡ľ
Ġê°ľ ìŀħ
Ġphil os
Ġro se
ìĺĢ ì§Ģë§Į
ke ley
ĠA ber
ëĮĢ ì±ħ
Ġ13 0
Ġc able
st own
Ġê¸Ī ë©Ķëĭ¬ìĿĦ
ore n
Ġê¹Ģ ì§Ģ
uk ee
M E
Ġíķ© ì³Ĳ
Ġinn ov
Ġê²½ ëĤ¨
az e
Ġê³µ ì¤ĳ
ìĭĿ ë¬¼
Ġsign ing
rac ts
ĠB rew
ĠL an
Ġconv icted
íĨµ ìĿ¼
ĠJ enn
ri pts
ĠMar vel
D escription
c aster
ĠìĿĺ íĺ¹
f ly
Ġê¹Ģ íĺĦ
íı¬ íĬ¸
Ġì»¤ ë²Ħ
ĠEconom ic
ìĽĶ ìĿĺ
Nov ember
V ill
Ġh uge
Ġ18 50
è Ĳ
íķĺ íĤ¤
ĠìķĦ ë¦¬
ë¶Ī êµĲ
Ġman usc
ĠPolit ical
ì¹ľ êµ¬
ĠíĻĶ íķ©
Ġì§Ģ ìĭľ
Ġatt orney
ĠìĨĮ ë¦¬
p ir
r ity
Ġì¶ľìĹ° íķĺìĺĢëĭ¤
Ġmag n
Ġì²ĺ íĺķ
ĠìķĦë²Ħ ì§ĢëĬĶ
ë§Ī ë¦¬
ĠìĹ¬ê°Ŀ ì²łëıĦìĿĺ
ĠC elt
ĠD h
H C
Ġag encies
ĠëıĦ ìłĦ
Ġtouch down
G allery
Ġm ile
ĠMar s
ĠN ature
ëıĻ ë§¹
Ġêµ¬ ê¸Ģ
Ġhappen ed
ĠS ox
ter ior
ë³´ ê¸°
Ġê°Ĳëıħ ìĿ´
äº ¬
ĠMov ie
âĢ ł
ĠK it
ing ly
ĠíĨµ ìĥģ
Ġê³Ħ íĨµ
Ġtem por
Ġê±°ëĳĲ ìĹĪëĭ¤
Ġw orship
Ġ( ).
ff ield
X X
ë°Ķ ëĭ¤
ĠH ab
ĠíĬ¸ ìľĪ
ĠGl en
C ount
ĠíĮ ½
ì§Ī ìĿ´
ĠS now
Ġexpl ained
Com m
íĦ° ìĿĺ
à ¦
ëĵ¤ ë¡ľë¶ĢíĦ°
ĠAt hens
Ġext ens
ãĤ ĭ
Ġjournal ists
ĠSing les
j ab
ĠRoman ian
7 00
il ia
ìĬ¬ ëĿ¼
ĠíĥĲ ìĤ¬
Ital ian
ĠìĿ´ ìĽĥ
b ut
ĠCon stant
Ġsh ore
ĠìłĦ ë¶Ģ
che ster
Ġë©Ģ ë¦¬
B ig
Ġwood en
Ġgro wn
Ġì¹¼ ë¦¬ì§Ģ
ëĿ¼ ëĶĶ
Ġìĭł ì¶ķ
ach i
ĠBen jamin
ĠìĦłìłķ ëĲĺìĹĪëĭ¤
m o
ê´ĳ ê³ł
ĠëĶĶ ìĬ¤íģ¬
' )
ed ed
ĠV I
Ġte ach
Ġê¸¸ ìĿĦ
cast le
ia st
Ġìĭ¬ê°ģ íķľ
Ġl es
Å Ħ
ett a
' ll
H ow
v ant
Ġë¬´ ëĦĪ
ĠìĿĮìķħ ìĿĦ
Ġg ay
ac o
Ġìĭ¤ íĺĦ
Ġë¶Ģë¶Ħ ìĿĦ
èĩ £
O ut
ĠUl t
in ations
Ġ188 1
Ġcomplet ion
ĠC row
ëĭī ìĬ¤
ĠìķĮ ë°Ķ
Ġëį°ìĿ´íĦ° ë²łìĿ´ìĬ¤
Rich ard
ì§Ģ ìĿ´ëĭ¤
Ġcollect ions
ĠëĦ ·
Ġany thing
Ġëħ¸ëŀĺ ë¥¼
ĠìłĦ ëĭ¹
Ġê³µ ìŀ¥
ìĥĿ ìĿĺ
Ġval id
Ġìŀł ìĪĺ
C ons
ig o
ĠìĿ¸ ìļ©
ĠìĿĺë¯¸ ë¥¼
ĠFle et
ìĭĿ ìĹĲ
ĠíĺĦ íĻ©
ĠAdd itionally
om ing
ê±´ ìĿĦ
Al umni
íĺĳ ìĿĺíļĮ
ãĤ ¢
Ġweap on
ĠìĹ° ìĬµ
ìłĢ ìĬ¤
iter ranean
m usic
ah a
Ġì¹ĺ ëŁ¬
s uch
Ġìĺ¬ ëŀĲ
ì¡° ìłķ
Ġëª¨ ìķĦ
Ġdefin ition
om on
Ġinter change
enc er
Ġclass ification
ĠS r
ĠG ot
ĠìĦľ êµ¬
íŀĪ ì½Ķ
Ġê·ľëª¨ ìĿĺ
ĠE ug
ĠìĿ¸ êµ¬ìĿĺ
ê´Ģ ìĹĲ
ĠDel hi
ĠìĹĳ ìĬ¤
ĠVers ion
Ġfind ing
ëĿ¼ ìĻĢ
former ly
h ai
Ġw arm
19 12
ew here
Ġaff airs
e lection
Ġunder ground
Ġíģ´ ëłĪ
Ġdeb uted
Ġê°ķ ë¦ī
Ġëĭ¹ìĭľ ìĹĲëĬĶ
Ġìĺ¬ ëł¤
lev ard
ĠHar rison
Ġinvest ment
ĠíĽ ĹëĤł
Ġw rest
Ġì¤Ģ ëĭ¤
Ġtrib es
Ġcam era
Ġd ream
ë³´ ìĤ´
ëĺĲ ëĬĶ
B ra
P eter
æ ¡
ì¢ħ êµĲ
Ġmin ute
Ġë°° ê¸ī
gress ive
å£ «
ê³ł ë¦¬
Ġê¸° ìļ¸
Ġë¹Ħ ë¡Ģ
Ġconsider able
ì¹´ íĥĢ
ĠìĿĺ ëıĦ
Ġì¶Ķ êµ¬
Ġachie ve
M ag
ut or
d ef
ĠìĿ¸ ìĩĦ
Ġì£¼ìŀ¥ íķľëĭ¤
Ġíİĺë¥´ ìĭľìķĦ
M ale
Ġê°Ģë¦¬ íĤ¤ëĬĶ
Ġì¹´ ìļ´
Ġne ut
net ic
ĠìŀĦ ìĿĺìĿĺ
Ġë°©ë²ķ ìľ¼ë¡ľ
ĠìķĮ ë¦¬
i ere
ĉ Ċ
Ġthe rap
Ġë¡ľë§Ī ìĿĺ
Ġì²ł ìĪĺ
ĠìĨĮìĦ¤ ê°Ģ
çŁ ¥
ĠP ast
Ġth in
ìłķ ê·ľ
Ġì§Ģ ìĿĢ
medi ate
Ġíģ¬ ë¡ľìĬ¤
Ġcon gress
ann on
Ġform ing
Ġ186 1
Î ¹
at che
ĠìŀĲìĭł ëĵ¤ìĿĺ
ĠPr incip
ĠPark er
Ġvess els
ìĪĺ ìĤ°
ĠìķĦ ìĬ¤
Ġì²ľ ì²´
Ġchang ing
ĠëĬĲëĤ Į
Ġactiv ist
ëŀ« ëıĻìķĪ
Ġinstrument al
ëĵ¤ ìĿ´ëĭ¤
ĠPri or
ĠN ebraska
ĠëıĻ ë°©
Ġë¹Ħ íĬ¸
Ġíģ¬ ëłĪ
ìłľ ëıĦ
Ġë¬¼ ë¦¬íķĻ
T our
ĠF ace
Ġser ial
ĠL ear
D E
ì±ħ ìĿĦ
ĠM ak
ĠìĨį ëıĦ
Ġì½Ķ ë¯¹
Ġsent enced
ĠëıĻ ìĿ¼ë³¸
ĠZ e
P at
ĠA N
and al
ìĦ¸ ìĬ¤
Ġì²ĺ ë²Į
Ġ id
ĠMil an
Ġor ient
ì§Ħ ìĿĢ
Ġdec lined
Ġê·¸ëŁ° ëį°
Ġìķŀ ìĹĲìĦľ
Ġê°ķ ëĵ±
ĠDef ence
ag ers
CA F
íĽĦ ë³´
An other
ëĿ¼ ë©´
ĠEx p
Ġb at
ou ch
Ġê²ĥ ìĿ´ëĿ¼
ĠJud ge
ĠL uis
Ġ187 6
ê³µ ê°Ħ
S F
ì į
iz er
Ġì½ĺ íħĲì¸ł
ìĹ° ì¶ľ
åĮ ĸ
ĠíĶĦë¡ľê·¸ëŀĺ ë°į
ĠA rena
Ġìłķ ì²´
Ġìłģ íķ©
Ġlicens ed
ê º
ĠCh airman
stit uted
ĠJ a
ê³µ ìĭł
ëĭ¨ ê³¼
ĠPh oenix
ĠíĶĦëŀĳ íģ¬
ĠJ R
Ġê¹Ģ ìļ©
ĠLe eds
ĠL ux
ĠìĦ ŀ
iv ia
Ġrom antic
Ġ10 5
Ġag ents
Ġê¹Ģ ìŀ¬
ë£¨ ìĿĺ
Ġrep utation
ĠAm az
Ġbring ing
ro se
ul ating
ĠìĥģíĻ© ìĹĲìĦľ
ìłķ ë¦¬
Hon ours
Ġpop ulations
ëĤ¬ ê³ł
Ġsu icide
c alled
ie ge
Ġdec line
Ġchild hood
Ġturn ing
Ġvol umes
ĠC hel
f ire
Ġexper t
he red
ĠìłĦ ëł¥
C onn
p ent
Ġlast ed
Ġtex ts
Ġì°¸ ê³ł
Ġra ise
Ġinflu ential
o j
Ġres emb
ĠGre ater
ĠCost a
ĠêµĲ íĸ¥
Ġë°Ķ ê¹¥
M ac
ĠD iamond
Ġêµ¬ ë§¤
Ġ9 1
ìķĦ ë§Ī
r un
Ġn ations
å´ Ķ
ĠIs a
Ġqual ifying
ĠT on
ëĤ´ ìĹĲ
Ġíģ´ ë¡ľ
Un ivers
Ġelect ron
ĠìĤ¬ìļ© ëĲľ
ì¡°ìĦł ë¯¼ì£¼ì£¼ìĿĺ
Ġforest s
ĠëĶ ľ
ĠìĥĪ ë¡Ńê²Į
ĠìĿ´ë¯¸ ì§Ģ
Ġv e
ìłľ ìĿ´
Ġê°Ģì§Ģ ëĬĶ
Ġmiss ed
F ebruary
ç ¨
Ġìĸ» ìĿĢ
Ġë°© ì§Ģ
wa ukee
Ġequip ped
ĠìĹĲ ìĬ¤
Ġ187 8
Ġadop t
utt ing
Ġpain ted
ìĭľ ìĹĲìĦľ
Ġann ually
Ġdep os
Ï Ĥ
ê¸° ì§Ģ
ĠìĿ´ ë£¬ëĭ¤
ìłľ ì£¼
ĠAl ice
ĠìĿ¸ì²ľ ê´ĳìĹŃìĭľ
Ġê¸į ìłķ
ĠíĥĢìĿ´ ìĻĦ
Com mun
ê³Ħ ëĬĶ
Ġinvol vement
al ysis
ìĿĺ ìłķ
Ġìļ° ìĹĲ
ìĤ¬ëł¹ ë¶Ģ
Ġm ob
Ġìĭ «
ë²Ķ ì£Ħ
Ġcirc uit
m l
Ġcom ics
Ġëª¨ íĨł
Ġì§Ģ ëĤ´
Ġê¸°ë¡Ŀ ìĿ´
ĠPat ri
ĠSen ator
ĠS A
Ġn one
Ġd ated
ìĭľ ìķĪ
ĠíĮĮ íĭ°
ub b
Ġcount ies
ĠB ird
Ġass embly
ĠPort land
V A
au er
ê°Ģ ìĪĺ
Ġìĺ¤ íĤ¤
ĠP erson
ĠBr and
Pro fessional
ê²Ģ ìĤ¬
Ġincreasing ly
Ġcontin uing
ĠColomb ia
Ġp apers
ĠFl ight
Ġplayoff s
ĠìĿ´ ëªħ
ì²ľ ë§Į
ĠChristian ity
Ġíģ¬ ë¦¬
U P
Ġëª¨ ë°ĶìĿ¼
ìĸĳ ìĿ´
Ġì¹¨ ìŀħ
ĠíŀĪ íĬ¸
verse as
ìŀĲìĿ´ ëĦĪ
Ġì§ Ŀ
ĠìľłëŁ½ ìĿĺ
Ġë¶Ģ ìĨį
Ġë¶Ģ ì¹ľ
Ġsh ares
ê²© íķľ
Ã¶ n
ĠìľłëĭĪë²Ħ ìĭľìķĦëĵľ
ul i
Ġëª© ìĨĮ
au ge
ĠD od
ĠëıĪ ìĿĦ
ĠìķĮ ëłĪ
Ġsusp ended
íķĺìĺĢëĭ¤ ê³ł
Ġë³Ģ íĻĶë¥¼
Ġë§Įëĵ¤ìĸ´ ì¡Įëĭ¤
M any
Ġh ip
Ġê·¸ ëķĮ
Ġê¼ ½
ĠT u
Ġse es
ä¿ ¡
íĮ ½
a uc
ë¸Į ë¡ľ
ê¸Ģ ë¡ľ
Ġd ensity
ìłĦ ê³¼
íı´ ë¦¬
ĠìĬ¤íħĮ ìĿ´ì§Ģ
ad ers
Ġëĭ¨ ìĸ´
ĠíĨł ëĦĪë¨¼íĬ¸
ĠBuddh ist
Ġopin ion
H en
Ġelim inated
ì½Ķ íĶĦ
íĻį ì½©
è £
Ġthe at
ĠìĿ´ ìĿĢ
G B
ĠG rad
ĠìĹŃ ìĿĢ
ĠíķĦ ë¦½
Ġsw itch
Ġdra f
il ty
ect ors
Ġê¹Ģ ì§Ħ
Ġë°ĺ ëıĦ
ĠMag ic
Ġë°Ķë¥´ ìħĢë¡ľ
ell ion
ok ed
ĠìĪĺ ë¦¬
ìĺĪ ë¥¼
ĠíķĦìļĶ íķĺëĭ¤
Ġìĭľ ê²Į
Ġë°ľ ì¡±
Ġê°Ĳëıħ ìľ¼ë¡ľ
Ġev al
Ġê³¡ ìĿĢ
Ġë¡ ±
ìĺģíĻĶ ìłľ
Ġf old
Ġprom pt
keep er
å ¢
ëį° ë¥´
ì¶ľ ì²ĺ
bre ak
b rid
ĠP il
ĠìĤ¬ëŀĮ ëĵ¤ìĿĦ
Ġë§¡ ìĿĢ
ĠDep uty
Ġë©ľ ë¡ľ
al is
Ġp ian
Ġac oustic
ë³µ ìĿĦ
Ġpres erved
ì£¼ ê³ł
ĠìĹĲ ë¥´
ĠĠĠĠ Ġ
ple x
ĠìĦ± íĸ¥
Ġëĭ¹ ì´Ī
w orld
id ad
G old
g arian
Ġmark ets
Ġwind ow
Ġarrang ement
Ġcous in
Ġêµ¬ ìŀħ
ä» £
ot ton
Ġrem ember
ĠìŀĦ ë¬´
ĠR ico
Ġrel ief
Ġìĭľìŀĳ ëĲľ
re z
Ġn eck
Ġex ecut
ĠìĹ° ê°Ħ
Ġêµ¬ìĦ± ìĽĲ
Ð ´
Ġê´Ģ ìĹ¬
Ġ186 8
Ġden ied
ĠPier re
ar c
Ġíĥľ êµŃ
Ġg ather
Ġìŀ¬ ëĭ¨
Ġìĺ¤ìĬ¤ ë§Į
od ore
Ġë¶Ģ ìĥģìĿĦ
íĤ ·
ĠìĺĪ ëĬ¥
The y
ĠSerb ian
ì£¼ ìĹĪëĭ¤
ĠB uch
Ġë§Ī ìĿĮìĿĦ
ì²Ń ëħĦ
ster dam
ĠìłĪ ë°ĺ
ĠìĤ¬ ìŀĦ
arri er
Ġremain der
Ġëĵ£ ê³ł
ĠD raft
Ġë¸Į ëłĪ
ê²© ìľ¼ë¡ľ
ê°Ģ ëĬ¥
ĠFriend s
Ġt unnel
ë§Ī ì¹ĺ
Ġíı¬íķ¨ ëĲľëĭ¤
Ġë¬ µ
ĠIn v
ĠìłĦ ë©´
ì¶ľ ìĭł
Ġê³ł ê°Ŀ
te enth
Ġë³´ìĹ¬ ì¤Ģëĭ¤
Ġap artment
Ġrat io
ĠíĮĮíĬ¸ ëĦĪ
ëĴ ¤
íĺ Ķ
ê°ģ ìĿĦ
ĠWall ace
D R
ĠìĿ¼ ì°į
og an
ĠHud son
ë£¨ ê°Ģ
h aus
om ic
ĠI mm
ìĪĺ ìĤ¬
ê³Ħ ìĹ´
ust ed
ĠJon athan
Ġ9 4
ĠëĦ¤ ìĿ´ìħĺ
Or gan
Ġdepart ure
ĠìĭľìĬ¤íħľ ìĿĦ
Ġg ender
ĠDe ep
Ġpropos al
Ġel der
Ġíķ´ ìķ¼
ĠíĨł ëª¨
Ġcontrovers ial
ê¸Ī ìľµ
ĠB und
Ġìŀĳ ëıĻ
h our
if ted
ĠGerman s
Ġ187 5
ĠUr ban
ĠíĽĦ ê³Ħ
ĠHawai i
Ġë§Īì¹¨ ëĤ´
å¥ ³
op y
Ġdep ending
íı´ ë¦¬ìĬ¤
Ġtre ated
Ġëĭ¤ ë¥´ê²Į
Ġëĵ¤ìĸ´ ìĦľ
Ġê³¡ ìĿĦ
Ġëĭ¤ ë¦¬
ëĭĪ ì¦ĺ
Ġë°ľ ë°ľ
Ġaggreg ate
ëĤ´ ìħĶëĦĲ
Ġsu fficient
p at
al g
Ġv ot
Ġgener a
Ġb ridges
le tt
Ġëª» íķĺëĬĶ
Ad d
ìŀ¬ ëĭ¨
ìķ¼ ìĪĺ
ê¸° ìĤ¬
ĠSal v
ĠìĦ¸ ìĥģìĿĦ
Ġìĸ´ ëĵľ
Ġhistor ians
Ġfr ame
Ġhon our
Ġë¶Ħë¥ĺ êµ°
Ġf antasy
ĠìķĦ íĬ¸
Ġpo ems
ĠIran ian
ro d
on ies
ĠN orm
ëłĪ ìĿĺ
ĠìłĦ ìĭł
Ġìĸ´ëł¤ ìļ´
ĠP av
ëĿ¼ ìĹĲ
Ġìĥģ ìŀĦ
Ġbu y
Ġìĭľ ëª¨
âĢĻ ,
ĠíĻķ ë¦½
ĠìĬ¤íĥĢ íģ¬ëŀĺíĶĦíĬ¸
Ġstrong ly
ig s
Ġì¹¨ ëŀµ
ĠV as
Ġthem es
Ġê°ľìĭł êµĲ
Ġsurg ery
ìĭ ¼
ĠìķĪ ìĹĲìĦľ
Ġsec ure
ãĤ ĵ
ìĹ´ ì°¨
ĠíļįëĵĿ íĸĪëĭ¤
Ġo d
Ġê·¼ ë³¸
Ġíģ¬ë¡ľ ìķĦíĭ°ìķĦ
Ġass ign
ĠCroat ia
ìĤ¬ ìĿ´ëĵľ
ĠíĥĪ íĩ´
ĠVictor ian
k ov
ĠH em
ĠG round
ìĤ¼ êµŃ
Ġ186 3
ĠWar ner
Ġëļ ľ
l s
ĠL ions
ëĭĪ ì¹ĺ
Ġì§Ħíĸī ëĲĺìĹĪëĭ¤
Ġadvert ising
ĠTr inity
ìķĦ ìĽĥ
ĠTurn er
ĠìĽĲ ìĨĮ
Ġn av
Ġì¡´ìŀ¬ íķĺì§Ģ
ĠìĺĪìłķ ìĿ´ëĭ¤
Ġat mosp
ĠíĻĺ ìĬ¹
ê³ł ëĮĢ
ĠJ ama
ĠPro p
Ġíı¬íķ¨ íķĺê³ł
ĠìĹĦì²Ń ëĤľ
Ġì² ¼
Ġëĭ¤ ëĭ¤
Ġëĭ¬ ëł¤
ì¹ĺ ê¸°
ãĤ ¯
Ġëĺ ĳ
ĠMag n
ĠStev en
Ġdom ain
at ra
ĠCan al
Ġt ests
Ġpubl isher
ĠíĽĦë³´ ë¡ľ
ì ¾Į
ĠO bl
è ¿
Ġadv is
b ie
ĠëĤ´ ëł¸ëĭ¤
ìĺ¬ ë¦°
Ġfl ed
ë¨¸ ë¦¬
Ġë§Ŀ ëªħ
ë°± ë§Į
ì±Ħ ëĦĲ
Ġs ail
ç¥ ĸ
Char ts
ĠìłĦ ëıĻì°¨
Ġcent ers
åĲ Į
ĠUk rainian
Ġê²Ģ ìĥī
Ġìĸµ ìłľ
h y
å Ħ
íķ¨ ê³¼
Ġë§Ĳ íķĺëĬĶ
ĠìĥĪ ê²¨
born e
ĠTreat y
b us
ond uct
ĠìĦ¤ë¦½ ëĲĺìĹĪëĭ¤
Ġh ur
um er
íĦ° ëĬĶ
ìłĲ ìĿĺ
ĠJ oy
Ġcon st
Ġ186 2
íģ¬ ë¥¼
Ġex ists
ìĥĿ ìĤ°
ëĵľë¦¬ íŀĪ
ĠVin cent
ëł¹ ìĿ´
Ġinf antry
åī į
anc ell
ìĦ °ëĭ¤
Ġp od
Ġìķł ëĭĪ
Ġper fect
ĠìĹŃìĤ¬ ê°Ģ
ĠìĿ¼ìĸ´ ëĤ¬ëĭ¤
ĠAz erbai
ĠëįĶë¶Īìĸ´ ë¯¼ì£¼ëĭ¹
R ussian
é Į
ìĿ¼ ëĵľ
íĨł ìĭľ
Ġë°Ķ ëĭ¥
ĠëĳĲ ëł¤
ĠìłĦë¬¸ ê°Ģ
Ġë°ĶëĢĮ ìĹĪëĭ¤
Ġhe ar
Ġhel ic
Ġ186 5
riev ed
ge on
Ġë¦¬ ëĵľ
ĠSh a
ĠíĻľëıĻ íķĺê³ł
Scott ish
ĠëĿ¼ ìļ´ëĵľ
Ġìł ł
ĠìĹ¬ ìĻķ
Ġë¶Ħ ëªħ
Ġb es
Ġíķ¨ ëĿ½
Christ ian
Ġsub mar
Ġas ks
ĠC ob
Ġìĺ¤ ëŀ«ëıĻìķĪ
Ġëĵ¤ ê³ł
ĠíĨ ±
over y
ur ring
ĠìŀĲ ìłĦ
Ġìŀ¥ ìĪĺ
Ġëĭ¤ ìĬ¤
Ġbl ocks
Ġë§Įëĵł ëĭ¤
ĠDen ver
Ġë©Ķ íĥĪ
ĠBarb ara
00 00
ĠëıĦ ëª¨
Ġìļ© ìĿ¸
ĠìĹĺë¦¬ ìŀĲ
E G
um ar
er ted
ĠìĹ° ìĤ°
Ġê¹Ģ ìĪĺ
Ġë©Ķ ëª¨ë¦¬
ìĬ¤ëŁ½ ê²Į
w ers
ìĤ¬ ìĥģ
O ld
art ing
ì¹´ ëĿ¼
ĠìĿ¼ ìłľ
Ġê´ĳ ë²ĶìľĦ
Ġ187 2
ĠSer ge
Ġaffili ate
ap se
ĠRem ix
ëŀĢ ìĥī
T ur
Ġìº ¡
count ry
ëĲĺìĹĪëĭ¤ ê³ł
Ġvis ible
D i
Ġsh ift
Ġë°© íķ´
ĠTr ack
ript ions
ff ee
Ġacc ounts
Ġloss es
Ġê°Ģë¬¸ ìĿĺ
ĠT as
Ġê¸° íļĮë¥¼
Ġìŀ¬ ì¦Ī
ull ivan
Ġì¦ Ī
Ġì°½ ìŀĳ
Ġf il
ush ing
s is
ĠP D
Ġë¡ ł
Ġìĺ¬ ëł¸ëĭ¤
ĠBe aut
Ġeffect ively
Ġíķĺ ìĹĲ
ìĭĿ íĴĪ
Ġë¬´ íķľ
ĠìĦ¸ê³Ħ ëĮĢìłĦ
ĠìĹ°êµ¬ ìĨĮ
ĠSus an
Ġg one
ì¡° ë¡ľ
Ġìĸ´ ê¹¨
ĠWar ren
o i
Ġ ),
er k
ĠëĤ´ ê°Ģ
Ġmon astery
éĽ Ĩ
ĠSpr ings
Ġre pr
Ġíģ¬ ëĿ¼
ĠC ON
f oot
ĠíķĻ ìĤ´
Ġb attalion
ath a
ìĬ¤íĬ¸ ë¡ľ
Ġíİľ ìĭ±
Ñ ı
ĠS I
ĠìķĬ ì§Ģë§Į
ìķĦ ë©Ķë¦¬ì¹¸
Ġterm inal
ĠJos h
Ġaffili ated
ĠKir k
Ġë°° íı¬
Ġfr uit
R oyal
il er
ier ra
uck land
Ġreb uilt
ĠM ann
Ġex ternal
Ġ188 3
Ġsur f
ĠG P
Ġì§ĳ ìķĪ
M r
Ġout put
ĠW onder
ê¹ Ŀ
Ġì§Ī íĻĺ
ed a
Ġì§Ģ ëĥĪ
Ġë°ľ ê°Ħ
Ġê¹ ĥ
ĠMach ine
ĠH orse
íķ´ ìł¸
ĠìĪĺ ìĿµ
ĠëıħíĬ¹ íķľ
ĠìĿ´ ê¸Ģ
Ġê³Ħ ê³¡
Ġmov ies
Ġmass ive
è °
ĠT ournament
ĠP ow
ëĶĶ ìŀĲìĿ¸
Ġwhere as
Ġì¢ĭìķĦ íķĺëĬĶ
Ġm m
id ency
Ġì¹´ ëĿ¼
ĠOl iver
å ¡
ëĿ¼ ë©°
ch t
Ġ186 7
Ġsat isf
Ġíķ©ë³ĳ íķ´
Ġresc ue
ì° ¾
ich i
íĮĮ ëĬĶ
ĠS ad
éĩ İ
ë§¥ ìĬ¤
re f
ĠS ah
Ġë§İ ìķĦ
Ġë§Įëĵ¤ ê³ł
ì¹´ ë¦¬
Ġad ults
p in
Ġcr imes
ĠìĦ ¹
ĠíĢ ´
ĠìĺģíĻĶ ëĬĶ
Ġsw it
ĠNA SA
S am
p read
íİ Ģ
Ġtrans m
Ġille gal
ĠB ond
íĥĢ ëĭĪ
Ġgreat ly
ĠìĨĮëł¨ ìĿĺ
ĠìĥģëĮĢ ìłģìľ¼ë¡ľ
ĠBob by
ĠC incinnati
ìĿ¼ ìłľê°ķìłĲê¸°ìĿĺ
ĠD ata
Ġsp r
ur an
ĠF ly
Ġëª© ìĨĮë¦¬
ĠìĹ¬ê²¨ ì§Ħëĭ¤
ĠìłĦ íĻĶ
ĠìĤ¬ìļ© íĸĪëĭ¤
-- --
Ġê·¸ ë¡ľ
ëĲĺìĸ´ ìķ¼
ĠëĿ¼ ê³ł
ĠìĪľ íĻĺ
ìļ¸ ìĤ°
Ġattract ions
Ġê³µê°ľ ëĲľ
Ġre nt
ĠìŀĲ ë§¤
Ġê·¼ ìľ¡
ìĤ¬ ê¸°
ĠíĮĮ ë¥´
ĠNich olas
Ġw restling
Ġw rong
ì²´ ìĻĢ
Ġ0 2
ĠìĿ¼ìľ¼ íĤ¤
F lor
gor ith
o ons
ìłķ ìĽĲ
ï½ ŀ
Ġsignif icance
N orthern
Ġint ellect
N E
Ġí ĵ¨
ĠP el
ìĭ¬ ìĿĺ
ĠëĶ° ë¡ľ
ĠEncyclop edia
m pt
ë³´ ê±´
Ġë§Ĳ ëłĪìĿ´ìĭľìķĦ
è µ
ëŀĺ ìĿĺ
Ġind icated
Ġëŀ ©
Ġenc l
ĠCra ig
íķĺ ë¯Ģë¡ľ
Ġ10 3
l ik
ëĮĢ ë¶Ģ
ĠJ e
ëĤ´ ê¸°
Ġrel ocated
ides pread
ë³´íĨµ íķĻêµĲ
ĠìĦł ìłĦ
Ġmin imum
c ase
Ġíı´ ë¦¬
Ġíļ¨ê³¼ ë¥¼
Ġb orders
ãģ «
Ġì ¾Į
CA R
ĠUnivers al
D o
íĦ° ê°Ģ
Ġtrans c
ĠPr adesh
ĠS ic
éĢ ļ
p ine
ĠC ork
ĠìĪĺ ìļĶ
Ġne uro
OV ID
Ä Ł
ë ķħ
Ġtrib e
eth yl
Ġdistingu ished
Ġê´Ģëł¨ ìŀĲ
Ġsat ellite
Ġc inema
Ġv ision
ĠëĤĺíĥĢ ëĤ¬ëĭ¤
Ġconc rete
ĠSm all
U T
Ġdeb ate
Ġcharacter istics
ĠBul garia
ë¡ľ ìĻĢ
ĠR ing
Ġch amber
ĠëĤĺëī ľ
Ġsp aces
Ġë°ľ ìĿĮ
i ya
Ġë§Ī ë¥´íģ¬
ëĶ ¸
Ġmix ing
ìķĦ ìĬ¤
Ġel se
L and
ĠG ang
ĠìķĦ ë©Ķë¦¬ì¹¸
ê²½ ìĿ´
ĠëłĪ ìĬ¬ë§ģ
ëĭ ·
ĠPers ian
p ers
ĠR ace
ì¹´ ìĺ¤
w ald
ë¯¸ ìĤ¬
Ġs ax
Ġíıī ë¡łê°Ģ
Ġdeploy ed
S D
Ġìĺ µ
ĠPar ish
Ġperiod s
Ġêµ ¿
Ġ186 4
wh ite
Ġindic ates
Ġíķľ ìĦ±
ĠBr isb
1 20
ë³Ħ ë¡ľ
ĠìĬ¤íĶĦ ë§ģ
Ġp ric
ìŀĦ ìĿ´
ĠLeban on
ìķ ŀ
and om
Ġabs ence
re ck
Ã© l
ĠH av
ĠM aine
Ġun cle
ok a
ĠChrist ians
ë°Ľ ëĬĶ
Ġì£¼ìŀ¥ íķĺìĺĢëĭ¤
ĠíķĦìļĶ ê°Ģ
Ġë°ĽìķĦëĵ¤ ìĹ¬
ìľł ëĭĪ
ìĹĪ ìĿĦ
ê¶Į ëıĦ
Ġë°° êµ¬
Ġë® ĮíĹ¨
Ġtrad ed
Ġë°ĶìĿ´ ëŁ¬ìĬ¤
Ġrelationship s
E nd
on na
ĠC ultural
Ġì¤ĳ ìĹĲëĬĶ
ĠëĮĢíļĮ ìĹĲ
Ġl akes
Ġcol ony
ĠìĹ°êµ¬ ìĹĲ
C he
ĠEx pl
Ġdescrib e
ĠìĤ¬ìĭ¤ ìĿ´
Ġpremier ed
ì£¼ìĿĺ ìłģ
ent o
iz ations
ĠíĺĦ ì§Ģ
H owever
Ġíİ¸ ì°¬
ĠëĨĴ ëĭ¤
Ġelev en
Ġê¶¤ ëıĦ
ĠG oth
ĠíķĺìĺĢ ìľ¼ëĤĺ
ĠS ection
ĠëĤĺíı´ ëłĪ
D ou
ĠS alt
Ġth ing
Ġëĭ ī
Ġë³´ ìķĺëĭ¤
Ġê°ľ ëªħ
ë²ł íĬ¸
am ics
Ġphot ography
K O
ĠìĽĲ ìĿ¸
Ġext inct
w yn
Ġìĺ¤ ëĭ¤
Ġíı¬ ì¼ĵëª¬
Ġë³Ģ íĺ¸
ĠíķĺìĺĢ ìľ¼ë©°
ĠBangl adesh
ìĺ¤ ëĬĺ
ĠìĻĦ ìłĦíķľ
Ġexper iences
ĠëĪĪ ìĹĲ
Ġìĭ¸ ìĽĢ
Ġconcent ration
Ġapparent ly
Ġíĥľìĸ´ ëĤ¬ìľ¼ë©°
ĠIv an
ĠìĦ¤ ëĵĿ
ëĮĢ êµĲ
r uit
ĠClin ton
Ġíŀ Į
? )
ì§Ģ ë©´
19 13
ag i
ĠTh or
ìķĦ ëĿ¼
Ġpre gn
Ġsaf e
ĠY am
A lex
ì´Ī ìĿĺ
ĠM ong
ĠH ear
Ġbeaut iful
ĠíĢ ĺ
em pt
ag ons
Ġìŀħ ìŀ¥
ĠìĬ¹ ëł¤
Ġin ner
Ġë©Ķ ë¦¬
ìłľ íĴĪ
Ġëªħ ìĿĦ
íĶĮ ëĿ¼
ĠD ennis
ì¢ħ ìľ¼ë¡ľ
Ġrem ix
åĲ ī
ĠëĤ´ìļ© ìĿĢ
æ´ ª
M Hz
er ia
Ġê¹Ģ íķ´
Ġë¶Ħ íķ´
Ġëĭ¨ ì§Ģ
íĶĦëŀĢ ìĭľìĬ¤ì½Ķ
ĠBrisb ane
ç Ĩ
Ġì§Ģ ìľĦë¥¼
Ġíķł ìķĦë²Ħì§Ģ
ĠìĿ¼ì¢ħ ìĿ´ëĭ¤
ìĥĿ ìĿĦ
ĠìķĦ íĭĢ
Ġ18 00
Ġë£¨ íĬ¸
ĠBer keley
Ġsurv iving
Ġpal ace
ã İ
ëį ©
Ġ187 4
Ġattrib uted
ìĤ¬ ë§Ŀ
ĠW ang
19 16
íķĺìĺĢ ëįĺ
Ġë°ľ ëłĪ
Ġíİ¼ ì³Ĳ
Ġê³µ íĹĮ
ìĤ¬ ìļ©
rupt ion
Ð ¼
ĠE vent
ìĦ¸ ë¥´
íķ¨ ìĿ´
ì¹ľ ëĭ¤
onym ous
ĠRed s
æ ©
Ġëĭ¤ ìĨĮ
ĠG rey
ë§Ī ê°Ģ
Ġtr uth
íĶĦë¡ľ ëĵĢ
íĮĮ ìĿ´ìĸ´
ĠTerrit ory
Ġunus ual
ìļ° ê°Ģ
Ġb anned
ĠS outheast
Ġëħ¸ ìĬ¤
ĠëĮĢêµ¬ ê´ĳìĹŃìĭľ
ĠAngl ican
Ġg ard
ĠìĪĺ ìĿĺ
ĠìŀĲ ìĽĲ
ĠëģĿ ëĤĺ
n ik
Ġe at
ìĦľìļ¸ ëĮĢíķĻêµĲ
Ġpred ecess
Ġëĭ¤ìĿ´ ë¬ĺ
ĠBeng al
Medal ists
Ġìŀħ ìŀ¥ìĿĦ
oss ible
Ġemer gency
Ġrep air
Ġâ Ĥ¬
en os
æ Ł
Ġg iant
íı¬ ìĬ¤
ĠíĹ ¨
âĢĻ (
ĠíķĦ ìĪĺ
ë¬´ ëĬ¬
ĠShe l
ìĶ¨ ê°Ģ
Ġsign s
g ate
ĠëıĮ íĮĮ
Ġs udden
ĠP att
ë§Ī ìĹĲ
S L
ìķĦ ë¦¬
w as
ĠëĮĢ íĻĶ
Ġì§Ģê¸Ī ìĿĢ
Ġkn ew
Ġê²ĮìŀĦ ìĿĦ
ok er
Ġìľł ìłģ
ond a
Ġcon vention
Ġmet ers
ist ical
ìķĦ ëĬĶ
Ġì¡° ëªħ
Ġìĥģ ê´Ģ
rehens ive
ìľĦ ìĻĢ
Ġëį ľ
Ġë§¤ ì£¼
Ġent ers
Ġì°¸ìĹ¬ íĸĪëĭ¤
ĠíĪ¬ ìŁģ
ĠìĦł ìŀĦ
Ġten ure
Ġmarket ing
P R
ĠS E
Ġattract ed
Ġë°ķ ìĺģ
ĠPol icy
ì¹ĺ ìĺ¤
ëħ¸ ìĦł
Ġì³ Ĳ
U nder
é ©
ĠìķĮê³ł ë¦¬ì¦ĺ
ĠFac ulty
ĠíĬ¹ ìĦ±
íĢ ĺ
ĠIS O
ĠìłĦ ê¹Įì§Ģ
ĠìĬ¤ íĮĮìĿ´
Ġsett lements
M iss
ĠìĪĺëıĦ ê¶Į
ĠìĹ°ê²° íķĺëĬĶ
Ġë¶Ģ ëıĻ
ĠìĦ± ìłģìĿĦ
Ġoper ational
Ġê³µìĹ° ìĿĦ
ĠìĤ¬ ë§Ī
Ġ3 000
Ġíŀ Ļíķ©
h igh
Ġë¡ľ ëłĮ
Ġsuper ior
ĠíĨł ì§Ģ
Film ography
j u
Ġs end
ĠëĦ ¥
el i
ar an
ĠíŀĪ ê°Ģìĭľ
fect ure
ĠìĤ¬ìĹħ ìĿĦ
G rand
ìľł ì¹ĺìĽĲ
ĠìĬ¤íĥĢ ëĶĶìĽĢ
ëĤĺ ë¥´
Ġë§Ī ë¬´ë¦¬
ë°ķ ìĤ¬
Ġìĵ° ìĿ´ëĬĶ
Ġbenef it
Ġnet works
ĠHe avy
Ġíģ¬ë¦¬ìĬ¤ íĭ°
ĠBr ight
Ġprocess ing
Ġevery thing
Ġê±° ëĵŃ
Ġìĸĳ ìĿĺ
Ġì¹´ íİĺ
åŃ Ŀ
âĺ Ĩ
Ġexc ell
Ġì£¼ìĭĿ íļĮìĤ¬
ĠLiter ature
Ġt ie
ìĤ¬ë¬´ ìĨĮ
ab il
ĠíĥĢ ê²©
Ġì´Ī ì²Ń
Ġfest ivals
ë°Ķ ëĤĺ
ĠìĻķ ìŀĲ
ĠêµĲ ë¥ĺ
ash a
íĶĦê°Ģ ëĭĪìĬ¤íĥĦ
Ï ģ
ë¡ł ìĿĢ
Ġë²Į ìĸ´
ê° ¤
ìłĢ ìĦľ
Ġsched ule
ĠHer z
ĠLl oyd
S ong
Ġê² ¹
Ġyoung est
ìĹĪ ê¸°
ĠíĻľëıĻ íķĺìĺĢëĭ¤
ri en
osp el
F amily
ĠìĿ´ íĥĪ
ric ted
Ġíıī ìķĪ
Ġíı¬íķ¨ íķĺëĬĶ
Ġac know
Ġíĸī ëł¬
P M
ĠR ight
Ġíĳľ ì°½
Ġëĭ¤ìĿĮ ëĤł
ĠBou levard
sc ar
Ġdestr uction
Ġoccas ions
G O
Ġt as
ĠìłĦ ìĨ¡
Ġtrans mission
Ġ187 9
ëĭ¬ ëŁ¬
ĠE SP
ry s
ê³¼íķĻ ê¸°ìĪł
am ep
ĠìĿ´ íĨł
ok o
ĠìķĬ ìľ¼ë©´
Ġê³¨ ìĿĦ
æķ İ
on ly
ìŀĲ íĿĲ
Ġappro val
Ġas c
Ġíĺ¼ ìŀĲ
ìĿ¸ ìĹĲê²Į
Ġë©Ķ ëĭ¬
ë¸Į ëłĪ
ĠNor folk
our se
ìĭ¤ ìĿĢ
Ġthous and
19 15
ĠC ad
19 11
ey er
è¡Ĺ éģĵ
Ġcross es
íİ Ħ
in osaur
ĠP i
íķĺì§Ģ ëĬĶ
ãĤ ī
Ġsee k
Ġ18 40
ip ients
Ġë°© ë©´
ìķł ëĤĺ
ĠëªħìĺĪ ìĿĺ
l ane
Ġgrad ually
ëĿ¼ íĬ¸
ëıĻ ìĿĢ
Ġëªħì¹Ń ìĿĢ
Ġì²ł ê±°
Ġph one
Ġsent ence
I ON
g r
im ation
ì°¨ ëŁī
Ġìĸ» ìĿĦ
Ġì§Ģê¸Ī ê¹Įì§Ģ
ĠC ricket
Ġê¹Ģ ìĥģ
Ġì§ĢìĹŃ ìľ¼ë¡ľ
Ġì£½ ìĹĪëĭ¤
ĠAdm iral
Ġnorm ally
æĢ §
port ed
Ġë³µ ë¬´
íĬ¹ë³Ħ ìľĦìĽĲíļĮ
íŀĪ ê³ł
hel m
ëŀ ´
The se
Ġe asy
Ġëĵľ ëŁ¼
åĽ Ľ
E BS
ĠP le
Ġus eful
ract ion
Ġëħ¸ë¥´ ìĽ¨ìĿ´
w right
osp itals
Ġwid th
stit utes
íĻ© íĽĦ
ĠíĿ¬ ê·¹
ĠìłĦ íĺķ
ab et
Ġìĥģ ìĨį
Ġì¢ħ ìĤ¬
ìĤ¼ ìĦ±
al ities
et ition
ì¶ ¤
Ġê°ľ ë³Ħ
ue z
ë¬¼ ìĹĲ
oun sel
T T
form ing
ĠíķŃ ìĦ±
ĠAv iation
19 08
Ġë°ĶìĿ´ ìĹĲë¥¸
ĠV egas
n ic
Ġë°©ìĺģ ëĲľ
Ġmod er
ĠMicro soft
Ġê¸° ìĨĮ
ĠìĦ¸ ë¦¬ìĹĲ
ìĤ¬ ê³ł
elt a
Ã ī
ĠS ig
Ġëĭ¤íģĲ ë©ĺíĦ°ë¦¬
A thlet
Ġpass age
Ġrepresent atives
ëª° ëħĦ
ĠìĿ´ ëĵ¤ìĿĦ
ĠAthlet ics
ĠC J
ìĸ´ ë¦¬
ĠìľĦ ë¡ľ
ìĪĺ ë¦¬
ĠíıŃ íĥĦ
Ġê´Ģíķł íķľëĭ¤
unc redited
ĠT un
ĠS ask
Ġíģ¬ ê³ł
ī ģ
ëĵ¤ ìĹĲìĦľ
Ġë¡ľ ë¹Ī
Ġíĺ¸ ìĨĮ
Ġìľł íļ¨
Ġë°Ľìķĺ ìľ¼ë©°
ìĹĲ ëĦĪ
ol ition
ĠD est
ìĸĳ ìĿĦ
ĠìĥĿ íĥľ
ĠìĹĲ ë¦Ń
ix on
Ġdr ummer
Ġrepresent ation
Ġh al
ĠW alt
Ġìĭł ê³ł
Ġìľł ìłĦìŀĲ
Ġart istic
Ġìĭľìĥģ ìĭĿ
em e
ê²½ ìĹĲ
Ġlocomot ives
ĠI b
ĠM asters
Ġë¶Ģë¶Ħ ìĿ´
ìĭ¤ ìĿ´
ĠìĹŃìĤ¬ ë¥¼
Fran k
G S
Ġto ols
ĠìĿ¸ ì¦Ŀ
ric ane
c are
ĠM ick
ĠìķĦ ìĽĥ
uc lear
Ġë²ķ ë¬´
ëĦĲ ëĵľ
Ġ187 3
ì§ĳ íķ©
íĺĳ ëł¥
ĠHer bert
Ġëħ¸ìĦł ìĿĦ
Ġë¹Į ë³´ëĵľ
Į ë¦°
ĠH ope
ìĦ¸ íĬ¸
at ar
ĠK le
L et
ane ous
Ġì¡¸ìĹħ ìĥĿ
ĠëĤ¨ìķĦ íĶĦë¦¬ì¹´
Ġw ants
Ġw edding
it ations
Ġì¦ī ìĭľ
u h
Ġl ieutenant
ĠìĿ´ ëĿ¼íģ¬
ĠL ion
ĠPl at
ëĿ½ ìĿĦ
Sup er
Ġappoint ment
Ġle agues
ĠëĮĢíĨµëł¹ ìĿĺ
T im
U s
ĠIn stead
Ġì½Ķ ìĬ¤
ĠChall enge
ĠìķĶ íĺ¸
Ġpercent age
ĠëĭĽ íı°
è° ·
ol en
r us
Ġrh ythm
ĠF ine
Ġê°ĳ ìŀĲê¸°
ìĬ¤ íĨ¤
Ġê¹Ģ ê¸°
F B
Ġb id
Ġd ual
ĠëĶĶ ìŀĲìĿ´ëĦĪ
çĶ º
æĺ ¥
C O
ìĨĮ ìĨ¡
ĠìľĦ ëĮĢíķľ
s ub
ĠìĿ´ìĥģ ìĿ´
ĠëĤĺíĥĢ ëĤĺëĬĶ
Ġdet ailed
Ġë§ŀ ìķĦ
Ġìļ´ìĺģ íķĺëĬĶ
Ġprin ted
ìĸ´ ìķ¼
íķĻ ìĹĲìĦľ
Ġvess el
é ½
ìĦľìļ¸ íĬ¹ë³ĦìĭľìĿĺ
Ġê·¸ê²ĥ ìĿ´
ĠW inn
ĠëıĻ ìĸĳ
ĠK ur
ev a
Ġ186 6
am ous
ĠH ugh
Ġê°Ģ ë©´
ì¹´ ê°Ģ
Ġce ased
ĠCharl otte
Ġrecomm ended
Ġl oyal
Ġë²Ĺ ìĸ´ëĤĺ
( :
Ġë¬´ ìĭł
ĠìĿ¼ë³¸ ìĹĲ
ann i
c ing
Ġe ighth
Ġcont roll
íĮĮ ë¥¼
ãĤ Ĭ
íļ¨ ê³¼
ĠìĿ¸êµ¬ ê°Ģ
Ġnuc le
ìķĦ íĮĮíĬ¸
ëıĻ ê³¼
Ġë¶Ģ ëĭ´
the less
Ġnegot i
ê ¿Ī
Ġint ention
ì»´ íĵ¨íĦ°
åĽ ½
Ġì°¸ê°Ģ ìŀĲ
ĠìĻĦ ë²½
ĠEgypt ian
T or
Ġdrug s
ling ton
Ġparticip ation
éİ Ń
ĠMin or
æ ·¸
Ġì£¼ ìłĦ
ĠìĽĲ ì£¼ë¯¼
Ġreve als
Ġdon ated
Ġìļ° ë¦¬ëĬĶ
Ġë³ĳ íķ©
ëĲĺ ëĬĶëį°
ĠìĪĺ íĺ¸
Ġê²Ģ íĨł
ĠJeff erson
Ġunderst and
b es
os hi
Ġë¬¸ ìĿĦ
ĠM ason
ìĬ¤ íĶĦ
Ġê°¤ ëŁŃìĭľ
ĠB od
íģ¬ ê°Ģ
ĠìĿ į
ìĭŃ ìŀĲ
ĠVenezuel a
ie g
ĠëĮĢ ê°ľ
ì¡° ë¶Ģ
Ġcol le
enn ial
ì²ĺ ë¥¼
cel ona
10 1
Ġ ib
ĠR AF
ub a
Ġì¢ħ ë¡ľ
P al
Ġë¯ ¹
íĮĮ ë¡ľ
ìŀ¥ êµ°
ëĭ¤ ìĿ´ëĿ¼
Ġë°ľ ìĸ¸
Ġë¬¼ ëŁ¬
ĠStud y
ĠìĹ´ì°¨ ê°Ģ
ëĵ¯ ìĿ´
D VD
ĠCl ay
ĠGh ost
r ors
ĠB ert
ĠG or
ë¬¸ ìĿĢ
ĠMer c
Ĳ ģ
ëĤĺ íĥĢ
Ġpred omin
p erson
ĠW es
Ġer ected
ĠHeb rew
ëĬĶ ì§Ģ
ĠëıĻ ìĭľ
Ġext ent
Ġw ars
Ġatt ending
Ġíİ¸ ìĿ´ëĭ¤
Ġë¸Ķ ë¡Ŀ
Ġëĸł ëĤ¬ëĭ¤
T R
íģ¬ ë¦¬ìĬ¤
íħ ĶëłĪ
Ġrec ru
ĠëıĮìķĦ ìĺ¨
Ġë°ľ íĥģ
lish ments
p age
ì¹ĺ ê²Į
Ġconc erts
ĠìĽĶíĻĶ ëĵľëĿ¼ë§Ī
ëĲĺìĹĪëĭ¤ ê°Ģ
ĠRo om
íķ´ ìĸĳ
av or
ĠMor oc
Ġëª¨ ëĵľ
Ġrapid ly
ĠC OVID
Ġrul ing
ÑģÐº Ð¸Ð¹
Ġpro port
Ġë¶Ģ íĥģ
Ġcomp lic
Ġëª¸ ìĿĦ
Ġsuppl ies
V ol
m aker
Ġê³ ±
Ġíķĺ ìĿ¸
ĠìĹĨ ìĿĦ
ĠR ic
ĠC urt
ĠI N
Ġìŀ¥ ë¥´
ëª© ìłģ
Ġcompet itive
P D
Ġ ãĥ
ur st
ubl ished
ê²° ê³¼
ĠRabb i
Ġíķ´ ëıĦ
Ġëĵľ ë¦¼
ĠíķŃ ëª©
ìŀ ĺ
Ġê°Ģ ìļĶ
Ġtown ship
Ġchap el
ĠëĨĵ ê³ł
Ġwh ilst
Ġìĭľì²Ń ë¥ł
ĠìĦ± ìĿĦ
Ġì§ĳ ìĹĲ
Ġvar iant
ë§Į íķľ
r ont
ĠB ear
ì¹ĺ ìĹĲ
Ġhyp ot
anc he
Ġfriend ly
Ġíģ´ ë¦¬
êº ¼
ìĦľ ë¹ĦìĬ¤
L aw
íĥľ íıīìĸĳ
Ġê³µìĤ° ì£¼ìĿĺ
v et
ìĿ´ ìķ¼
ĠC O
Ġd rew
ĠF a
ëĲĺ ì§Ģë§Į
S k
Ġ187 7
ĠìĿ´ë¥´ ëŁ¬
ap ped
ĠMed iterranean
Ġclaim ing
ĠëĮĢíĳľ íķĺëĬĶ
ì¡° ê±´
Ġë¹Ħ ìĦľ
Ġâ ī
ë§Ŀ ìĿĦ
ĠìķĦë²Ħì§Ģ ìĿĺ
Ġd ress
ow ed
ĠíĬ¹ ìłķíķľ
å¸ «
ex p
Ġdiscover y
Ġf ighter
ĠProduct ions
ĠT ib
ëŀ ©
ĠFinn ish
Ġ á
as ant
ĠëĤĺ ìķĦê°Ģ
Ġind igenous
Ġtrad ing
Ġìĭł ìĤ¬
ĠOper ations
ĠC er
ap ur
ĠíĮ ĶëłĪ
ì½ °
s or
str ong
Ġf a
íİ¸ ê³¡
Ġìĥģíĥľ ìĹĲìĦľ
ìĦł ìĥĿ
ah l
Ġë©Ģ íĭ°
id al
ìļ° ìĬ¤ìĿĺ
ĠSh aw
ìĹ¬ ëĭ¨
ë§Į ìľ¼ë¡ľ
Ġreg ime
19 05
Ġcomp onent
ë²ł ë¦¬ìķĦ
ĠAn cient
ìľĪ ëıĦìļ°
Ġì¶ķ ìłľ
íĪ¬ íĳľ
ì½ ķ
Ġp ure
Ġh orses
ĠB og
Ġì¹´ ì¦Ī
Ġì¸¡ ë©´
Ġhabit at
Ġê³µ ë¬´ìĽĲ
ì¹´ ìĬ¤
D ep
Ġë©Ķ ìĿ´ì§Ģ
ĠMur phy
ĠI ss
ë¯¸ ìķĦ
b oys
ĠH ann
ĠìĹ° ìķł
ang le
Ġw idespread
d est
m ill
Ġst rict
Ġst yles
ëĪĦ ë¦¬
Ġvis iting
H F
h al
ĠìĿ¼ë³¸ ìĿ¸
as ia
Ġìłķ ìĪĺ
Ġamong st
Ġfrequ ent
åł Ĥ
ìŀĲ ë¡ľìĦľ
Ġì¤ĳ ì¶Ķ
ĠëıĦ ìĭľìĿĺ
íĹ Ŀê°Ģ
Ġland scape
Ġsuffer ing
ĠìĿĺ ìłķë¶Ģ
ĠC ou
Ġpar am
Ġmurder ed
ëĿ¼ ë¥¼
Ġ12 5
Ġë© Ī
ì°¨ ëĬĶ
ĠSur vey
h m
Ġsp in
ë¡ł ìĿ´
ĠìĦĿ ìľł
Pro t
ĠìŀĲ ë¦¬ìĹĲ
amp a
ĠRet urn
ĠMc L
ĠF uture
Ġêµ¬ ìĽĲ
L ondon
i ology
ĠìĿ¼ìĸ´ ëĤĺëĬĶ
Ġconvers ion
ë¡ľë°Ķ íĤ¤ìķĦ
Ġì§ĳ íķĦ
Ġto ured
Ġìłľ ëĦ¤
Ġì°¨ ëĭ¨
isc opal
ĠO il
Ġì£¼ ê¸°
ëĶ ľ
b acks
ĠS ak
ĠM orning
Ġì¤ĳ ì§Ģ
Ġem pt
ĠEd die
Ġì¡°ìĦł ì´Ŀëıħ
ĠN umber
ĠìĽ °
Ġviol in
Rec ipients
â ī
ê°Ģ ê³µìĿĺ
ĠShe ffield
å° ĩ
" :
H D
ëĵ± ìĿĺ
ĠìŀĪìĹĪ ê¸°
Ġë¬¸ìłľ ìĹĲ
ĠìķĦ ë¹ł
y gen
Ġf urn
ĠìķĦìĿ´ìĬ¤ íķĺíĤ¤
Ġë· °
ĠíıŃ ëł¥
B en
Ġv ast
ĠArch bishop
Ð¾Ð ²
ĠComm ons
ĠìĤ¼ êµŃ
ìĥ ĺ
Ġìĭ¬ íĮĲ
Ġtrad itions
Ġì§ ľ
ĠìĹ¬ ìĦ¯
ĠíĶĦë¦¬ ëĵľë¦¬íŀĪ
ĠíĬ¹ì§ķ ìĿ´ëĭ¤
Ġthreat ened
ĠD ictionary
ĠìĿĺ ìĭ¬
Ġimmedi ate
ip ped
Ġë³µ ìĽĲ
w id
ĠM end
ĠH erman
pe are
ëįķ ìħĺ
ot yp
ĠW as
ĠBr un
Ġdu o
Ġë Ń
ent e
ĠìĦ±ê³µ ìĿĦ
ĠìĤ½ ìŀħ
ĠR at
Ġê°Ģ ëĭ´
Ġëŀĺ íį¼
ĠìĿ´ ê´Ģ
Ġsy mpt
vious ly
ĠPen insula
R L
Ġì¶Ķê°Ģ ë¡ľ
T ube
ìĺ¤ ìĤ¬ì¹´
Ġmart ial
ber ry
Ġê²½ ë¶ģ
Ġdec ides
ĠHar old
Ġc ul
Ġë°° íĭĢ
ĠNe il
Ġco at
Ġconn ecting
ĠìĬ¬ ë¡ľ
Ġgrad es
ĠGil bert
Ġcon vert
ific ial
Ġrow span
ĠB aptist
ìŀĲ ëĵ¤ìĹĲê²Į
íıī ê·ł
Ġì§ĳ ê¶Į
å® Ī
ĠFl ore
ĠH ad
ĠëĮĢ ê²°
ëª¬ ëĵľ
Ġë²Ī íĺ¸
ĠR ac
ë² ³
íĺĦìŀ¬ ìĿĺ
ĠG olf
Ġìŀħ ê³ł
ĠBut ler
ĠìĥģíĻ© ìĿĦ
Ġìĺ¤ ì¼Ģ
Ġs alt
iz z
Ġìĸ¸ ëįķ
é ³
ĠëĮĢ ëŁī
Ġê·¸ê³³ ìĹĲìĦľ
M D
ĠS eb
ĠìķĪ ìĸĳ
ĠBelg ian
ĠFran ces
ĠëģĮ ìĸ´
ĠLank a
ĠìŀĲ ëŀĳ
Ġprote ins
ê·ł ê´Ģ
êµŃê°ĢëĮĢíĳľ íĮĢ
M ont
Ġemer ged
> (
it ects
ĠA round
íĬ¸ ìĹĲ
qu ir
Ġab use
íıī íĻĶ
Ġl as
Ġìĵ° ëŁ¬
Ġin hib
Ġcon j
ìĭĿ ê³¼
ëŁ° ìĬ¤
ĠA uckland
Ġcon stitution
Ġìľł ë°ľ
Ġëį° ìĹĲ
Ġalco hol
ë¹Ħ ë¡ľ
Ġíĳľ ë©´
ëĵľ ë¦¬ìķĦ
Ġdep th
Ġt ort
ĠA L
Ġg all
íĻĶ ë¬¼
Ġup grad
ãĢı (
J im
è Ĥ
ran o
ĠArt ist
et ies
Ġassoci ate
Ġcas ual
ë¶Ħ ìľ¼ë¡ľ
Ġê¹Ģ ê²½
Ġpat ron
Ġdisestab lishments
Ġn urs
Ġê´ĳ ìĹŃ
Ġë¶Ģë¶Ħ ìĿĢ
b el
P G
ĠíıĲì§Ģ ëĲĺìĹĪëĭ¤
Ġë± Ģ
akes peare
Ġpan el
ë¦ ĩ
min ster
r ise
Ġëį ©
Ġthr one
Ġë¯¸ ë¦¬
ìĺ¨ ìĿĢ
Sw iss
Ġêµ° ìĿĺ
Ġê°ľ ë°©
iven ess
Ġdraf ted
ì²Ń ìŀ¥
e lect
Ġcricket er
ĠìłĦë°ĺ ê¸°
ĠB iography
ist ani
ag ram
Ġê²°ìĬ¹ ìłĦ
Death s
ĠìĿ´ ëħ¸
Ġë³¸ ì§Ī
Ġsup ports
èĬ ±
em ed
ab el
ë£¨ ìĪĺ
Ġì²ľ ì£¼êµĲ
Ġìĺ¤ ì§ģ
Ġcontrib ution
c ons
Ġw at
ĠB achelor
ĠProtest ant
ĠìĦł íı¬
ìĹ° ìĿĺ
ĠíıĲ êµĲ
Ġê³łìĸĳ ìĿ´
ĠFrid ay
it ially
ê°Ģ ìĬ¤
Ġmerg er
' d
Ġê³ł ì¢ħ
Ġì´Ī ìĹĲ
ĠëıĮìķĦ ìĻĢ
Ġcateg ories
ëĵ± ìĿĦ
ĠEd wards
Ġsynd rome
K n
Ġh at
ĠAr c
Ġdef ence
C P
Ġê¸° ëĳ¥
ĠëĳĲ ìĤ°
Ġcompet ing
Ġë°ĿíĺĢ ì¡Įëĭ¤
ê°Ģ ë£¨
ì£¼ ìĭľìĿĺ
ĠìłĦ ë¶ģ
Ġíİ¸ ìĿĺ
ĠíĻķ ìĤ°
Ġlim its
íķĺìĹ¬ ìķ¼
ĠìĻķ ìĿĺ
Ġì¹´ ë©Ķ
Ġê°ĸ ëĬĶëĭ¤
f eat
ĠAm sterdam
íļ¨ ìĨĮ
íĮĮ ê°Ģ
Sc ot
Ġì°½ ê°Ħ
c at
ĠëĤĺëĪĦ ìĸ´
Ġstat ue
D espite
Ġw ings
ìĿĮ ìĿĺ
Ġpart ly
Ġhundred s
ĠB ath
Ġre porter
Ġê°Ģ ì¹ĺê°Ģ
ì¡¸ìĹħ ìĥĿ
Ġíĺ¸ ìĪĺ
Ġìĵ° ìĹ¬
) /
Ġth irty
Ġr it
Ġìĺģ íĺ¼
ìĻ¸ êµŃ
Ġìŀħ ëł¥
ĠF BI
ec ution
S U
Ġwrit es
Ġíķľ ê¸Ģ
ì ´
Ġë¶Ī ëł¸ëĭ¤
ĠìķĪ íĨłëĭĪ
Ġâ ĳ
Ġconcern ed
ë ĮĦ
Ġê¸° ëĭ¤
Ġed itions
ĠëĤ´ìļ© ìĿ´
Ġì°© ìļ©
Ġshop ping
ĠìĪĺ ìĪł
ĠëıĦ ëįķ
ĠëĮĢë¶Ģë¶Ħ ìĿ´
ìĹ £
ĠP ul
ìŀĳ ìĿĢ
Ġrel ation
st ance
Ġcontin u
Ġì¿ł ëį°
Ġnomin ation
íĬ¸ ë¡¤
Ġround s
ĠìĹ°ê¸° ëĮĢìĥģ
Ġìķ ī
Ġêµ ³
Ġê²¸ ìŀĦ
Ġp eoples
ĠMon te
Ġre ady
Ġì¤ĳ êµ¬
ĠìĤ¬ìĿ´ íģ´
ĠRog ers
Ġë¬¸íĻĶìŀ¬ ìŀĲë£Į
ëħ¸ ëŀĺ
Ġ14 0
Ġra b
Ġê¶Į ë¦¬
ĠëĤĺëĿ¼ ìĿĺ
min ute
Football ers
ĠS yn
Ġìľł íĨµ
Ġbeg un
Ġconn ections
ĠTrans portation
Ġkeep ing
Ġab b
ĠCon struction
æĺ Ł
ëį° ìĿ´íĬ¸
Ġgu ide
Ġëĵ¤ìĸ´ ê°Ķëĭ¤
Ġpat ient
Ġìķ¨ ëŁ°
Ġopportun ities
ĠP ic
oc ene
ID S
ìĺģ ìĿĢ
ì¤ĳ ìĿĺ
ĠP ont
Ġì§Ģ ì§Ī
Ġë¸Į ëĿ¼ìĿ´ìĸ¸
Ġmeet ings
áĨŀ áĨ
ëĵľ ë¥´
åħ «
Ġbound aries
ĠìłĲ ìĿ´
25 0
Ġemploy ment
ĠS et
ì¶ľìĹ° ìŀĳ
ĠBen ed
ĠêµŃ íĨł
ĠCur rent
Ġt ropical
end ar
Ġë°ľìĥĿ íķĺìĺĢëĭ¤
ëª¨ ìĿĺ
Ġë°© ìĭĿìĿĦ
Ġinduct ed
Ġê°Ĳ ìłķ
Ġë¹ ļ
Ġê²°ìĦ± ëĲľ
Ġì²ľë¬¸ ëĮĢ
Ġíİĺ ìĬ¤íĭ°ë²Į
Ġê³ł ìľĦ
Ġ ãģ
amep lay
E ducational
l u
íĬ¹ íŀĪ
Ġíķ© ëıĻ
Ġany one
ìĿ´ ë©´
Ġê¸° ëıĦ
Ġexc av
hol m
Ġ18 48
Ġë§Į íķľ
è ¬
Ġs ample
Ġì£¼ ìłľ
íĤ¤ ìĿĺ
íĮĮ íģ¬
Ġìļ´ìĺģ íķĺê³ł
ĠìĦł íĺ¸
Ġorig ins
Ġë²¡ íĦ°
os c
Ġem peror
Ġident ify
er r
ĠìĬ¤ íĭ¸
Ġevery one
Ġë Ŀ½
Ġê¸° ëıĻ
ĠIn sp
ern e
Ġafter wards
ìĥī ìľ¼ë¡ľ
Ġìĺ¬ë¦¼íĶ½ ìĹĲìĦľ
ë§Ī ë¥¼
ìĨĮ ë°©
ĠëıĮ ëł¤
Ġìĺģ êµ¬
ĠíĥĲ íĹĺ
Ġemig rants
im ir
19 07
ìŀĳ ìĤ¬
Ġro ots
ëĭĪ ìĻĢ
éł Ĩ
Ġpost ed
Ġëª° ìķĦ
ê¸Ī ìĿ´
ĠìĬ¤íĬ¸ ëĿ¼ìĿ´
n ed
Ġsp oke
Ġìĸĳ ìĤ°
ĠìŀĪìĹĪëĭ¤ ê³ł
im o
F eat
ĠìľĦì¹ĺ ë¥¼
Ġë ķ
Ġl ingu
âĢĿ ,
f ers
ĠëıĻ ë¶ģ
ìķĪ ìĿ´
ê°Ĳ ìĿ´
Ġexperiment al
ç ¬
ĠìĹ° ìĿ¸
ĠíĥĢ ìŀħ
Ġì¡¸ìĹħ íķĺê³ł
Ġì§ĢìĨį ìłģìľ¼ë¡ľ
m ath
el in
Ġìłķ ê¶Į
íĮĮ ë¦¬
Ġsequ el
Ġê°ĸì¶Ķ ê³ł
ro st
ĠI BM
Ġê°Ģ ìĥģ
ames e
Ġsupport ers
ĠCr ime
ĠSa udi
if fer
ĠRe ference
ĠìĺģêµŃ ìĹĲìĦľ
ĠC ox
Ġbas es
âĹ ı
Ġp seud
ĠMont eneg
ìĹ¬ìŀĲ ëĮĢíķĻêµĲ
Ġw ire
ĠW ald
ì¡± ìĿ´
Ġì±ħ ìŀĦìĿĦ
Ġpers p
ĠëĮĢíĨµëł¹ ìĿĢ
ç« ĭ
è¦ ĭ
r ative
ĠR ot
ĠL amb
ëĲĺ ê±°ëĤĺ
ĠK ill
Ġìĺ¤ ëĶĶìħĺ
Ġìŀ¬ ëĬ¥
Ġë¸Į ë¡ľ
Se ason
ê²½ ê¸°ëıĦ
ĠìŀĳíĴĪ ìľ¼ë¡ľ
ĠInt elligence
ĠPer formance
Ġproduct ions
Ġqual ify
S er
ìĦ¸ ì¢ħ
íĥĢ ìĬ¤
ë¬´ ê¸°
ì´Ŀ ìŀ¥
ut ter
Ġex cess
Ġloc ally
ĠìĭĿë¬¼ ìĥģ
ĠìłĦ ëĤ¨
ild ren
è« ĸ
Ġm ines
Ġy ield
Nov els
N H
Ġ1 18
ĠW ant
ĠìĹŃ ìĿ´
ĠìĦ¤ì¹ĺ ëĲľ
Ġrank ing
Ġb one
Ġfl owers
Ġdr iven
ĠìĿĮë°ĺ ìĿ´ëĭ¤
ĠìĿ¸ëĶĶ ìĸ¸
re ts
Ġw aste
ĠT BS
ĠëĮĢ ëıĻ
ìĹŃ ìĹĲ
Ġìľł ê³ł
Ġcol span
ĠëĮĢ ìĽĲ
ëĤĺ ë¦¬
Ġinvol ves
hemat ical
S ir
ĠW el
ê°ķ ìĿĦ
Ġëª© íı¬
Ġë¯¸êµŃ ê³¼
g om
inc eton
ĠEx change
Ġgen re
Ġv oting
iv ic
ìĬ¬ ëĿ¼ë¹ĦìķĦ
êµĲìľ¡ ì²Ń
ĠColumb us
Ġì¡°ì§Ģ ìķĦ
ĠíĶĮëłĪìĿ´ ìĸ´
ĠHarv ey
ĠClark e
d isc
Ġt orn
he ro
ĠHe in
ĠPer ry
ìĿ´ ëŁ¬íķľ
Ġíĺ¸ íĿ¡
ĠCons ervation
ëĭ¤ìĿĮ ìĿĢ
Afric an
¤ ëĭ¤
Ġl ose
ìĭľ ìĬ¤íĬ¸
ì¦Ī ê°Ģ
Ġë°ķìłķ íĿ¬
Ġìĭ±ê°Ģ íı¬ë¥´
H ung
ĠR idge
ĠN ext
Ġë°ĺëŀĢ ìĿĦ
Ġf alse
ĠSt uart
Ġinteg rated
p ose
ĠìĺĪ ë°©
Ġill ness
Ġscient ist
ĠMunicip al
S y
ĠT erm
Ġë¯¸ ìĬ¤
ĠP ick
ĠëłĪ ìķĮ
ĠìĤ¬ëŀĳ ìĿĺ
grad uate
el ia
ë¦° ìĿĢ
è ĳ
ê°Ģ ìļĶ
ĠìĿ´ ìĽĲ
Ġê³³ ìľ¼ë¡ľ
At l
Ġcivil ian
ĠN AS
orig inal
ĠGr ace
Ġimmig rants
Ġacc ord
Ġcho ose
m id
z es
Ġst able
ag re
Ġíĥ ĵ
ĠìĤ¬ëŀĮ ëĵ¤ìĹĲê²Į
Ġprov ision
G overnment
ĠT ech
ĠEag les
ĠìĤ¬ ê²©
ĠO ber
ĠGon z
Ġf ix
ë¯¸ ìĬ¤
Ġêµ¬ ë¡ľ
Ġelect oral
Ġf ee
ì¤ĳ íķľ
Ġë³´ ìĿ´ì§Ģ
Ġë¬¼ ìĿĦ
Ġê²ĮìŀĦ ìĿ´ëĭ¤
ĠíĽĦ ìŀĦ
itar ian
Ġcanc elled
ĠíĶ½ ì²ĺìĬ¤
Ġìĭľìłķ ì´Į
ac a
ìłķ ëıĻ
ĠSc out
Ġëħ¼ ë¦¬
ĠAr nold
w ent
ĠR alph
ĠF oster
Ġì£¼ ìŀ¥ìĿĦ
Ġrestaur ants
u able
ĠS weet
ê°ķ ìĹĲ
ĠëĨį ì´Į
Ġenjoy ed
ĠìĿ´ë£¨ ê³ł
Ġo cean
ë£¨ ë¯¸
ë¡Ģ ë¥¼
ìĤ¬ ê±°ë¦¬
ring ton
Ġcharacter ized
Ġdraw ing
ĠëĲĺ ëıĮ
Ġë§Į ëĭ¤
ë³ĳ ëĮĢ
Ġcol ors
Ġfall ing
ĠPhilipp ine
ê·¸ ë¡ľ
ĠS um
íı¬ ë¥´íĪ¬ê°Ī
Ġ16 0
ĠìĻķ ì¡°ìĿĺ
g ame
Ġb aby
ëıĦ ë¦¬
ìĭ¤ ë¡ľ
Ġíķł ë¨¸ëĭĪ
Ġdisc ontin
ĠìŀĦì§Ħ ìĻľëŀĢ
Ġgu ilty
Ġë¶Ħìķ¼ ìĹĲìĦľ
Ġphen omen
ar is
ìĹŃ ê³¼
Ġcons ervation
ĠìĹ° íĺ¸
Ġë³Ħ ëıĦìĿĺ
intend o
Ġê²° ìĿĺ
Ġl ock
Ġë²¨ ëĿ¼
ĠT ax
ìłĦ êµŃ
ĠìķĦ ì¼Ģ
ĠìĿ¸ ê¸°ê°Ģ
ĠíĻľìķ½ ìĿĦ
Ġh orn
Ġê° ±
ĠPlan et
ĠëĮĢ ë³Ģ
Ġìŀ¬ ìĤ°
Ġmon ument
Ġìĸ´ë¨¸ëĭĪ ëĬĶ
Ġcou p
ĠìĿ¼ ìļĶìĿ¼
ĠíĥĢ ì¼Ģ
Ġprov inces
ĠGr ade
ìķĦ ëĵ¤
af e
ĠìĿ´ìĸ´ ì§ĢëĬĶ
ĠëıĦì¿ł ê°ĢìĻĢ
Ġë¬´ ë¹Ħ
ĠCommission er
ìĹ ī
Ġêµ¬ìĦ± ëĲľëĭ¤
Ġclos er
ĠG ay
ìļ° ì¡°ìĹ°
ĠArch ive
S port
ĠR uth
ĠìĦľ ìĿ¼ë³¸
ĠëıĦìĭľ ë¡ľ
G reen
ê³ °
Ġfac ilit
ìĤ¬ìļ° ë£¨ìĬ¤
Ġc od
H ol
T own
Ġì§Ģ íĸ¥
ĠScot ia
ĠëĮĢ ì¡°
Ġpart ially
Ġext reme
al am
ĠAm endment
ĠAng lo
ç ģ
ìķĦ íĬ¸
ab a
ĠL iga
ë¬´ ìĬ¤
Ġcl an
íĥĲ ìłķ
ĠíķŃê³µ ê¸°
å¯ §
ëĶĶìķĦ ëĿ¼ë¹ĦìķĦ
Ġs essions
ro oms
ìĭł íķĻ
Ġìłĳ ìĨį
êµ¬ ìĹĲìĦľ
ìĽ¨ ìĿ´íĬ¸
ĠKn ights
Trans port
ĠCirc le
m ìĿĺ
Ġ( #
ë¥´ ë°Ķ
agon ist
ëŁ° ëįĺ
ĠAg es
I rish
Ġì§Ģ ë¶Ī
Ġìľł ëĭĽ
Ġë§Įëĵ¤ ê¸°
Ġf ur
åĲ Ī
Ġë³µìŀ¡ íķľ
Ġans wer
ëª¨ ê°Ģ
leg iate
s he
Ġë³ĳ ìĦ¤
Ġeff ic
ivid ual
Ġdomin ated
Ġparliament ary
íĺĦ ìĿĦ
Ġdep uty
Ġr anks
Ġconv inc
ĠíĿĺ ëŁ¬
ê²½ ìĿĢ
Ġëŀ ĳ
i u
ĠìĹ° ë£Į
ah o
ĠBr id
ĠëĮĢì²´ ë¡ľ
Ġëªħëł¹ ìĿĦ
Ġcorpor ate
Ġê¸°ë¡Ŀ ìĿĢ
Ġmar ry
ĠìĬ¤ë¯¸ ìĬ¤
Ġf it
ut ton
ì£¼ ê°Ħ
Ġne ither
ë¡ľ ìį¨
Ġê·¸ ëĿ¼
ìĭ± ê¸Ģ
Ġë²Ī ìĿĺ
ĠìĦ¸ê³Ħ ìłģìľ¼ë¡ľ
ĠF ellow
Ġë§Ĳ ìĿ´
Ġì¢ĭ ì§Ģ
Ġm atters
Ġre aches
ì²´ ìĿ¸
Ġact ed
arg ed
ĠìĤ¬ ì´Į
ë¥ĺ ëĬĶ
Ã© r
ĠFor mer
ĠìłĦìŁģ ìĹĲ
art en
ĠëĤĺëīľ ëĭ¤
Ġpick ed
íĶĦë¡ľëĵĢ ìĦľ
c ore
Ġm inisters
ĠìĬ¤ íĨ¤
Ġìĥģ ìĿĦ
Ġíİ ĳ
èı ¯
ìľł ê°Ģ
Ġê²ĮìŀĦ ìĿĺ
Ġconn ect
ĠPun jab
Ġcap s
Ġrest oration
Ġë¹¨ ê°Ħ
ĠìķĦ íĮĮíĬ¸
Ġì² ©
f ielder
Ġstep s
Ù Ħ
Ġmon itor
Ġê·¸ ëŀľëĵľ
ĠëłĪ ì§Ģ
Ġíķľ ìŀĲ
ë²ķ ìľ¼ë¡ľ
Ġhe aring
ĠY u
Ġì´Īëĵ±íķĻêµĲ ìĿ´ëĭ¤
M ad
N P
ãĤ ·
Ġìħ Ķ
B ill
ĠR u
ĠMun ich
ê°ľ êµŃ
íĨł ìĬ¤
Ġê°Ĳ ìĭľ
ĠT ogether
Ġê·¼ì²ĺ ìĹĲ
ĠL uke
ìļ° ìĬ¤ëĬĶ
Ġë¬´ ìļ©
str umental
Ġencour aged
ĠC atherine
Ġprincip les
ĠíĽĦë°ĺ ê¸°
ĠArchitect ure
K A
r ator
Ġd iam
Ġse ed
Ġê°ľ ì²´
ĠìĥĪ ë²½
ĠAp ollo
ãģ Ĩ
Ġì£¼ ìłľê°Ģ
ant i
ig ible
uss ia
Ġparticip ants
ĠT ree
ĠìĤ¬ìļ© íķĺìĺĢëĭ¤
Ġ186 9
g i
íĺ¸ ìĻĢ
Ġlow est
Ġíħį ìĤ¬ìĬ¤
P et
Ġë ¼Ī
Ġìłķ ìĽĲ
ìķħ ê¸°
ley ball
æ´ ¾
ĠìľłëĮĢ ìĿ¸
Ġsubsid iary
ì¹´ ë¥´
play ing
Ġapart ments
ĠK ay
ë¯¼ ìĿĺ
Ġess ay
Ġì§Ģ ìłĲ
ĠêµĲ ëªħ
Ġtrib ut
ĠCirc uit
f ilm
Ġìĺģ ìĽĲ
iss ions
ĠM embers
Ġt anks
Ġst ress
ount ain
íı¬ ë¥¼
pr ing
ĠCont emporary
ĠëĿ Ħ
G P
Ġa qu
ĠK id
ë¸Į ë¦¬ì§Ģ
Ġc ash
Ġconduct or
æ ¹
om orph
Ġì¶Ķ ê¸°
19 09
Ġoper ator
ĠìĿ´ë¦Ħ ìĿ´ëĭ¤
ìº Ħ
Ġspe aking
ì§Ģë°© ë²ķìĽĲ
æ¨ Ĥ
ĠìĿĺ ìŀ¥
Ġpr ince
Ġbo ats
ĠíĶĦë¡ľ ìĿ´ìĦ¼
Ġíģ´ ëĿ¼ìļ°
Ġrecover ed
Ġappropri ate
ë¯¸ ëħ¸
ĠBar celona
ìĬ¤íħ Ķ
Ġre ven
ëĦ¤ ë§Ī
ê¸° ê³Ħ
ìľł íķľ
Ġëĵľ ëŀĺíĶĦíĬ¸
Ġwind ows
ĠAtt orney
19 06
over e
ì´Ī ìĹĲ
Ġwear ing
f ree
{ |
Ġê³ł ê³ł
ëıĮ íĶĦ
an ion
ĠìĻ¸ ë¬´
Ġë°ĺìĿĳ ìĿĦ
ĠìĿ¼ ìłķíķľ
ĠìĬ¤íĶ¼ ëĵľ
ê²°ìĬ¹ ìłĦ
Ġsubstant ial
L ittle
Ġê°ľ ëŁī
ì²ľ ë¦¬
Ġê·¼ ë¡ľ
ĠStud ents
ĠA B
ĠìĤ¬ íĩ´
ĠìĹĨ ê²Į
Ġê°ģë³¸ ê°Ģ
Ġbon us
ĠByz antine
it ure
Ġliqu id
Ġì¶Ķ ë°©
i our
ĠK os
Ġì§Ģ ì§Ģë¥¼
Ġë§ŀ ìĦľ
West ern
Ġìı ĺ
ĠT rain
Ġì§ģ ìłĦ
Ġal gorith
ĠìĨį íķ´
S M
Ġê°Ģ ê³ł
Ġê°Ģ ë§Ī
ĠMethod ist
ĠS uch
ĠëĤ¨ ê·¹
íģ´ ëĿ¼
Ġw et
ĠíĻĶ ëł¤
Ġë³µ ìĿĮ
ĠMil waukee
em a
ëŁ¬ ë¸Į
Ġì²łëıĦìĹŃ ìĿ´ëĭ¤
Ġíķľ ìĿ¼
ĠìĿ¼ ëł¨ìĿĺ
ĠëĶ° ìĦľ
Ġì½ľ ë¡¬
m ers
ĠP eng
ab ric
ë¯¸ ì¦Ī
Ġnob le
ĠT ag
Ġmanufact urer
Be fore
íİ¸ ìĿĺ
Ġë°± ìłľ
in f
ĠC reat
ĠLe o
Ġweek end
ĠìĪĺë¹Ħ ìĪĺ
ĠìĿ´ìĻ¸ ìĿĺ
Ġìĭł ìĿĺ
ĠìĿ´ ìĺ¨
ĠëıĻ ë°ĺ
Ġview ed
ĠìĿ´ ìĦ¸
ĠK un
oir s
ë¦° ìĿĺ
ĠíķŃ ìĿĺ
Ġposs ibility
Ġì¢Į ìļ°
Ġ3 50
ĠíĹĪ ê°Ģ
ĠìĿĺë¯¸ íķĺëĬĶ
ë²¤ ì²ĺ
Ġgovern ments
C amp
Ġì ¥¬
ì¡° ì°¨
ĠìĦľ ìĪł
Ġstud ying
Ġstud ios
ĠBe h
ĠF ighter
Ġapp ly
ìĭ¤ ìĹĲìĦľ
ìĥģ ìĹħ
íķĺ ë¥´íĬ¸
Ġst im
ĠìĨĲ ìĿĦ
Ġleg s
ĠF eat
ĠìĦ± ì§ģ
ì¤ĳ ìĿ¸
ĠìĹ°ê²° ëĲĺìĸ´
ëª¨ ëĭĪ
Ġmuseum s
ĠìĹ¬ìĦ± ìĿĺ
Ġgen etic
ĠProt ection
d ess
ĠT oy
ì¿ ¼
ĠY ale
15 0
ĠIndian apolis
Ġunsuccess ful
ë°ľ ë§¤
ëŁ° íĬ¸
Ġaltern ate
Ġê´Ģ ê°Ŀ
ëł¹ ìĿĺ
Ġê¸°ë¡Ŀ íķĺë©°
Ġfl ower
p res
ĠìķĪ íĥĢ
aur us
Ġc anton
ĠP oll
sc ale
Ġì°¸ê°Ģ íĸĪëĭ¤
ĠBul garian
Ġbal ance
S aint
is che
Ġex ceed
íķŃ ìĿĦ
C arl
ĠSw an
ij i
Writ ers
ĠìŀĲ ê°Ģ
ìĸ´ íĬ¸
Ġ10 2
Ġso ap
Ġmat hematics
ĠF ish
Ġìŀ¬ ìŀĦ
Ġcontin uous
ĠR ou
ĠìĪĺ ë£Į
Ġsub t
åŃ ¦
Ġë°ľìĥĿ íķľëĭ¤
et ing
ĠìĬ¹ ë¶Ģ
Ġì±ħ ìĿĦ
T ra
Ġëª¨ íĦ°
Ġìŀ¬ ìĥĿ
Ġass ets
ĠìĤ¬ê±´ ìĿĺ
Ġëĭ¤ëĭĪ ìĹĺ
ĠOrig inal
ìķĦì¹´ ëį°ë¯¸
Ġm or
ĠìĦ± ìĶ¨
ĠAct or
Ġsee king
êµŃìľł ì²łëıĦìĿĺ
I X
Ġelect rical
Ġstrugg le
ĠB ald
ĠëĮĢ ìļ°
Ġëªħì¹Ń ìĿĦ
el ing
ê·¸ ëĿ¼
Ġposs ession
ĠC M
ĠìŀĪ ìĿĮ
ĠìŀĲë¦¬ ìŀ¡
ph ib
Ġdes ire
Ġtw in
ë¶Ģ ìŀĳ
ë°ľ ìĿĦ
ĠíĻĶ ìĦĿ
Ġrem ove
Ġê¶Į ëł¥
ëĬĲ ëĥĲ
ym ph
ì¹´ ë¥¼
ê°ķ ìłĦ
ê¸Ī ìĿĢ
ĠëłĪ ì½Ķ
U SA
ëĵ± ë¡Ŀ
Ġì¤Ħ ìĸ´ëĵ¤
Ġê³ĦìĨį íķ´ìĦľ
Ġê ¿
Ġdis b
Ġass emb
Ġìŀ¬ íķĻ
Ġhy per
ìĺ¤ ë¡ľ
E very
ĠT ang
ë© Ģ
ìĦ¸ ìļĶ
ĠìĹĲ ìĦľ
Ġhon ors
Ġtravel ed
al us
ĠProv incial
ĠAp ost
Ġspons ored
Ġint ent
Ġmechan ism
ĠYugoslav ia
Ġê·¸ ëŀĳ
Ġëĵ±ìŀ¥ íķľ
ĠCroat ian
ë¹Ħ íŀĪ
ĠíĬ ľ
ĠCol lect
Comp anies
R ob
ëłĪìĿ´ íĦ°
ĠìĻķ ìĿ´
ĠChap ter
Ġg ram
ĠO ct
ĠìĹŃ ìĿ´ëĭ¤
ì§Ħ íĸī
Ġê´Ģ ìĭ¬
iss a
C E
uck er
Ġë°Ģ ëĿ¼ëħ¸
u er
ĠS umm
Ġd angerous
Ġbeh alf
íĶĦ ìĬ¤
Ġê³µê°ľ ëĲĺìĹĪëĭ¤
es is
Ġh unting
Ġëĭ ®
ort ion
ĠV lad
Ġ0 4
ĠíĨł ë§ĪìĬ¤
ĠíĨłë¡ł íĨł
ìĹĲìĦľ ë¶ĢíĦ°
ĠLe ad
Ġt ram
ĠAl ong
Ġì°¨ ëĤ¨
Ġíģ¬ ëĭ¤
Ã³ w
ĠTechn ical
G en
ĠìĿ´ ë³µ
ìĺ¤ ìĻĢ
ind a
ĠëłĪ ë²¨
ìĭľ ëħ¸
ĠSt ill
Ġê´Ģ ì§ģ
ĠC ase
Ġë³´ íĹĺ
Ġn inth
Ġpict ures
atche wan
ĠíŀĪ íĭĢëŁ¬
ĠëĨĴ ìĿ´ëĬĶ
Ġê²½íĸ¥ ìĿ´
ĠëĲĺ ëĬĶëį°
Ġë£¨ ë§ĪëĭĪìķĦ
Ġcamp s
Ã± a
Ġfunct ional
ĠS eg
ĠT ed
ĠB anks
ĠD anny
ĠìĦľìļ¸ ìĭľ
Ġê·ľ ìĬĪ
ĠEth iop
íĻĺ ìľ¼ë¡ľ
ĠBos nia
Ġì ĮĢ
Ġdise ases
B ooks
ĠHel en
Ġb acter
ĠDel aware
ĠConc ert
Ġpat rol
ĠìķĦëĵ¤ ìĿ¸
amb urg
Ġsurv iv
Ġess ential
Ġegg s
ric ks
ĠíĬ¸ ëĿ¼ìĿ´
ĠìĦłìĥĿ ëĭĺ
Ġì´Ŀ ìŀ¬
Ġsee ing
ĠìĿ´ëģĮ ìĹĪëĭ¤
ĠíĺķìĭĿ ìľ¼ë¡ľ
Ġe mp
Ġì§Ģ ì¤ĳ
Ġcomm anded
ane ously
ë¯¸ ìļ°ë¦¬
ìĬ¤ì¼ĢìĿ´ íĮħ
M el
ĠìĦľ ëªħ
Ġpublic ly
åĲ į
onom ic
ë İ
it ol
ĠëıĦ ìĦľ
ìħ ¸
ĠìĻ¸ ê³Ħ
Ġíĺ¸ ì£¼
Ġnomin ations
ĠIndust ry
Ġprincip le
L D
ol in
ĠB av
Ġr ub
ĠíĮĮ íĤ¤ìĬ¤íĥĦ
Ġê³µê²© ìĪĺ
ĠSte in
ĠS or
íģ¬ ëĿ¼
ĠëĮĢíķľë¯¼êµŃ ìĿ¸
ĠIndust rial
ĠK ra
Ġclos ing
Ġìĭľ ê°Ģ
Ġë§Ī ì£¼
ĠM usical
ĠL en
Ġê°Ģ ìĦ¤
ë°ĺ ìĿĳ
Ġë¶Ħ ìŀĲ
ĠSh akespeare
ĠMan uel
ĠIndepend ence
ep s
ì´Īëĵ±íķĻêµĲ ëĬĶ
Ġì°© ê³µ
ĠF if
ë¯¸ ëŀĺ
ê²½ ëĤ¨
ì°¸ ìĹ¬
Ġê¶Į ëł¥ìĿĦ
íĬ¸ ì½¤
Ġì¡°ê±´ ìĿĦ
ĠCub an
anth rop
Ġì§ĢëĭĪ ê³ł
Ġpri ests
Ġrecomm end
u ations
Ġìĸĳ ìª½
Ġpaint ers
S erv
Ġm asc
ĠR ivers
Ġìľł ì¹ĺ
ĠìĦ¸ ëł¥ìĿĦ
ook ing
ĠìĦ¼ íĬ¸
ĠíĿĳ ìĿ¸
Ġexclus ively
S E
sequ ently
Ġexpl o
Ġìĺ¤ ëĬĶ
ici ency
Ġt ale
ir th
ĠObl ast
íıī ìĿĦ
ĠD ame
Ġê¶Į ë¦¬ë¥¼
Ġlab our
ĠìĻĦê³µ ëĲľ
ĠPhill ips
ĠC le
ĠThe ory
Ġê°Ģ ìĨį
ĠIS BN
h istor
T E
Ġimplement ed
er ic
åĲ İ
Ġminor ity
ç¦ ®
Ġp and
Ġìĥģ ë¬´
ìľ¡ êµ°
Ġpattern s
Ġì§Ģ êµ¬ìĿĺ
Ġìĺ¤ ìĿ´
ĠOtt awa
v ar
ĠíķĦ ë¦Ħ
B re
L ong
Ġë¶Ģ ì§Ħ
ft en
Ġëªħ ëĤĺëĿ¼
ĠíĬ¹ íĹĪ
ë¹ ¨
emb ourg
Ġkid n
ë Ŀ
ĠN ear
Ġëĭ¤ìĿĮ ìĿĦ
Ec onomy
ìĺ¤ìĬ¤íĬ¸ëłĪìĿ¼ ë¦¬ìķĦìĿĺ
ab e
ĠìŀĦ ë¬´ë¥¼
ë°± ê³¼
ploy ment
wid th
ĠA x
Ġmanufact ured
ĠìĨĮ ìĬ¤
ĠMar ines
ock et
èĭ ±
Ġì£¼ ë¦½
Ġë°© ìĸ¸
ĠAll ied
ĠìĦłì¶ľ ëĲĺìĹĪëĭ¤
ĠìĪĺ ìĨĮ
ĠëĤ¨ ê²¼ëĭ¤
hem atic
Ġìĺģ ê´ĳ
Ġres olution
Ġphys ics
ĠP in
íģ´ ëłĪ
Bl ue
ĠìķĦ íħĮëĦ¤
ĠìĿĮ ìĦ±
Ġíĺģ ìĭł
ĠëĮĢ ë²ķ
íĥĢ ì¼Ģ
Ġ~ )
ĠìĦłê±° ë¥¼
ops is
n an
Ġíķľ ìĭł
Ġadv ice
ĠëĮĢìĥģ ìĿ´
Ġcl othing
ç¦ ı
ëĵ Ī
ê¸° ë³¸
ëĤĺ ë§Ī
Ġìĭľ ë§Ī
gom ery
G E
Ġì¶Ķ ìłģ
íŀĮ ëĭ¤
Ġdivers e
ëıĦ ìĤ¬
Ġsub stitute
ìłķ ìĥģ
Ġbre aking
Ġë°Ģ ëł¤
Ġë°©ë²ķ ìĿĢ
íļĮ ê´Ģ
ë£ ½
Ġreported ly
Ġcustom ers
Ġt ons
Ġm os
ĠìĿ´íĽĦ ìĹĲëıĦ
ĠPeters burg
ĠA FL
Ġfor g
Ġê³ł ë²ł
ĠTr ump
Ġìĥģíĺ¸ ìŀĳìļ©
ĠìĻķ ë¦½
ĠMan ager
ë²¨ ê¸°ìĹĲ
c over
v ol
up t
ĠëĤ© ì¹ĺ
ĠS oon
Ġìĭł ë¶Ģ
Ġíĺ¼ ìĿ¸
ĠMah ar
C N
ĠM ath
ìłķ ëĭ¹
Ġê³ł êµĲ
Ġê·¸ëħĢ ê°Ģ
Ġbenef its
Academ ic
ĠìĿ´ ë¥¸ëĭ¤
Ġë°ĽìķĦ ëĵ¤ìĿ´
ĠPre fecture
Ġì¶©ë¶Ħ íŀĪ
ĠM ust
qu er
Ġk it
íķĺê¸° ë¥¼
Ġproduc es
Ġë©Ķ íĬ¸ë¡ľ
Ġê°ľëħĲ ìĿĦ
ĠÅ ł
Ġ9 00
ĠPro duction
Ġë³¸ ëĭ¤
ĠCons erv
ĠëĤĺê³ł ìķ¼
Ġìĥģ ìĭ¤
ĠëĬ ĳ
éĩ į
Ġ urg
ĠìĤ¶ ìĿĦ
ĠëĤ¨ ìĸĳ
Ġìĭ¤ ì²ľ
ìłľ êµŃìĿĺ
ĠAss istant
Ġë°©ìĨ¡ ìĿĦ
Ġimp ress
Ġìĥģíĥľ ë¥¼
song writer
Ġbus es
ĠArt illery
Ġl ift
ìĹ° ê·¹
ĠPr ivate
Ġsp ending
Ġliber al
Ġto uring
Ġíķľ íĻĶ
ĠìĦľ ê¸°
Ġdesign ation
ett i
ĠìĪĺ ìĭŃ
ì¡° ì°¸
íĮĮ ìĿ¼
Ġë§Īì¼Ģ íĮħ
Ġdr um
ĠQu est
ĠíķľêµŃ ìĿ¸
ĠíĮ ©
Ġexp osed
Ġëĭ¤ìĿ´ ìķĦ
ĠëıĦì¿Ħ ëıĦ
or ious
íĸĪëĭ¤ ê°Ģ
Ġë¦¬ íĭĢ
ĠìłĦìŁģ ìĹĲìĦľ
Ġì´ī ì§Ħ
ĠíĻ Ģë¡ľ
Ġê³µ ë£¡
å® ĭ
ĠArt icle
ĠOrig inally
ĠìĤ¬ ìļ°ìĬ¤
19 04
ĠìĿ´ íĺĦ
ĠL is
Ġtr uck
ìĸ¸ ìĸ´
ĠAb raham
ĠëĤ¨ ìª½ìľ¼ë¡ľ
Ġì¡ ¸
ĠìŀĳíĴĪ ìĿĺ
esign ated
ĠìĿ´ ê²½
ĠP and
ĠUn like
Ġab road
ìĽ¨ ìĿ´ìĿĺ
Ġíģ¬ë¦¬ìĬ¤ ë§ĪìĬ¤
Ġtri als
ĠMon ey
Ġsp ell
ì¸ł ìĿĺ
Ġë¸Į ëŀĺ
Col lege
ĠPear l
W ar
ac co
Ġmount ed
Ġsim ult
Ġì°¸ìĹ¬ íķľ
Ġíĳ¸ ë¥¸
ro id
g rim
ĠìĤ¬ ì¿łëĿ¼
Ġëĭ¨ìĪľ íķľ
fr ont
Ġìĺ¤íĶĦ ëĭĿ
Ġì»¤ë®¤ëĭĪ íĭ°
ĠP rice
ĠYou Tube
D I
ack ed
Ġdis order
ìľł ë¡ľ
Ġdisp ute
ĠW ed
os lov
ì°¨ ìĿĺ
ĠëĲĺ ê¸°
ĠìĤ° íķĺ
Ġbelie ves
FI FA
ĠScient ific
ĠìŀĪ ìľ¼ë¯Ģë¡ľ
ren cy
Ġì¡´ ìĬ¤
ë²ķ ë¥ł
ĠCal c
Ġfac ing
E r
ìĺģ ìĤ¬ê´Ģ
ëħ¸ ë¦¬
ìĺ ·
ĠH us
Ġìľ Ļ
ĠBr uns
ĠCar r
ë° Ń
ëħĦë¶ĢíĦ° ëĬĶ
Ġëĭ¨ìĪľ íŀĪ
Ġ12 8
Ġê¸°ë¡Ŀ ëĲĺìĸ´
ĠSe an
ĠìĿ¼ìľ¼ ì¼°ëĭ¤
Ġdomin ant
Ġpart ial
Ġìŀħ ë²ķ
ĠìĤ¬ê±´ ìľ¼ë¡ľ
ĠTom my
ĠìķĦìĭľìķĪ ì»µ
b in
ĠìŀĲ ëĿ¼
Ġman if
Ġg allery
ĠGreg ory
ĠAng els
oot s
Ġmanufact urers
ìĿ¸íĦ° ëĦ·
Î µ
ĠT alk
Ġê·¸ ëĵ¤ìĿĦ
Ġrev ised
alle st
H O
å ķ
Ġg at
Ġcomp ounds
Ġì²« ì§¸
ĠV oice
Ġê°Ģ ëģĶ
ìĹ° ìĿĦ
Ġmar ine
é» ĥ
ĠH ob
ĠìĬ¤ ì¹´ìĿ´
Ġnot ice
ì£¼ ìĭĿ
Ġgrand father
Ġgradu ating
N ote
íĽĦ ìĹĲ
ë°° ë¥¼
Ġpo le
íķĺ ë¥¼
ĠR aw
ĠL ac
Ġorigin ated
Ġreg ulations
sh aped
ĠPar ad
ĠìĿ´ë£¨ ëĬĶ
ìķĦë¥´ íĹ¨íĭ°
Ġphotograph s
ĠNew castle
Ġarchitect ural
ĠE ston
Ġë¬´ ìĿ¸
Ġinaug ural
Ġmechan ical
Ġê³ł ê¸ī
Ġì¢ħë£Į íķľ
è· ¯
ì½Ķ ëĬĶ
ĠëĤł ê°ľ
onn ie
M unicip
ĠìĦ± ì§Ī
Ġë§Į ëĤľ
ĠíĶĮ ëłĪ
M ass
p ost
ol ics
ĠB uc
ĠSp ider
Ġsec ured
Ġdeb t
ĠA way
ad ier
ĠF alc
Ġconf ig
b one
ĠL em
ìłķ ìĭł
Ġdoes n
ĠChap el
Ġaim ed
Ġtherap y
Ġm aps
ro at
ĠíĮĮ ìļ¸
ĠLi u
Ġë¶ģ ë¯¸
ra wn
ìĺ¤ ëĤĺ
ĠìĬ¤ ì½§
1 10
ent le
ĠM ul
Ġê·¸ ë§Į
ë§Ī ë±Ģ
Ġgard ens
Ï ĥ
Ġ áĦ
ĠìĿ¼ ìĥģ
Ġë¡ľ ì¦Ī
Ġins urance
Ġë¬´ ë¦
Ġorgan isations
Ġarg ument
osoph ical
ìļ© ìĿĺ
Ġdiscuss ion
Ġre duction
ĠI D
Ġêµ¬ ë©į
Ġíģ¬ë¦¬ìĬ¤ íĨł
ĠìĭŃ ìŀĲ
M ain
Ġê°Ģ ê¹Ŀ
A E
æ Ĩ
an j
Ġë¹Ħ íıīê°Ģ
åħ §
J ack
ëľ »
ë§ ·
ĠëĤĺíĥĢ ëĤ´
E st
Ġn it
Ġtradition ally
Ġbank rupt
Ġrare ly
Ġc rops
Ġìķ ±
ë£¨ ìħĺ
Ġvict im
Ġb oss
ĠìĿ´ìłĦ ìĹĲëĬĶ
Ġt y
ĠB ach
ĠTrans l
writ ten
Ġê°Ģ ë¯¸
Ġëĭ¹ìĭľ ìĹĲ
Ġident ical
Ġë§¤ ìŀ¥
ĠP rest
ĠTod d
at on
ĠSom ers
ë§ Ľ
ie u
Ġë¦¬ ê°Ģ
åŃ «
ĠìĨĮìĦ¤ ìĿĦ
ĠìĨĮ íĻĶ
íĿ Ķ
åĪ ¤
m other
ĠE mm
Ã© d
ĠChe ster
Ġtrib ute
Ġf at
ìĤ¬ ìŀ¥
Ġphot os
ì¤ĳ ìĭ¬
ĠìķĦëŀĺ ìĹĲ
Ġtal ent
ĠìĿ¼ ìĿĢ
æ² »
Ġìľ Ĺ
ars on
Ġev ac
Ġsuit able
on ial
ä¹ Ŀ
Ġacqu isition
ĠìŀĲ ë¬¸
Ġê°ľ ìŀ¥
íĮĲ ìĿĢ
Ġbi ological
Ġc attle
ĠCo ach
ĠëĤĺíı´ëłĪ ìĺ¹
Ġb ishops
ent ry
ĠìĿ¸ ìĥģ
ë¶Ħ ìĦĿ
Ġper mission
Ġëį°ìĿ´íĦ° ë¥¼
tr acks
ĠA ìĿĺ
att a
act or
Ġìŀħ ìĿĢ
Ġìŀł ìŀ¬
ìļĶ ì½Ķ
ĠíķĺëĤĺ ê°Ģ
ĠìĿ´ë¡ľ ìį¨
íķ´ ìĹĲ
ìĪĺ ìķĦ
Ġê³µ ìłķ
Ġë³Ģ ìĭł
Ġë°Ŀ ìĿĢ
ĠëıĦìĽĢ ìĿ´
if ies
Ġcan al
ĠBro oks
Ġgraph ics
Ġw el
ĠìľĦ ìĹĲìĦľ
b en
ĠëĤ¨ ëħĢ
Ġcl ock
Ġman age
ĠìĨĮ ìĭĿìĿĦ
ëĬ¥ ëł¥
Ġë³µ ìĪĺ
% ).
m aking
am ine
ut o
ĠìĤ¬ íĺķ
ĠíļĮ ìĤ¬ìĿĺ
Ġvers e
Ġsurv ive
Wh ite
Ġìłķ ë¥ĺ
Le ague
ĠFer r
V al
ĠS ex
ĠF ellows
ìĬ¹ ê°ķ
ĠMean while
g un
Ġc odes
ãģ ¦
Ġtour ist
Ġíĥĳ ìĬ¹
n ick
Ġf ill
ĠM ort
ãĢĭ -
ĠìĤ´ìķĦ ëĤ¨
h arm
Ġb right
ĠëıĻ ê¸°
Ġte eth
Ġev il
ëł¬ íķľ
l ive
ĠA aron
Ġì± Įë¦°
Ġopp onent
Ġì·¨ ë¦¬íŀĪ
Ġ18 30
ë³¸ ìĿĦ
Ġì¼ĢìĿ´ ë¸Ķ
Ġcon stitutional
ìĹ´ ìĿĦ
Ġë°ľíĳľ ëĲĺìĹĪëĭ¤
Ġê°Ħ ëĭ¤
íĥĢ ê°Ģ
Ġê³µìĤ° ëĭ¹
Ġcle arly
b ul
Ġto mb
Ġdec isions
He ad
çī ©
Ġc argo
ĠJ ava
ìŀ¬ ìľĦ
Ġout er
ĠìĬ¤íĥĢ ìĿ¼
ĠPet e
æ¬ Ĭ
ìŀĲíĿĲ ìĬ¤íĥĦ
ĠìĿ´ ì§Ħ
ĠV iol
Ġmar ks
ëĤĺ ë¥¼
ĠíķĺëĤĺ ëĭĺ
ë§Į ìĽĲ
Ġë¬´ ë£Į
Ġê²Į ëĭ¤ê°Ģ
ĠQ ual
Ġhigh light
Col umb
av ia
ìĤ° ë§¥
Ġìķŀ ìľ¼ë¡ľ
ĠPhil osophy
An n
Ġl ibr
Ġathlet ic
ĠESP N
G ood
Ġa st
Ġíģ¬ ë¦¼
Ġexp ect
ĠTrans it
Ġag ree
íħĮ ìĬ¤
ounc ill
Ġê°ķìĽĲ íĬ¹ë³ĦìŀĲì¹ĺëıĦ
ĠS uz
ĠC IA
ĠìĿ´ íĸī
Ġë°ľ ëłĮ
Ġëª© ìĪ¨
Ġì²Ń êµ¬
Ġëį°ë·Ķ íķĺìĺĢëĭ¤
Ġphot o
Ġcircum stances
Ġb rick
Ġìĺ¤ ë¹ł
ìĬ¬ ë¦¼
Ġì£½ ìĿĮìĿĦ
ĠGro ve
è² ŀ
M ult
k t
Ġìĭł ëıĦ
ëĭ¤ ëĭĪ
ìĤ° ìľ¼ë¡ľ
ĠìĿ´ë¥¸ ë°Ķ
ĠR oth
ĠíĽĦ ìĿ¸
ĠÃ ģ
Ġìĭł ìŀ¥
ĠF aith
Ġê°ľ ìĿ¸ìĿĺ
Ġinn ings
rep rene
ëĨ Ī
ili ar
ĠìĿ´ ëĵ¤ìĿ´
ì¤ĳ ìĿĦ
ĠCamp aign
ĠHug hes
Ġmag ic
B o
ĠíĬ¸ ëŁ¼
om i
ìķĦ ëŀĺ
ì¸µ ìĹĲ
Ġlaw yers
ĠìĿ´ìļ© íķł
Ġw ard
ë¡ľ ì§Ģ
art et
ĠR NA
Ġdi ocese
ĠìŀŃ ìĬ¨
S H
ĠM ik
ĠìĿ¼ ì»
Ġëª¨ ìĿĮ
Ġer ror
ĠìĪĺì¤Ģ ìĿĺ
ĠJ ar
ëª¨ ë¡ľ
cel and
f amily
ë©Ķ ë¥´
ĠìĹħ ë¬´ë¥¼
Ġ185 9
Ġclos ure
Is rael
ĠHig her
ĠìķĮëłīìĤ° ëįĶ
Ġ10 6
Ġmin i
ëıĻ ìĭľ
Ġìľł íķĻ
onom ous
ĠìĿ¼ì» «
G N
he nt
ad ows
ê³µ ìĿĦ
ìĨį ìĿĺ
ir ts
ê³Ħ íĨµ
Ġaccess ible
Ġìļ° ë¦¬ê°Ģ
Ġind ex
Ġinc idents
íĻľ ëıĻìĿĦ
Ġestablish ing
ĠìĿ´ ìĪľ
ëĭĪ ê¹Į
ĠAl ger
Ġconn ects
ä½ Ľ
ĠDev il
ĠUnivers e
Ġì£¼ ì§Ģ
ĠìĪľ ìĦľ
re a
ancell or
t wo
ëĲĺ ê²Į
ĠK il
Ġresear chers
19 01
Ġr andom
ì¹¸ ìĦ¼
Ġìĭ¸ ìļ°
ĠBat man
ĠP y
ê´Ģë¦¬ ìľĦìĽĲíļĮ
Ġunivers e
Ġê¾¸ ì¤Ģ
ëĶ° ëĿ¼
íħ Ģ
íĸĪ ìĹĪëĭ¤
Ġìĭ¬ ìŀ¥
ĠìĿ´ë¥´ ëłĢëĭ¤
Ġìĭ« ìĸ´
Ġcl ar
ia z
end ers
ĠHe aven
ograp hers
ĠML B
ert iary
U M
i w
ĠM uch
ìĥĿ ëªħ
ĠBro s
ìļ°ì¡°ìĹ° ìĥģ
. ).
ê³ł ì¿ł
Ġ5 000
ĠìĹ¬ ìĭł
Ġê°Ģê¹Į ìĿ´
Vill ages
Ġconcern ing
C ity
f in
ec a
Ġbrig ade
ì§ ±
Ġus age
åŁ º
Ġper ce
Ġnickn ame
ĠìĤ¬ ëıĦ
Ġdiscuss ed
st and
Ġìļ´ ìĨ¡
ĠF lying
ĠìĨĮ ìļĶ
Crit ical
æ Ł³
ëĵ± ìĿ´
ëĳ ł
Ġíķ¸ ëĵľ
ĠìķĦ ë²ł
ĠìķĶ ì»·
ë ´Ħ
Ġc a
Ġìŀħ ìĤ¬
ĠëĦ£ ìĸ´
ĠPed ro
ĠM ang
ĠSh ang
AR T
ìĬ¤ì½Ķ íĭĢëŀľëĵľ
å Ķ
Ġíķľ ìĸĳ
Ġsympt oms
Scot land
íŀĪ ë©Ķ
ĠëıĻ íĻĶ
Ġë¬¸ìłľ ëĬĶ
Ġcomment ed
Ġex it
Ġcommun ications
Ġì¶ľìĹ° íĸĪëĭ¤
Ġëªħ ìĭľ
Ġìŀ¬ ë£Į
Ġëĵľ ë¬¼
ĠG ate
ĠêµĲ êµ¬
ae us
Ġê³Ħ ìłĪ
Ġgener ated
ĠíħĮ ìĿ¼ëŁ¬
ìľ¨ ìĿ´
ocr acy
Ġs ang
ĠR T
ìĦ¸ ì¸ł
Ġìĭł ìļ©
ë¡ł ìĹĲ
e ing
Ġor n
Ġcons ervative
ë¹ µ
b as
ed e
Ġm o
ĠSt ories
IN G
ì¦Ī ëĭĪìĬ¤
Ġë©¸ ì¢ħ
Ġimplement ation
B ob
ĠD rama
Ġincre ases
ĠìĿ¸íĦ° íİĺìĿ´ìĬ¤
Ġpers u
Ġb in
Ġhe ir
ĠCh a
Ġìµľ ëĮĢìĿĺ
St r
ĠìķĦ ê°Ģ
ĠV illa
Ġchar ity
ĠLeon ard
Ġp ip
ĠW ag
ĠëıĻìķĪ ìĹĲ
Ġë²Į ìĸ´ì§Ħ
Sh ort
ĠPe ak
ĠìĿ¼ìľ¼ ì¼ľ
ĠArab ia
ê¼ ´
ĠP ink
Ġì¶Ķ ëĿ½
on ed
Ġê·¸ëħĢ ë¥¼
Ġunc ertain
ĠëłĪìĿ´ ë¸Ķ
Ġbeaut y
ĠìłĦ ìĽĲ
ë¦¬ì¼Ģ ìĿ´ìħĺ
Ġê°Ģ ìĤ¬
ë°ĺ ìĿĺ
ĠDe uts
Ġë¯¸ ì¹´
ĠìĹĲ ëĶĶ
az i
ĠíķŃ êµ¬
ĠìĿ´ìĥģ ìĿĦ
ê²ĮìĿ´ ë¨¸
os exual
Ġhonor ary
ê¸° ëıĻ
ìĤ¬ ì¶Ķ
Ġanim ation
k ar
ep hew
Ġì¶ľìĭł ìĿ´ëĭ¤
Ġtre nd
ĠGuard ian
Ġìļ° ìĿµ
ë¦Ħ ìĿ´
Ġtreat y
Ġstret ch
V I
ëĤ´ ìĿĺ
Ġê¸ī íĸī
ëģ¼ ë¦¬
Ġib n
Ġ >
vel t
iz ard
ĠíķĻ ìŀĲ
Ġd iver
ìĭ¤ ë¡Ŀ
Ġëª» íķĺìĺĢëĭ¤
ĠS old
ge bra
r ates
ìķ¼ ìĬ¤
Ġbut ter
Ġform ula
ĠìĻĢ ì¹´
éĽ ²
ë£¨ ê³¼
íķľêµŃ ëĭ¹
Ġëį°ë·Ķ íĸĪëĭ¤
h is
Ġm amm
ĠìĽĲ ìĿ¸ìĿ´
Ġearn ing
ro us
ĠT ong
ĠìĹħ ëį°ìĿ´íĬ¸
Ġì¶ķ ìĨĮ
Ġassist ed
ĠNash ville
Ġacknow led
Ġab olished
F ore
ëł ģ
ìĻ Ī
ìĺģ ìĿĦ
Ġen roll
Ġì´Ī ê¸°ìĹĲ
Ġcreat ive
Ġon going
Ġë§¤ ê°ģ
i ens
Ł Ī
Ġl ayer
ëĶĶ ìĸ¸
ĠíĥĢ ìļ´
ĠìĦ¤ë¦½ ìĿ¸ê°Ģ
189 5
ìĭľ ìłĪ
Ġcomp ens
ĠPar ks
Ġê³³ ìĿ´ëĭ¤
ĠWell ington
ov ina
ëª ¸
Ġm eat
ĠO wen
od ay
g ary
ĠB our
ĠN at
Ġë³´ ë¥´
Ġë¶ģ ìķĦë©Ķë¦¬ì¹´
ĠFried rich
ë©Ķ ëĭĪìķĦ
Ġgu ests
ĠArgent ine
ĠIraq i
Ġal ter
Ġpl ain
Ġim perial
az ar
arch ive
ĠSask atchewan
A v
f irst
Ġf ra
Ġcross ed
Ġê°Ģ ëĿ¼
ĠAc cess
Ġtemper atures
m ir
ĠìĤ¬ëł¹ ê´Ģ
l en
Ġìľł ì¹ĺìĽĲ
ì½Ķ íĨł
Ġview ers
Ġë§¨ ì²´ìĬ¤íĦ°
Ġê± ·
ĠM ut
Ġsett lers
Ġhous ed
ĠíķĺìĹ¬ ê¸Ī
íĬĢ ë¥´íĤ¤ìĺĪ
13 0
Ġh app
Ġth ir
Ġê² ī
ĠëĶĶ ì¦ĪëĭĪ
ĠCP U
o fficial
if ts
Th ree
Ġëħ¸ëıĻ ìŀĲ
íĪ¬ìķĦ ëĭĪìķĦ
Ġbe ating
ĠInter view
ĠW or
ëĦ ¥
ĠìĦ¸ íĬ¸
ìŁģ ìĿ´
ì ¥¬
ìĺ Ľ
ë¡ľ ëĭĪ
ĠëĤ´ ëĨĵ
ĠìĹĶ ëĶ©
Ġs isters
ĠGu itar
ìºĲ ìĬ¤íĮħ
d al
Ġdo ors
es ch
Ġê°Ģ ëĤľ
ap pe
qu est
off s
Ġëŀ ¨
ĠìĤ¬ê±´ ìĹĲ
om o
Ġor che
ĠíĮĮ ìĥĿ
ĠBruns wick
Ġë§Ī ìĤ°
Ġë§Ĳ íķ´
ĠPro file
ingu ished
ri ft
Ġviol ent
h all
ĠíĮ¨ íĦ´
Ġpark ing
ĠK rist
ç ħ
ĠìĤ¬ ì¹´
ë² ¼
Ġref ere
ĠRh odes
Ġdisplay ed
Ġathlet es
ìķĪ ìĿĢ
ĠëĮĢ ëĮĢ
ì¹ĺ ìĻĢ
Ġs ight
im en
Ġë¦¬ ëĵ¬
Ġë¶Īê°Ģ ë¦¬ìķĦ
ĠStr ateg
Ġanth rop
D et
h ttps
Ġs aved
ĠE ight
Ġtem ples
Ġinterpret ation
ĠN ott
I reland
ë°Ķ ìķ¼ìĭľ
Ġsc ores
ah an
ĠìĤ¬ íļĮìĿĺ
Ġun ions
Ġrece ives
ĠìłĦíĪ¬ ë¥¼
ĠRay mond
ĠCard inals
ĠìĬ¤íģ¬ ë¦°
ĠJ unction
ĠëŁ Ń
Ġb ull
ëŀĢ íĬ¸
ĠìķĦë²Ħì§Ģ ê°Ģ
ĠB elf
ĠJ ur
ĠëĤ´ ìĦ¸
Ġë°ľìĥĿ íĸĪëĭ¤
ĠL ag
elf are
CA CAF
ë§Ī ëĬĶ
ĠGe off
Ġcompar ison
Ġê³µ ê¸°
íĤ¤ ê°Ģ
Ġë¦¬ ìĬ¤íĬ¸
AT O
á ĥ
on so
Ġk ings
ìĻķ ìĿĢ
Ġë¹Į ë¦¬
Ġå ī
Ġcarri es
ë°Ģ íķľ
Ġêº ¼
ĠCelt ic
Ġs ung
Ġswit ched
U r
ĠR ams
ĠìĺģíĻĶ ìĿĺ
Ġë°© ìľĦ
Ġret reat
ĠWith in
Ġnovel ists
èĩ ª
ĠW atch
ìĹ¬ ê¸°ìĦľ
ic ity
Ġnovel ist
ĠPo etry
ĠS ang
ì£¼ ê³¡
Ġì£¼ìŀ¥ íķĺëĬĶ
Ġìĩ¼ íĬ¸
ĠYank ees
L O
Ñ Į
Ġ10 4
ĠíĸĪ ëĬĶëį°
ĠDes ert
Ġå ½
Ġarrang ements
ĠìĦ¸ ìļ°
Ġíı¬íķ¨ ëĲľ
ĠìĦ±ê³µ íĸĪëĭ¤
Ġì°¨ì§Ģ íķĺê³ł
æĹ ı
æ İ
ìļ´ íĬ¸
Ġì°¨ ê´Ģ
Ġëĭ¬ìĦ± íĸĪëĭ¤
g rade
ĠR overs
ì¹ĺ ë£Į
s econd
Ġf asc
Ġindust ries
ìĪŃ ìĿ´
ĠS Ã£o
Ġto ol
Ġland ed
Ġhel ps
ĠìĽĲ íķĺëĬĶ
ĠS oph
Ã ½
ĠSp encer
Jos eph
Ñ ĭ
ìĤ¬ ìŀĲ
ill es
Ġìĭ¤ ëĤ´
ë¹Ħ ìĻĢ
ë©ĶìĿ´ ìłĢ
Ġinterview s
P e
en ic
ĠR aid
Ġr ated
ph is
ìħ ¨
Ġì´Ī ê¸°ìĿĺ
ic as
ĠìĦľ ìĦľ
íĶĮ ëŁ¬
ëł¸ ìľ¼ë©°
ĠAnt i
189 6
Ġê¸´ ê¸ī
Ġbelong ing
ë¡ľ ìĹĲ
ĠìĪĺìĥģ íķĺìĺĢëĭ¤
Ġì¶ľìłĦ íķĺìĹ¬
Ġm all
Ġv ow
Ġíķ´ ë°ľ
ĠAdvent ures
ĠìĤŃ ìłľ
Ġdiam eter
r h
is en
el o
íĨł ë²¤
Ġìłķë¶Ģ ìĹĲ
Ġë³´ íİ¸
ĠëıĦ êµ¬
Ġë¶ģ ìª½ìľ¼ë¡ľ
Ġê³¤ ì¶©
ì§Ģ ëªħ
ĠV S
Ġbroadcast s
ê¸° ìŀĲ
Ġê°ķ ìĪĺ
Ġdescrib ing
ì© Į
Ġare na
s up
ov ich
ĠìĨĮ ê·ľëª¨
Ġto t
íĽĦ ì§Ģ
Ġë°° ìłķ
ĠAr g
Ġsup press
ĠMad ison
ĠWeek ly
ĠBl ock
Ġactiv ists
Ġ rib
Ġë° ¸
êµŃ ë¦½
Ġcon greg
ê²Į ëĬĶ
ê²½ì°° ìĦľ
it ic
ĠD ra
ĠíĻľ ìĦ±íĻĶ
yl er
ĠE sc
ĠO pp
Ġcent res
ĠArch ives
Ġ els
19 03
Ġlin ear
ìĹŃ íķĻ
Ġê°ľ ì²Ļ
Ġrul er
ear ing
ĠPan ama
Ġexec ution
ĠGard ens
Å Ļ
ĠY ang
il ian
ĠU g
ëį´ ë§Īíģ¬
ìī ½
Ġëªħ ëªħíķľ
ĠëıĮìķĦ ìĻĶëĭ¤
ë§Ĳ ë¡ľ
F re
Ġv ul
ĠëıĻ êµ¬
ĠìĤ¬ ê°Ģ
ìŀ¬ ìĿ¸
ĠêµĲ ì°¨
ëĦ¤ ê°Ģ
Ġíĭ Ī
Ġíľ´ ëĮĢ
Ġlab els
ĠFin ance
Ġë§Ī ëĿ¼
Ġê´Ģ íķĺìĹ¬
Ġab ilities
Ġb ay
Ġìĺģíĸ¥ ìľ¼ë¡ľ
Ġattempt ing
ed o
Ġêµ¬ ë¯¸
Ġëĭ¬ íķĺëĬĶ
ì°½ êµ°
ĠíħĮ íģ¬
Ġëĵ¤ ë©´
Ġs ugar
ter bury
ì§ĳ ìĿĦ
ë§Ī ìĤ¬
íĻĪ ëŁ°
R ugby
ĠC ant
ĠìĤ¬ ë§ī
ì¦Ī ë¥¼
ĠAzerbai jan
P an
Ġg auge
Ġìļ© ìĸ´ëĬĶ
ĠQu arter
Ġo verseas
le e
Ġre op
est y
Ġê´ĳ ë³µ
ĠV ict
Ġj u
Ġp ul
ĠìĪĺ ë°ĺ
ĠëĮĢë¶Ģë¶Ħ ìĿĦ
Ġì§Ī ëŁī
æ ĭ
Ġal ive
Ġëª¨ ë¡ľ
Ġwalk ing
t z
ĠëĤĺíĥĢ ëĤľ
ìľł ë¥¼
Ġìľł ìļ©
ì¹Ń ìĿĢ
r ub
ĠìĿ¼ë³¸ ìĸ´
bro ok
Ġëª¨ ìŀĦ
Ġorgan ised
Ġ185 7
ìłĦ ëĮĢ
red it
Ġsynt hes
Ġíķĺ íĬ¸
ĠìĤ° íĻĶ
l ia
íķ© ëĭĪëĭ¤
Ġëªħ ìľ¼ë¡ľ
Ġëıħë¦½ ìĿĦ
ĠR A
ê²½ê¸° ëıĦìĿĺ
ĠAnn ual
ĠìĹ¬ ìĪĺ
ìļ´ íĸī
íķĺê¸° ìĹĲ
Ġê²© íĮĮ
ip ino
Ġë¶Ģ ë¥´ê³ł
íĶĦë¡ľ ê·¸ëŀ¨
Ġfarm ers
ĠWat son
t ains
or um
Ġev olved
ĠGu ild
Ġë³´ìĹ¬ ì£¼ëĬĶ
ĠëĤ¨ìķĦ ìŀĪ
Ġê¸°ë°ĺ ìĿĦ
æ³ °
ĠConfeder ate
f our
ĠM oses
Ġelectric ity
Ġìĺģ ìĸĳ
Ġë¹Ħë¡¯ íķĺìĹ¬
W eek
ëħ¸ ìĿĺ
Ġìµľ ìĥģ
Ġphys ician
it us
ĠìĬ¤ íĥĪ
Ġëª» íķľëĭ¤
yl an
B ro
R em
Ġrest ricted
v ia
Ġê³łëł¤ ëĮĢíķĻêµĲ
Ġë± ħ
ĠS ierra
ĠFran Ã§
Ġâ Ĺ
ĠThere fore
ĠPer th
Ġlo op
Ġenem ies
d ist
ĠB ak
Ġì§Ģ ë°Ķ
Ġcr uc
ĠíĬ¹ì§ķ ìĿĦ
ì¡°íĮĲ ìĦľ
Ġs ket
ìķĺ ìľ¼ëĤĺ
Ġíķĺ ê¸°ëıĦ
ë²ł ë¥¼ë¦°
Ġexp ensive
ê°Ģ ìŀ¥
íķĻ ìĤ¬
Ġì§ĳ ìĿĦ
ĠCr uz
Ġë¹ĦíĮĲ ìĿĦ
duc es
Ġíĺ¸ ëĬĶ
ê·¼ íĺľ
ĠìľĦì¹ĺ ìĹĲ
Ġìķķ ì¶ķ
l iga
Ġe lementary
Ġpre ferred
Ġë» Ĺ
Ġphr ase
ìľ Į
Ġv el
ê³Ħ ë¡ľ
Ġë§Ī ê°Ĳ
Ġë§Į íĻĶê°Ģ
Ġarr ives
Ġr ising
ĠHar per
ĠLeg end
IV E
Ġê°Ģ ê³µ
Ġvert ical
Ġadvent ure
ip eg
æº Ĳ
ĠíħĮ ëĭĪìĬ¤
S ur
ĠC ome
ĠL ess
ĠK iss
Ġcomment ary
ç§ ĳ
M or
il o
Ġg ate
ra h
ĠëĿ¼ìĿ´ ë²Į
Ġf ib
Ġìĭľ ë¦½
ric ulum
Ġìŀ¥ íİ¸
ë©Ķ ìĿ¸
Ġexp and
Ġav o
ĠB orn
Ġcorrespond ing
èĢ ħ
ĠErn est
ĠíİĺìĿ´ìĬ¤ ë¶ģ
ĠO wn
ë³´ ë¡ľ
over ty
ĠCl are
Ġfl ights
ìĪĺë¡Ŀ ê³¡
ë°Ķ íĿĲ
Ġwrit ings
Ġt ape
Ġë¯¸ ì¦Ī
ĠìĨĲ ìĹĲ
ĠMar io
ĠR ah
Ġcon fess
Ġê°Ģ ìĵ°
ĠíĨł ëĭĪ
¾ °
ĠíĺĦ ìŀ¥
Ġëį° ëł¤
ins ky
Ġfund ed
Ġels ewhere
Ġdep icted
el ed
Ġìĭľìŀĳ íĸĪê³ł
ãĤ ¿
Ġge omet
Ġcab inet
é £
ĠP ath
Ġë§Ĳ ëĿ¼
Ġide al
ĠëıĻ ê²½
ìĿĮ ëł¥
Ġë¯¼ ìĺģíĻĶ
ion ed
ĠR he
Ġë§ĪìĿ´ íģ¬
M a
c os
Ġm arch
ĠStan ford
íĹ¬ ë¦Ħ
ĠM ills
ĠK rish
ë³´ ìĿĺ
sen al
ëŀĢ ëĭ¤
ĠTra vel
z ig
ìĬ¤ íĭ´
ĠìĤ¬ ëĭ¤
íĺķ íĥľ
Ġf er
ìĪĺ ìĹĺ
Ġìľł ìĦ±
Ġìĭł íķĻìŀĲ
Ġê°ķ ìļĶ
Ġmet ropolitan
íĮ© íĬ¸
C R
Ġrec ruit
Ġì§Ħ íķĻ
íķĦ ë¦¬
Ġaccom p
ĠEconom ics
Ġsh ops
Ġíķ´ ìłģ
Ġsong writer
æĻ ¯
ĠìĹĺë¦¬ìŀĲ ë²łìĬ¤
C ath
l ights
it an
ess ed
Ġë¶Ģ ëĵľ
ĠìĦľ ìª½ìľ¼ë¡ľ
é Ĭ
ëł ·
Ġun like
ĠìĹĲ ìĬ¤íĮĮ
ĠDemocr ats
Ġê »
Ġf itted
ĠT ales
ìľł íĸī
Ġcon clusion
ê´Ģ ê³Ħë¥¼
man ia
Ġsim pl
ut a
ess e
ĠV II
Ġgro ss
ose velt
Ġì¹ĺ ëłĢëĭ¤
Ġë¡ľë§¨ ìĬ¤
M att
Ġìºł íİĺ
ĠA j
Ġpro x
ĠìĤ¬ê±´ ìĿĢ
ĠWork ers
ĠÄ Ĳ
Ġin tern
Ġcon stitute
ĠìĹ° ê³ł
ĠHer ald
ĠO cc
Ġíķ´ ìłľ
ĠíķĻ ìĽĲ
ourn als
ĠìĿ¼ ê³±
ç ĳ
um ps
ĠK ath
Ġì»¤ íĶ¼
ĠA A
Ġê¸° ë¶Ģ
ë¶Ħ ë¥ĺ
Ġper mitted
ê±´ ì¶ķ
íķľêµŃ ë°©ìĨ¡
ĠJ oint
ĠìĦ¸ ë¶Ģ
ì¡± ìĿĢ
ĠHar bor
ĠNap ole
æ Į
le ph
ĠìĹĨ ì§Ģë§Į
ĠíĨł ë¨¸ìĬ¤
äº ķ
ìŀĲ ë§¤
ĠìĿ¼ ì¢ħìĿĺ
Ġë¯¸ íĤ¤
Ġì§Ģ ìĹ°
Ġíĺ ¹
tern oon
ĠG ust
ì¦Ī ë²ł
ĠëķĮ ë§Īëĭ¤
Ġprop ag
cy cle
Ġclin ical
Ġch rom
Ġun less
Ġh ills
Ġë°± ìĦ±
ĠëıĻìĦ± ìķł
ĠìľĦ ìĥģ
Ġh idden
ĠO g
ë³ĳ ìľ¼ë¡ľ
ĠëĮĢíķľë¯¼êµŃ ìĹĲìĦľ
d irect
ĠìłĦ ìĪł
Ġì¹¼ ë¦¬
ij ing
Ġprepar ation
ok u
ëĿ¼ ëį¸
E X
19 02
Ġê¸° íķĺ
ìĭ¬ ìĤ¬
ĠìĹŃìŀĦ íķĺìĺĢëĭ¤
Ġbrand s
Ġd atabase
ĠìĿ¸ ë¥ĺ
ê²½ ìŁģ
íĮĮ ìĻĢ
ĠíĶĦë¡ľ íķĦ
åŃ Ĺ
Ġsumm ary
ĠS ullivan
Ġst ops
an im
ëħĦ ë§ĮìĹĲ
Ġëª¨ ëĭĪ
ĠMont gomery
mon th
+ +
i eth
ĠF ras
ĠëĤĺ ìĻĶ
ans k
ĠAb u
Ġp unk
ãģ ¾
ĠíĶĦëŀŃ íģ¬
ê¸° ìĿ¸
D ay
ìĿ´ ë¦Ħ
ĠìŀĪìĸ´ ìķ¼
Ġtempor arily
ol and
Ġle af
Ġrequ ested
ĠPlay ers
Ġcirc le
ë°ĶìĿ´ ëŁ¬ìĬ¤
ë©ĶìĿ´ íģ¬
ĠìĨĮìĨį ìĿĺ
¼ ìĨĲ
íķĺ ëĬĺ
Ġìķķ ëıĦ
ĠWild life
Ġìłģê·¹ ìłģìľ¼ë¡ľ
ìłģ ìĿ´ë©°
çİ ī
ĠPlay Station
ëĵ±ìŀ¥ ìĿ¸ë¬¼
ĠOr d
ĠSocial ist
ĠìĿ¸ ëıĦìĿĺ
Ġë¬´ ëĿ¼
ev en
ì¼Ģ ìĿ´ìħĺ
ĠíĨł ìļĶìĿ¼
Ġdisc rim
Ã¤ r
ĠCorn wall
ë¬´ ëĮĢ
ij a
Ġre venue
ĠP ut
ĠO F
Ġì¹´ ëĤĺ
ĠíıŃ ìĬ¤
Ġillust rated
ĠìķĬ ê¸°
Ġspe akers
ĠìķĦëŀĺ ìĻĢ
Ġhor iz
ĠS D
ëĿ¼ìĿ´ ìĸ´
Bas eball
Ġíķľ ë°ĺëıĦ
ìķħ ìĿĺ
Ġaff air
Ġëª¨ìĬµ ìĿ´
Ġham let
ìĤ¬ì¶Ķ ìĦ¸ì¸ł
S al
Ġm al
ĠìĿ¼ ëĮĢ
íıī êµ°
ĠìĬµ ê²©
ic he
ĠG ene
Ġengine ers
Ġsound s
Ġrang ing
ĠR us
Ġì¤ĳ ìĦ±
Ġout standing
Ġlog o
R ivers
Ġëª© ìĤ¬
Ġê³ °
íĺ¸ ìĹĲ
n on
æ ı
on ica
Ġpract ical
ĠìĪĺ ë¥¼
ìĺ¤ ë¥´
ëŁ¬ ìĬ¤íĬ¸
ĠìĹ° ìĦ¸ëĮĢíķĻêµĲ
ie ve
åĪ Ĩ
G reat
O h
Ġìłģ ìĿĳ
Hen ry
ra ve
Ġìĥģ ì£¼
Ġsl ave
ĠëĮĢíĳľ ìĿ´ìĤ¬
Ġgold en
id i
ĠSch w
ch o
ĠW als
th rough
all ing
ĠRes ources
Ġpost er
Ġë³¸ íĨł
ĠIs le
å° Ļ
Ġph osph
Ġanal og
Ġm it
ĠíĥĦ ìķķ
ĠíĶĦë¡ľ ë¦¬ê·¸
ĠHit ler
Eng land
h in
ĠLux embourg
ĠìĨĮ íĺķ
ãĤ «
ìĤ¬ê´Ģ íķĻêµĲ
Ġfif teen
M ah
é ľ
Ġê²Į ìĭľ
Ġsl aves
B B
Ġass ists
ë¡ľìĦľ ëĬĶ
Ġtourn aments
ãĥ³ ãĥ
ĠíķľêµŃ ë°©ìĨ¡
ro e
ĠD elta
ĠPal mer
Ġsy mp
Ġíıī ìĥĿ
ĠíĮ¨ ëŁ¬
Ġrespect ive
Ġlat est
ìĨį ìĹĲ
te am
Ġêµ° ëĮĢ
a ude
g roup
ìĭľ íĶ½
ĠF u
ĠF olk
Ġres id
Ġdr ink
ĠLeg ion
Ġwid er
Ġê¸°ìĹ¬ íĸĪëĭ¤
íĮ Ŀ
Ġì¢ĭ ëĭ¤
Ġc emetery
Ġtop ics
Ġë¸ĮëĿ¼ì§Ī ìĿĺ
Ġ( '
ab ul
Ġë§Ĳ ë¡ľ
Ġdial ect
Ġê¸° ì§Ģ
Ġpurs ue
ĠF iction
ĠìĨĲ ëĭĺ
Ġëľ» ìľ¼ë¡ľ
Ġê°Ī ìĥī
ĠíĶĮëłĪìĿ´ ìĬ¤íħĮìĿ´ìħĺ
ĠìĿ´ë²¤ íĬ¸
Ġê°ķ íķĺê²Į
ĠíĶ¼ ê²¨
ĠíĻ© íĽĦ
Ġmarg in
f urt
ĠH at
ìķ½ íĴĪ
Ġvis its
ì´Īëĵ±íķĻêµĲ ë¡ľ
ĠìĿ¸íĦ°ë·° ìĹĲìĦľ
ĠëĭĮ íħĲëıĦ
íı¬ ëĵľ
ë©Ķ ìĿ´ì§Ģ
Ġextens ively
Ġpand emic
Ġt urb
ĠìľĦ íĤ¤
Ġform ations
Ġë©Ķ ê°Ģ
Ġwithd rew
Ġsust ain
Ġìłľ ëıĦë¥¼
Ġë³¸ê²© ìłģìľ¼ë¡ľ
p y
Ġì¡° ìļ©
ĠìķĬìķĺ ì§Ģë§Į
N Y
ĠìĪĺ ì§ģ
ë¸ĮëĿ¼ ì§ĪìĿĺ
ìĬĪíĥĢ ìĿ¸
Ġisol ated
ĠN athan
Ġhe nce
Ġêµ¬ ìŀ¥
ìłĲ ê³¼
íĿ¬ ìĿĺ
å» º
Ġíı¬íķ¨ ëĲĺìĹĪëĭ¤
ĠëĮĢíķĻ ìĿĺ
ĠìĿ´ìĸ´ ì¡Įëĭ¤
Ġb ath
ĠBre ak
Polit ics
ĠL ie
ìĪľ ìľĦ
Ġdiss olved
r age
Ġg ymn
Ġìłķ êµĲ
Ġê±° íĸī
ĠíĶĦë¡ľ ëįķìħĺ
ĠìĦľ ë¸Į
ë°Ķ ëŀĮ
ìĬ¬ ë¦¬
Ġê´Ģê³Ħ ë¡ľ
Ġì¢Į ìĿµ
ĠHen ri
Ġexerc ise
C T
Ġb ars
ëıĦ ëĭĪìķĦ
ĠF un
ìłķ ëıĦ
ê³Ħ ìĻĢ
ant om
Ġë¬¼ ëł¤
µ ìĿĢ
Ġê¹Ģ íı¬
Ġíİ Ħ
íħĮ ìĵ°
Ġê±¸ ì¹ľ
ĠÎ ±
c ano
è ĺ
ĠìĹĨ ìĿĮ
ĠAdv anced
ĠEag le
Ġall iance
ull ah
Ġë²ķ ìłģ
apt ers
ĠOb serv
n h
ëĪ ħìĬ¤
ë »
om es
ĠL or
ĠìĬ¤ íĭ°ë¸Į
Ġì§Ħíĸī ìŀĲ
Ġì£¼ë³Ģ ìĿĺ
Ġë¬¼ë¦¬ íķĻìŀĲ
Ġexpl an
Ġì°¨íĬ¸ ìĹĲìĦľ
ab out
ĠSy ria
Ġìĥģíĥľ ê°Ģ
Ġpartn ers
Ġsport ing
Ġw orn
ĠìĿ´ ëĤĺ
Ġê°ĸ ê²Į
Ġstrateg ic
Ġëį§ ë¶Ļ
ëĭ¤ ëŀĢ
ĠW here
Ġë°ľ íľĺ
ĠìĥģíĻ© ìĹĲ
æ² Ī
Ġmach ines
Ġinterp re
ĠTib et
íĦ° ëĦĲ
ĠíĬ¹ ê¸ī
ĠëĮĢíĳľ ë¡ľ
Ġext end
ì¹¨ ìĿĦ
qu arter
ĠíĬ¸ ëĿ¼
ĠHigh land
Ġst yl
Ġë³´ ì¢Į
ìĺ¤ ê°Ģ
ìĭ¤ ìĹĲ
Ġë¬¼ ê³łê¸°
Ġrespond ed
N on
ê¸° ê¸°
ê·¸ ëħĢ
Ġì§Ħ ê²©
Ġìĭ¤ ìĹħ
Ġdismiss ed
ĠD atabase
ëª¨ ìĸ´
School s
Ġn am
íĶĦ ìĻĢ
Ġì´Ŀ ê´Ħ
ĠìĦ¸ê³Ħ ë¥¼
ì¶© ë¥ĺ
ç ¢
Ġrem ote
Ġê·¸ë¦¬ ìĬ¤ìĿĺ
Ġsk ull
Ġsol ar
Ġcitiz en
ĠM alt
Ġë°©ìĨ¡ ëĲľ
Ġë§Ŀ ìĽĲ
èī ²
l ist
id en
ce ster
êµ° ëĭ¤
íĳ ¼
Ġs amples
Ġíĥ ±
Ġìĸ´ ëĳĲ
ĠSh op
Ġìļ© ìĤ°
Ġabs ol
ĠAh med
â ĸ
Ġ1 19
th at
Ġì¦Ŀ ìĸ¸
Ġëŀ Į
ĠMot ors
Ġê²½ ìłĦ
ìŀ¬ ë¡ľ
Ġtrans form
ê¸´ ëĭ¤
ĠWil helm
Ġê¸°ë³¸ ìłģìľ¼ë¡ľ
Ġhy brid
Ġs ulf
Ġíķ´ íĺĳ
Ġê³¼ ëıĦ
Ġìĭ¬ ì§Ģìĸ´
e lected
es ar
Ġscholars hip
Ġn a
und a
ib ilities
Ġearth qu
ĠNiger ia
ĠL ett
ĠJo an
ĠìłĢ ëĦĲ
ĠDou ble
ĠOak land
é ¢
Ġê° Ķ
ĠëıĻ ìª½ìľ¼ë¡ľ
ĠC ov
el ly
ac les
Ġco ached
Ġêµ¬ê°Ħ ìĿ´
æ »
Ġë©´ ìĹŃ
Ġì§Ģ íĺķ
ĠíĶĦëłĪ ìŀĦ
ĠAbd ul
Ġconvent ional
Ġê³ł ë¦¬
Re lease
Ġab oard
Ġexpl ains
ĠìĨĮ ì§ĳ
Ġê²½ê¸° ê°Ģ
ĠMond ay
à ®
ĠJ en
Ġë¬´ ê´Ģ
Ġë§ŀ ì¶Ķ
ĠE ld
end a
íĤ ¥
ĠíĶĦ ëŀľ
ĠêµĲ íļĮìĿĺ
Ġmer chant
ĠEnvironment al
9 00
Ġ æĿİ
ëĿ¼ ê¸°
Ġë¶Ļ ìĸ´
ĠLiber ty
íĪ¬ ìŀĲ
ĠRe ed
ëĭ´ ìĿĦ
ëĲ¨ ìĹĲ
Ġìłķ ë¬´
Ġcomp rehensive
Ġres ort
ëŀĢ ìĿĺ
ĠGab riel
Lou is
ĠM ade
ĠëĤ´ ì§Ģ
ìĦ¤ ë¦½
íĮĲ ìĹĲ
ĠìĪĺìĥģ ìŀĳ
Ġì¡°ìĦł ìĭľëĮĢ
ĠDav ies
Ġinit iated
ĠStud ent
l ag
Ġì§Ģ ì¹Ń
Ġr um
ĠíĽĦ ìĹĲëıĦ
) ãĢį
Ġê°Ģ ìķ¼
Ġìŀ¥ ê°ĳ
Ġrep ro
ë°ĶìĿ´ ìŀĶ
Ġwealth y
D irect
ìĿ¼ë³¸ êµŃìľłì²łëıĦìĿĺ
Ġlook ed
ĠW ings
ì°¨ ìĹĲ
Ġthere after
ĠAd vis
Ġopp onents
I ce
Ł ìķĦ
ìķĺ ì§Ģë§Į
if ier
ãĤ ¸
Ġê°ĢìĪĺ ìĿ´ëĭ¤
Ġreport ing
Ġë¶Ģë¬¸ ìĹĲ
ĠRena issance
Ġf ulf
ë³´ëĭ¤ ëıĦ
arch y
ĠCath olics
Bus iness
M ur
ëĶĶ ìĿĺ
ĠTh under
Ad m
ìĦ¸ê¸° ìĿĺ
Ġroc ks
L ike
Ġb orough
ĠK och
Ġìĭł íķľ
Ġdeliver y
ĠA I
Ġìłķ êµĲíļĮ
Ġexp osure
Ġë¯¸ ì¹ĺëĬĶ
ĠìĨĮ ëĵĿ
ĠTh ose
Ġfe ud
ìłľë¥´ ë°ĶìĿ´ìŀĶ
S oviet
u ador
ĠM idd
ì£¼ ì¿ł
Ġê³µ íķĻ
ĠìĹ´ ë§¤
ibl ical
qu is
ĠíĥĦ íķµ
Ġëª¨ ëħ¸
Ġê´Ģê³Ħ ìĹĲ
Ġl ig
ur se
Ġì´Ī ëĵ±
ĠCol in
Ġëĭ¤ìĿĮ ìĿĺ
Ġfun eral
Ġê° ĵ
ic ing
Ġl aps
Ġmanag ing
Ġres umed
ĠíĶĦë¡ľ ê²ĮìĿ´ë¨¸
ĠLuc as
j oin
Ġre vers
Ġcomp ound
Ġìĭ¤ ì¢ħ
Ġìŀħëĭ¨ íķĺìĺĢëĭ¤
ĠBenn ett
ĠCom bat
ãģ ı
d orf
Ġë³´ ìĬ¤íĦ´
Ġìĭł ê·ľ
Ġíı¬ ìĿ¸íĬ¸
Ġpric es
ĠVen ice
Sm ith
â Ļ
ĠK ids
ìĺĢ ëĬĶëį°
ìķĪ íĥĢ
Cent ral
ĠB ears
Ġë§Ī ì²ľ
Ġíĥľ ì¡°
ĠHer o
et ers
ĠëģĿ ìľ¼ë¡ľ
ĠRepresent ative
ĠìłĦ ìĦ¸ê³Ħ
íĤ¤ ìĬ¤
Bet ween
il is
Ġh ope
ĠNew ton
íĺķ ìĤ¬
ĠìĺĪ ìĻ¸
ãĥ ¬
ĠìĿĮë°ĺ ìĿĦ
ĠíĽĮ ë¥Ń
Ġdisb anded
g ence
ar u
ë¡ł ìłģ
ĠEv angel
ĠRel ations
ĠìķĦ íĮĮ
ĠOut standing
ĠìĿ´ ì¤Ģ
ìķĶ ìľ¼ë¡ľ
ĠAct ress
ĠN ine
ìĻķ ìĿĦ
åħ Ń
Ġappro ached
Ġì§ĢìĽĲ íķĺëĬĶ
Ġde emed
Ġê°Ĳ ìĺ¥
ĠArt ists
ĠìĿ¸ë¬¼ ë¡ľ
w eek
in ating
ëĨį ìĹħ
æł ¹
Ġperman ently
ĠíķľëĤĺëĿ¼ ëĭ¹
Ġì¤ĳ ëıĻ
Ġus ual
Ġì¢ħ ìĿ´
atter ed
Ġopt ions
ĠPr inceton
Ġz ero
Ġprem iere
g ments
æī ¿
Ġdescend ants
ĠHe ights
Ġì²´ íĹĺ
Ġsur pr
Ġê·¹ ë³µ
ĠVal ent
T ime
l ength
Ġ10 8
ĠìĦ± ê²©ìĿĦ
ĠFin ancial
ìĦłê±° êµ¬
Ġexclus ive
ë²Ħ ìĬ¤íĦ°
ê¸Ģ ëĿ¼
Ġì´Ŀ ìĦł
ĠC avalry
ĠĠĠĠ ĠĠ
ĠRh ode
om ed
ê°Ħ ìĿ´
ateg ory
Ġchem istry
S ec
ens ions
Ġë§ŀ ì¶°
189 9
ĠSomers et
íķ´ ë°©
Ġíı¬ ë¥´
ìĭ¤ ìŀ¥
Ġfoot age
ĠAndrew s
ĠRon ald
r ag
íķĺ ëĿ¼ëĬĶ
Ġn ephew
Ġcons olid
Ġíĸī ìľĦë¥¼
rup ted
Music ians
ëĭĪ ìĹĲ
pr us
ĠSch ol
Ġel dest
) ãĢī
Ġìŀ Ĭ
el en
Ġíķĺ ìķ¼
Ġinflu ences
ĠT ake
ë¦¬ ìĺ¨
ĠR ange
ĠëĮĢ ëĭ¤
ĠìŀĲ ê¸Ī
Ġì§ĳ ê³Ħ
Ġgu ar
Ġë°ĶìĿ´ ìĺ¬ë¦°
v or
ĠT iger
ĠìķĦ íĶĦê°ĢëĭĪìĬ¤íĥĦ
ĠíĽĦë³´ ê°Ģ
ĠPir ates
Ġnegoti ations
C or
o que
ĠMan it
ë¶ĦêµĲ ìŀ¥
Ġesc aped
ĠL ot
ìĪľ íĻĺ
Ġrecogn ised
ë¯¼ì¡± íĸīìľĦ
in os
ĠS ony
Ġë¶Ħ ëį°ìĬ¤
ĠLe ader
ĠSp art
Sw ed
Ġang le
Ġto urs
ĠìĹ´ ìĹĪëĭ¤
Ġì²Ń ì¶ĺ
åħ µ
Ġcontrol s
Ġvari able
Ġëĭ Ĳ
è į
Ġìļ° ëĿ¼
ëĭ´ ëĭ¹
Ġtravel s
Ġtr ump
Ġdev oted
ĠN y
ĠBelg rade
ĠìĿ´ ìŀĲ
Ġst em
Ġch ron
ĠìĺģíĻĶ ë¥¼
Ġfilm ing
íĪ ¼
H T
ì§Ģ ëĮĢ
im ates
Ġìĥģ ìĺģ
ĠìĿ´ ìľ¤
Ġslow ly
Ġë¹ħíĨł ë¦¬ìķĦ
Ġpredecess or
est e
Ġcampaign s
Ġë®¤ì§ģ ë¹ĦëĶĶìĺ¤
Ġmus cle
Ġìĭł ì¹¸ìĦ¼
Ġìłģ ìĸ´ëıĦ
ĠìĬ¤ìĽ¨ëį´ ìĿĺ
av ier
Ġì¿ ¼
ĠIsa ac
R ound
ĠìĪĺ ì»·
Ġê±° ëĮĢ
Ġê¸Ī ë©Ķëĭ¬
ĠëĮĢíķĻêµĲ ìĿĺ
Ġë¹Į ëĶ©
ĠF oot
êµ° ëĭ¨
Ġëļľ ëł·
ã Ħ
ëıĻ ë¦¬
ãģ į
ĠTre as
Ġì£¼ íĮĮ
Ġfarm ing
iv o
Ġcomp iled
ĠY ellow
ãģ ¯
Ġattend ance
Ġastr onom
ĠD aw
Ġê´Ģ íķ´
ĠíĶ¼ ê³ł
ĠìĤ¼ ê°ģ
om pass
Ġdes ert
ĠI celand
ĠV ent
Ġrecip ient
N G
ĠA ch
Ġë¯¸êµŃ ìĿĢ
í īģ
ìĤ¬ íķľ
ĠìĦ± ê³¼
ìľ¨ ìĿĢ
ìĹ¬ìŀĲ ì¤ĳíķĻêµĲ
ç Ĥ
ë¯¼ ëĭ¹
Ġëª¨ ëĵĪ
Ġë²ķ íķĻ
Ġvar iation
ĠìĽĶ ê°Ħ
Ġvocal ist
ĠP ent
Ġë§Ī ìĭľ
Ġë§Ī ë¦¬ìĺ¤
ĠSc ar
ì°¸ ëª¨
Ġë§ī ê¸°
ëłī ìħĺ
ĠMal ay
çļ Ħ
c ott
ì§Ģ íľĺ
ĠW ells
ìĿ´ëĿ¼ ë©´
ick en
ĠSl av
Ġg al
Ġch orus
tt o
æ¥ Ń
ĠìĹ° ìķĪ
ë¬¼ ë¦¬íķĻ
ìĭ¤ íķľ
ĠíĶĦë¦¬ë¯¸ìĸ´ ë¦¬ê·¸
âī «
ìĿ´ ìłĦ
Ġëĭ¨ íĸī
W ind
ĠAl tern
Ġcoll apse
Ġdepart ments
Ä Ľ
Ġf rog
ĠìĿ´ ìĿ¸
Ġsh ield
íŀĪ íĨł
Ġdec k
H am
ur rect
ëħ¸ ë¶Ģ
Ġë¬´ ìĬ¬ë¦¼
Ex t
ë¦¬ ìŀĲ
ë©´ ê³¼
ë³´ ê°Ģ
ë¶Ħ ìķ¼
Ġê°Ĳ ê°ģ
Ä ĩ
ĠM ol
íĦ° ë¯¸ëĦĲ
Ġ185 8
. ;
ĠC ond
em pl
ĠPr ison
Ġë¸Ķ ëĿ¼ëĶĶ
ĠìĿ´ë¡ł ìĿĦ
ĠìłķíĻķ íŀĪ
A cc
B R
Ġa w
Ġc avalry
ê¶Į ê³¼
add y
ĠâĪ Ĵ
C oll
ĠìĤ¬ ìĸĳ
Ġë¯¸êµŃ ìľ¼ë¡ľ
Ġê¸°ëĬ¥ ìĿ´
ĠEs sex
Ġav iation
ĠAnt ar
189 8
Ġelev ated
ë¦¬ ë¸Į
ĠìķĦ ì¦Ī
Ġë¦¬ ìĸ¼
ĠSh in
im mer
ust rated
ê¸° ì¤Ģ
ìĿ¼ ë¶Ģ
Ġìĸ¸ ëįĶ
O pen
Ġs we
ĠëĮĢ ì¹Ń
Ġm ilk
ĠC raw
ak k
Ġëª¨ ë¥´
Ġfl ash
Ġíĥľ ê¶ĮëıĦ
å® £
ac ional
est one
Ġch oir
Ġìļ° íİ¸
Ġr iding
ov sky
Ġìŀ¥ ë¡Ģ
ë±ħ íģ¬
D en
ĠS z
W S
Ġal ien
Ġpro l
Ġchar ter
ĠNorth west
Ġreleg ated
Ġre organ
ìłĦ ì£¼
ĠHind i
pir acy
ë¯¸ ìĻĢ
Ġc ave
ĠO scar
ë¬¼ ì§Ī
ë²ķ ê³¼
Ġpre st
Ġsub mitted
Ġne arest
ìķĦìĭľìķĦ ìĿĺ
Ġê²½ ê³ł
ì§Ģë°© ê²Ģì°°ì²Ń
M ary
c ock
s ize
Ġp ale
ĠRe form
Ġhistor ically
Ġë§¤ëĭĪ ìłĢ
Ġê°Ģ ì¹ĺë¥¼
Ġê²Į ë¥´
Ġmat hematic
Ġox ygen
ĠA ires
ĠìĿ´ ëħĲ
St ep
ĠìĹĶ ì§Ģ
ern ess
ĠìĹĲ ìĿ´ìĬ¤
r ary
ĠA th
ëıĻ ê¸°
Ġspe aker
Ġê·¸ ëŁ¼
Ġê¸°íĥĢ ë¦¬ìĬ¤íĬ¸
Ġíŀĺ ëĵ¤
Ġcoll aps
ĠìĿ´ ë³ĳ
ìķĦ íĭ°
ë£¨ ëĬĶ
Ġìłģ ëıĦ
ĠPublic ations
Ġìĺ¬ëĿ¼ ê°Ģ
ĠA G
ìĹ¬ íĸī
Ġê·¹ ëĭ¨
ili ary
Ġì¡°ìĦłë¯¼ì£¼ì£¼ìĿĺ ìĿ¸ë¯¼ê³µíĻĶêµŃìĿĺ
spec ies
ĠE mp
Ġê¸° ë³ĳ
ê³łëł¤ ìĿĺ
ĠB ent
ĠN as
ĠE X
Ġqu ad
Ġdemonstr ated
éĻ µ
ĠWood s
ĠCh ad
Ġìķ¼ ì¿ł
Ġkey board
e a
ĠìŀĲ ì²´ê°Ģ
Ġì¡´ ìĬ¨
Ġëĭ´ ê³ł
ĠìĦ¤ì¹ĺ ëĲĺìĹĪëĭ¤
Ġê¸°ëħĲ ë¬¼
Ġëĭ¤ë£¨ ëĬĶ
ĠRe ading
ë¸Ķ ë¡ľ
Ġìĺ¬ë¦¼íĶ½ ìĹĲ
ĠìłķìĭĿ ìľ¼ë¡ľ
Ġì¤ĳ ë¦½
ĠëĪĪ ìĿĦ
ĠìĹĲëĦĪ ì§Ģë¥¼
Ġburn ed
M in
ç ĥ
ĠH amburg
ĠK ate
Ġêµ¬ìĦ± íķĺëĬĶ
F orm
Ġt ies
ĠëĮĢ ìĦł
ov an
Ġsp end
bor o
ĠìĬ¤ë§ĪíĬ¸ íı°
Ġåī į
H P
Ġt ight
Ġ- -
by ter
Ġcond em
ĠëĤ¨ ê²¨
A tt
ê² ģ
ĠìĤ¬ ì°°
ë§Ī ëª¨íĨł
Ġê²½ ë¹Ħ
Ġro ot
æ Ĭ
íĻĶ íķĺëĬĶ
ĠK or
Ġìĺ¤ ëħ¸
Ġbl ues
ĠíĮĲ ìĤ¬
Spec ial
ĠH arm
ĠL akes
ord ed
ĠìĥĪ ëģ¼
ì°¸ ê°Ģ
W ashington
d es
ĠA w
ĠíĹ¤ ë¹Ħ
ĠS ter
Ġìĭľ ë¡ľ
Ġì£¼ ëł¥
ĠMont ana
ĠíĬ¹ë³Ħ íŀĪ
mar ks
Ġrad ical
Ġë¥´ ëĦ¤
ĠKer ala
Ġthe ories
ĠH od
ë¯¸ ìĹĲ
ìĤ° ê³¼
ì¸ł ëĬĶ
ĠìĦ±ë¦½ íķĺìĺĢëĭ¤
çĽ ´
ĠForm ation
ĠìĽĲìŀĲ ëł¥
Ġë°ĺëĮĢ íķĺëĬĶ
ĠT ab
Ġl i
Ġìĭľ ë²Ķ
ìĹ° ë°©
ĠSh ir
Ġì¶Ķê°Ģ ëĲĺìĹĪëĭ¤
Ġwa iting
Î »
Ġìķ½ íĥĪ
Ġë°ľíĳľ ëĲľ
Ġfund amental
in yl
up s
Ġann ex
Ġrang es
ë¬¸ ê³¼
ĠìĬ¤ ì¦ĪíĤ¤
ĠìĽĲ ìĭľ
ì§Ģ ì§Ħ
ĠU FC
ë°Ķ ìĬ¤
ath on
any on
Ġìłģ ìłĪíķľ
Ġìļ´ëıĻ ê°Ģ
ĠCamp us
ìĬ ĺ
ĠìĿ´ íĻĶ
Ġn ut
ĠRo osevelt
ĠìĤ¬ê³ł ë¡ľ
Ġë§º ê³ł
ìĹĲê²Į ëıĦ
ì£¼ìĿĺ ìĻĢ
ĠìĪĺë¡Ŀ ê³¡
ĠìĿĺê²¬ ìĿĦ
ëĶĶ ìĹĲ
ĠíĻ© íĥľ
ëķĮ ë¡ľ
ĠìĿ´ìĸ´ ìĦľ
Ġë²ł ìĸ´
ĠOver all
ĠM ull
Ġëħ¸ìĦł ìĿĢ
íģ¬ëĿ¼ìĿ´ ëĤĺìĿĺ
ç ķĮ
ë¦¬ íĥĢ
Ġdis ch
ĠìĦł íĺķ
ster ious
íĤ¨ ìĬ¤
Ġaff ect
Ġìĥģíĥľ ìĹĲ
et ric
ĠìĤ¬ìļ© íķĺì§Ģ
Ġê³¼íķĻ ê¸°ìĪł
ĠRet rieved
ĠBened ict
Ġpro ve
ĠCo al
ë¥ł ìĿĢ
Ġtick et
ìĸ´ íķŃ
ov anni
Ġë¸Į ëłĪìĿ´
Ġsm ooth
Ġìŀ¡ ê³ł
Ġappro aches
z ed
Ġìĺģ ì£¼
ĠëıĻ êµ´
åº ·
ĠC inema
å¤ ĸ
ĠìŀĲìłĦ ê±°
ëĮĢ ìĪĺ
íķľëĭ¤ ë©´
ĠOtt o
Ġdelay ed
Ġeffic ient
os er
ĠíĤ¤ ìĬ¤
ĠíĬĢ ë¥´íĤ¤ìĺĪ
Ġbirth day
s l
ĠB ag
ĠG as
íĶĦ ëĿ¼ìĿ´
ê³¡ ëıĻ
P o
ìĹħ ì²´
Ġen forcement
Ġê´Ģê³Ħ ëĬĶ
e or
ëĶĶ ì§ĢíĦ¸
ëª© ìĿĦ
Ġthink ing
Ġì£¼ ê±°
ëĦ¤ ìĿĺ
ĠíĶĮ ë£¨
Ġë¨¹ ëĬĶ
ì ĳ¤
st ory
ìĿ¸ ì¹ĺ
ì²ĺ ë¦¬
ë§Ĳ ìĿĦ
mon ton
Leg acy
M o
b eat
ëĤĺ ìĬ¤
ìłľ íĶĦ
íİĻíĬ¸ ëŁ¼
E ST
ĠD ig
ĠK ind
ë¬´ íĺĦ
Ġdec ide
Ġprom in
Ġdepart ed
ĠD as
ìļ° ìĺĮ
ĠCh an
Ġìŀħëĭ¨ íĸĪëĭ¤
ëĭ «
ĠìĦł ì¡°
ĠëĲĺ ì°¾
iz a
Ġì½Ķ ëĤľ
Ġ185 6
ĠMet al
Ġdiffic ulty
ìĬ¤ íį¼
eng ers
ĠíĺķìĦ± ëĲľ
Ġvirt ual
G od
Ġconsist ent
spe aking
ĠTr ue
Ġbreak s
Ġìĭ¶ ìĸ´
Bas ketball
Ġë¬´ë¦ İ
ìķĦ ìĻĢ
ĠìĹ° ëĿ½
Ġë°ĶëŀĮ ìĹĲ
ĠH az
ĠAr ms
Ġmiss ile
ĠíĻĪëŁ° ìĿĦ
B a
ĠC ec
ĠB eth
ĠR if
oy age
ĠìĹ° ëł¹
ãģ Į
Ġë¦¬ê·¸ ìĹĲìĦľ
Ġinsp iration
Ġcert ified
ĠìĤ¬ ê³¼
Ġë¸ĮëĿ¼ ìļ°
Ġë§Ī ê·¸
ëŀĳ ìĿ´
ĠTri ple
uan ian
åĳ ¨
appe ared
ìĿ¸ ëĵ¤ìĿĦ
ĠìĿ¼ íĸī
íĸ¥ ìĿĦ
z ing
ì±ħ ìŀĦ
Ġ185 5
ish i
Ġë°ľë§¤ íķľ
ĠìĭľëĤ´ ë²ĦìĬ¤
f ast
n amed
n otes
t ical
ĠëĮĢ ìĻ¸
ĠSt ef
ë³´ ìķĪ
ì¼ °
Ġrif le
s ur
Ġm oral
Ġtrav elled
ol an
Ġìłķ íĨµ
ĠIn g
ëĥ ī
Ġob lig
Ġrefer ring
ĠCr us
Ġrecover y
Ġatmosp here
ĠSt ri
ĠStat istics
h orn
ìĦľ ìĻĢ
ĠK in
Ġì´Ī ìĥģ
Ġenc ompass
Ġì»¬ ëŁ¬
Ġíķ¨ ê²½
ĠíĥĢ ìĽĮ
Ð° Ð½
Ġcomplet ing
Ġdistinct ion
Ġin formed
Ġto x
ax y
ìĬ¤íĥĢ ìĿ¸
ĠL oc
ific ate
Ġìķ¼ ìĥĿ
Ġì§ĳ ìĹĲìĦľ
Ġinternational ly
Ġëĭ¤ íģ¬
Ġmain stream
Ġin put
ë¶Ģ ë¥´
Ġìľł ë°°
ë°ľ ìĿĺ
ĠMig uel
ìĦľ êµ¬
ĠìĭľìłĪ ìĹĲ
ĠíĪ ´
p es
ĠM echan
ĠìĨĲ ìĥģ
Ġëħ¸ìĦł ìĿ´
ëį°ìĿ´ íĦ°
. -
Ġê°Ģ ëĵĿ
ĠV e
Ġê·Ģ íĻĺ
Ġcomed ian
ĠíĹĪ ëĿ½
Ġbre ast
ĠFour th
ĠMaur ice
B ec
Ġw orst
Ġë°ľ ìłĦìĿĦ
ê±´ ìĿĺ
ĠíĻĺ ìŀĲ
epend ent
éĺ ¿
Ġn inet
Ġê·¸ ëĵ¤
Ġíķĺ ëįĺ
ĠFor um
Ġacc eler
ĠĠĠĠĠĠĠĠĠĠĠĠĠĠĠĠ ĠĠĠĠĠĠĠĠĠĠĠĠĠĠĠĠ
ĠTest ament
Ġvent ure
Ġê³ł ê°Ģ
Ġíĸ¥ íĨł
Ġtour ism
Ġsusp ension
ë¦¬ íģ¬
ĠìĿ¼ ìłľê°ķìłĲ
Ġ10 7
ok es
writ ing
atin um
ĠìķłíĶĮ ë¦¬ì¼ĢìĿ´ìħĺ
ĠìĦ¼íĬ¸ ëŁ´
Ġf abric
as se
Ġpl astic
Ġph arm
ĠíĻ© ìłľìĿĺ
ĠK ash
ĠìłĦ ìĿĺ
Ġpar ishes
ĠíĬ¸ìľĦ íĦ°
Ġre ct
íı¬ íķŃ
íķĺë©´ìĦľ ëıĦ
189 0
ĠAr med
Ġì¹´ íĬ¸
Ġprot ests
Ġstreng then
F O
ĠL ex
Ġìĺ¤ ìĹ¼
ê´Ģ ê³¼
Ġë§İ ìķĺëĭ¤
Ġ0 8
ĠPict ure
ĠPr ague
uis ine
Ġt ertiary
ar ians
ĠG az
ìĤ´ ìĿ´
Ġmeas ured
ĠGib son
ì ĵ
ĠS aw
Ġì¡° ê¸°
ĠInd ex
Ġbl ind
Ġì¿ ¨
Ġr id
Ġco ffee
Ġë°ķ ì§Ģ
ĠìłĦì²´ ë¥¼
ĠS ey
ĠB att
ë£¨ ìĤ´
et o
ĠO w
ì¤ĳ ìĿ´
ì¢ ĭ
utt a
ĠìĤ¬ ë²Ķ
Ġìĥ ¬
str act
Ġë²Ħ ì§Ģ
Th at
ĠVir t
B BC
m and
ìĨĮ ëł¨ìĿĺ
Ġê¹Ģ ëĮĢì¤ĳ
Ġcomm enced
ĠìĺģíĨł ë¥¼
ĠíĤ ¨
ĠP GA
hib ition
T O
ĠR af
Ġdisc overs
Ġì²ĺìĿĮ ìĹĲ
Ġt ub
Ġìŀħ ìĹĪëĭ¤
ìķł íĭĢ
ĠF ig
ĠìŀĦ ìĭł
ĠìĪĺ ìĹħ
ìĦ¸ ë¦¬ìĹĲ
Ġcharacter istic
Ġt act
n amese
Ġe mpire
Ġì£¼ ëĲľ
ëĵł ì§Ģ
Ġl ooks
ĠN intendo
ĠBa iley
Ġë³ĳìĦ¤ ìľłì¹ĺìĽĲ
Ġs in
Ar thur
Ġíģ´ëŀĺ ìĬ¤
i ott
æ ½
ìĽ ¹
ìķĦ ê³¼
Ġby pass
Ġìµľ ìłĢ
ĠëĦ¤ìĿ´ìħĺ ìĬ¤ì»µ
Ġìļ° ë¦¬ìĿĺ
ëĿ¼ìĿ´ ë¸Į
Ġpres ents
ĠFilm s
Ġm orph
íļĮ ë§Ĳ
Ġpro sp
ĠCh air
ric a
ĠëĨĢ ëĿ¼
Ġimmig ration
Ġê¹Ģ ë³ĳ
ëħĦê¹Įì§Ģ ëĬĶ
Ġê·¸ë£¹ ìĿĺ
ch annel
ĠìĪĺ ê°Ĳ
ĠíĮĮ ìĿ´ìĸ´
Ġrem ark
Ġê²½ìłľ íķĻ
ht ml
ë¦¬ ë©°
ĠJ erem
íı¬ êµ¬
ĠìłĦ ìŀĳ
ĠLe ft
ĠSh ar
Ġart ificial
P L
Ġì°¸ ëª¨
Ġë¹ Ĺ
ĠíĥĦ ìĨĮ
oc ent
Ġê°ľ ì°°
Ġìļ´ íķŃ
ĠìĹ´ ë¦¬ëĬĶ
Ġprom oting
Ġ185 4
ĠInter state
Ġcarri er
ĠBelf ast
ĠS ul
Ġl ib
êµĲ ìĤ¬
C r
Ġìĺ¤ íĥĢ
ĠìĿ¼ ëĭ¨
Ġcomp uters
ì½ĺ ìĦľíĬ¸
ĠìĿ¼ìľ¼ íĤ¨
ill on
Ġë²Ī ì£¼
Ġë°ľê²¬ íķľ
ĠëĤĺìĿ´ ìĹĲ
Ģ ëĭ¤
ĠìĿ¼ ëłī
Ġnarr ative
l ain
Ġìľ ¼
Ġë§º ìĹĪëĭ¤
is an
ê³µ ìĤ¬ìĿĺ
for ced
kins on
Ġdistinct ive
Ġneut ral
M F
Ġrec alled
Ġìĸĳ ëıĦ
Ġret iring
stad t
ìĹĲëĦĪ ì§Ģ
Ġb io
Ġpo ison
Ġimprison ed
Ġd ogs
íĮĲ ìĿĺ
ëĿ¼ìĿ´ ëĤĺ
Ġtele phone
Ġd iet
ëłĪ ìķĮ
Ġê³ł ìķĪ
Ġê³¨ íĶĦ
Ġexact ly
Ġpersp ective
Ġg rey
Ġìŀ¥ ëĤľ
Ġìł ¤
Ġì¿ł ë°Ķ
Ġsac rif
ĠP ep
Ġìĭľ ì¡°
ì²ľ ìĿĺ
ĠìĹ°êµ¬ ëĬĶ
ĠAir lines
ĠìĿĢíĩ´ íķľ
Ġvari ations
f red
Ġíĺ Ĳ
) ãĢı
ì§Ģ ìłĲ
Ġch lor
ĠíħĮ ìĺ¤
Ġleg acy
col m
Ġsumm it
Ġå½ ¹
ĠS ikh
Ġadminist ered
Ġinher ited
ìĿ¸ ëıĦìĿĺ
Ġì¶ľ íĺĦ
ĠìĦ¸ ìĥģ
ens en
ĠêµŃë°© ë¶Ģ
ìĦ± ëıĦ
Ġë¦ ¼
Ġì§ĢìĹŃ ìĿ´
Ġspecial ized
imens ional
Ġhydro gen
I O
N BA
i ad
é Ĺ
ĠL isa
Ġìľł ìķĦ
189 4
ĠCor p
h or
ĠL ak
ment ary
ĠìĹŃ ìĿĺ
ì²ł íķĻ
Ġgl ac
Ġë¹ µ
ĠFurther more
ĠSud an
st ock
ĠëĤ ±
ìľĦ ëĮĢ
ê³µ ëĭ¨
ĠìĪľ ìĪĺ
ê·¸ëŀĺ íĶ¼
Ġcart oon
ëĭ¹ íķĺê³ł
çĶ ³
w ik
ëłĪ íĭ±
ëĨ Ĵ
ĠHend erson
ë£¨ìĤ´ ëłĺ
ĠA ur
ĠJ ung
ĠëıĦ íĺ¸ì¿ł
Ġra ising
ĠMonteneg ro
T er
ĠW orth
Ġìļ´ ë°ĺ
ìĬ¬ ë¡ľ
ĠFA ì»µ
åĳ ½
ĠìĻķ ì¡±
unc an
U l
Ġexpl icit
ĠíĻįë³´ ëĮĢìĤ¬
m ail
ìĥĿ ëħĦ
Ġout door
Ġëıħ ìłĲ
ĠíĬ¸ ëłĪ
Ġê´Ģëł¨ íķĺìĹ¬
çĽ £
Mod ern
Ġempt y
ëħĦ ìĥĿ
ìķĺ ëĬĶëį°
189 7
Ġëª¬ ìĬ¤íĦ°
Ġdoub les
Ġaccommod ate
Ġexcell ent
ë§Ī ìĿ¼
Ġì£¼ ìĦĿ
ĠìĻķ ë¹Ħ
Ġë§ī ëĤ´
ëłĢ ê³ł
Ġesc ort
ìĺ¤ ê³ł
Ġguitar ists
ĠìĿ´ ì¼Ģ
ĠD im
ë¬¼ ê³¼
ĠSh ield
l ift
íķ´ ì§Ħëĭ¤
ë§Ī ì¸ł
Ġover t
Ġpull ed
ëĿ ł
êµŃ ê³¼
ë£¨ ë¥¼
ĠWest minster
Se lected
Ġsculpt ure
ap ing
Ġspec imens
icy cle
D utch
ëĬĲ ë¦¬
ĠìĿ´ëģĮ ìĸ´
Ġlay out
ĠH ous
ìĥ Į
ë°Ķ íĥĢ
ĠìĤ´ ìķĺëĭ¤
Ġfeel ings
Ġê¸°ìĥģ ì²Ń
B rien
F our
ĠE ff
Ġê²°ìłķ íĸĪëĭ¤
Ġë°´ ëĵľìĿĺ
Ġ17 0
Ġì²ł ìłĢ
ĠFran z
ĠComp etition
Ġforest ed
B er
i em
ĠF at
ĠëĶ ±
íĪ¬ ìĪĺ
èĹ ¤
Ġf ert
íĻĶ ìłĲ
Ġì£¼ ìĸ´ì§Ħ
ĠìĦľ ë°©
ik ing
ĠAir craft
Ġì¹ ©
ĠíĽĦ íĩ´
Ġíĺ¸ ëĤ¨
Can ada
ĠìĤ¬ì§Ħ ìĿĦ
Ġìĭ¤ìłľ ë¡ľëĬĶ
Ġdifficult ies
Ġin ternet
umb ers
Ġì²ľíĻ© ìĿĺ
ĠD ale
Ġì°¾ ëĬĶ
Ġë§¥ ìĬ¤
ber to
ê³µ ìŀ¥
Ġeconom ics
ĠëĨĵ ìĹ¬
Ġíļ¨ê³¼ ê°Ģ
Ġê³ł íĨµ
Ġart work
Ġëĭ´ ìĿĢ
Ġcop per
ĠEll is
Ġess entially
ĠUS S
Ġê°Ħ ìĹĲ
ĠìĿĢ ë©Ķëĭ¬ë¦¬ìĬ¤íĬ¸
ĠìĥĮ íĶĦëŀĢìĭľìĬ¤ì½Ķ
F red
ëįĶ ìĬ¨
ĠìĿ´ ìĤ¬íļĮ
ĠH aven
ĠI TV
Ġìłľ ëĭĪ
Ġë¯¸ ëĦ¤
ë¬´ ìĹŃ
ĠSp ect
Ġvo ices
é ®
ĠìĤ¬ ìľĦ
Ġac res
ĠSim pson
Â ²
ĠR ice
Ġdis aster
Th rough
ĠPubl ishers
ìŀĲ ë¬¸
ìĸ´ ë¨¸ëĭĪ
ĠâĢ ķ
Ġsub sc
Ġëģ Ī
M ike
um ph
Ġìŀ¥ ë¡ľ
ëłĮ ì§Ģ
Ġëįķ ë¶ĦìĹĲ
ĠKen ya
Ġp ub
le w
ĠìŀĦ ê¸Ī
ow ing
êµ° ìĹĲê²Į
Ġìŀħ ì¦Ŀ
ott o
ĠëŀŃ íĤ¹
å £½
ĠS isters
ĠV ern
Ġcons cious
Ġbl og
Ġarr ive
Ġfavor ite
is ons
Ġf iles
ist ing
Sing les
w ord
Ġm emor
êµŃ ëıĦ
Ġpre v
Ġì´Ī ëŀĺ
Ġbel ongs
Ġvict ories
ĠëĤĺëīĺ ìĸ´
Ġì§Ģ ìŀĲ
Ġorgan ic
Ġê³µê°Ħ ìĿĦ
ĠBu enos
ìłĦ ìĦ¤
Ġë°ĺ íĻĺ
Ġent hus
Ġìĭł ë¶Ħ
.. ."
ĠMer it
Ġê¼¬ ë¦¬
ë¡ľ ë¯¸íĦ°
Ġm inistry
ĠMo z
ĠSer ie
ë³´ ìĬ¤
Ġë§ī ë¶Ģ
Ġëķħ ìĿĦ
spe ed
c or
k an
ĠS ou
ec raft
ë§Į íĻĶ
Ġê³ ģ
ĠE yes
ide a
ìĭ¤ íĹĺ
Ġlegisl ative
æĹ¥ æľ¬
u ania
ĠH ood
Ġìľł ëł¥
Ġë ¤¼
Ġê°Ģ ìĭľ
ĠìłĦ ë§Ŀ
ì¸µ ìĿĢ
ĠCy prus
ir gin
od ed
Ġdem ands
ì¡°ìĦłë¯¼ì£¼ì£¼ìĿĺ ìĿ¸ë¯¼ê³µíĻĶêµŃìĿĺ
ĠC hes
ìľĦ ìĹĲìĦľ
ass y
F rance
ĠM ine
ĠM ales
ĠF uj
ĠP od
Ġëľ» ìĿ´ëĭ¤
Ġëª¨ìĬµ ìľ¼ë¡ľ
ĠLabor atory
ìĬ¹ê°ķ ìŀ¥
ĠNott ingham
Ġt elling
ì¤ĳ ëĮĢ
uss els
intend ent
Ġëª¨ ëŀĺ
ĠìĤ ¿
ĠêµĲ ê³¼
âĢĿ .
Ġupd ated
ĠF ul
Ġì§Ħ ëĭ¨
ĠìĬ¤íĥĢ ë¦¬ê·¸
ì¤ ĺ
Ġë§Ī ìĬ¤
Ġass um
Ġdr inking
ĠíıŃ ê²©
Ġlo ad
bor g
íĮĢ ìĿ´
Ġport ions
Ġìħĭ ì§¸
Ġrecru ited
ìĸ Ħ
ul ator
ĠìĪľ ì²ľ
Ġveter an
Ġëħ¸ íĬ¸
Ġrele vant
ona ut
ĠPhys ics
ĠS oci
uc he
ĠìĦłìĪĺ ìĿ´ìŀĲ
ëª¨ ëĬĶ
Ġdiscontin ued
à ¥
ĠTh ai
ĠRail ways
Ġíıī íĥĿ
R oute
g ie
ol ves
Ġfor th
Ġê±° ë¦¬ë¥¼
ë°©ìĨ¡ ìĿĺ
found land
Ġdecor ated
ìļ° ìłķ
é¤ ¨
at z
ĠB S
ĠF ra
íĶ Ķ
ì¹ĺ ì§Ģ
com mon
ĠìĿ´ë¥´ ê¸°ê¹Įì§Ģ
Ġthe rm
ĠBl u
B ad
enn ium
Ġëª©ë¡Ŀ ìĿ´ëĭ¤
om ber
ĠëĮĢíķľ ìłľêµŃ
Ġê°Ĳëıħ ìĿĢ
ĠL ar
ĠìĨĮ ë¦¬ë¥¼
Ġíķ© ë¦¬
ĠWinn ipeg
b et
erv es
ĠAn at
åĪ ©
le z
ĠDomin ican
ĠG y
Ġcont ested
Ġ0 5
Ġëĵ¤ìĸ´ ê°Ħ
Ġfriend ship
M ex
Ġìŀ¬ ë¬´
íĶĮ ëŁ¬ìĬ¤
Ġimpro vements
Ġremov al
Ġre ducing
clud es
ĠìĽĲ ëĤ´
ì²Ń ìĨĮëħĦ
ĠÃ ł
nes day
ĠíĮĮìĿ´ ëĦĲ
Ġfle w
N L
T echn
ìĭľ íĶ¼
Ġst eep
ĠìĹ¬ ìĿĺ
ĠìķĦìĿ´ íħľ
Ġcoin c
ê³ł ëıĦ
ìłĪ ìĿĦ
Ġcoin s
Ġ @
ĠT ir
ĠìĨĮ ìľĦ
Ġìĥī ê¹Ķ
å» £
Ġconce pts
qu et
ĠMar x
is iÃ³n
ì§Ģ ìĺ¤
ĠR ab
Ġìĭł ìŀħ
ëĶĶ ëĬĶ
utt le
Ġcom fort
Ġqu een
ç ®
Ġr ig
eg ovina
ĠëĺĲ ëĭ¤ë¥¸
Ġëıħ ìŀ¬
Ġì¿ Ħ
al og
ê³¼ ìŀ¥
enc ia
ĠBe ijing
Ġì¶ĺ ì²ľ
M er
Ġë¶Ģ ì²ĺ
Ġbel t
ĠëıħìĿ¼ ìĸ´
ĠW u
ë°´ ëĵľ
Bur ials
Ġë°° ìĹ´
ĠLaur a
1 13
ì°¨ íĬ¸
ĠìĿĮ íĸ¥
ìĿ¼ë³¸ ìĸ´
Ġvot ers
íķĺ ìĹĲìĦľ
ĠW C
íİ ´
íĺĦ ìķħ
ë²ł ìĬ¤íĬ¸
ĠWars aw
st ed
ìĭľ ëĵľ
Ġíĥľìĸĳ ìĿĺ
Polit icians
Ġìĭľëĵľ ëĭĪ
Ġb rew
Ġì£¼ ë¬¸
ĠAnd rÃ©
Ġì°¬ ìĦ±
åĬ Ł
ĠíĿ° ìĥī
ĠìłĦíĺķ ìłģìĿ¸
ĠM Ã©
Ġê²°ê³¼ ë¡ľ
Ġel igible
ĠBaron et
Ġf lex
ĠN g
Ġrat ings
ĠC ust
Ġëĵ¤ ìĹĪëĭ¤
è¡ Ľ
Ġtax es
in as
ìĹĲ ë¯¸
íĻ ī
ĠPolit ics
ĠC ore
ĠìĿ´ ë§Ī
ĠìĿ´ ê´ĳ
Ġíķĺ ëĬĲ
Ġro ut
ìłĢ ì§Ģ
Ġpup ils
ìĬ Ĳ
Ġpower ed
M ore
Ġt um
ĠM obile
Ġcon ven
Ġìľł ìĿ¸
Ġfocus es
S at
ĠìĹ ī
Ġìĺģ ê°ĲìĿĦ
Ġfin ance
ĠìŀĲ ìĦ¸
ëł¹ ìľ¼ë¡ľ
Ġìłĳ íķľëĭ¤
Ġrev ival
æĦ Ľ
Ã ¯
ĠS ons
ĠF antasy
ĠG O
ĠWith out
Bra zil
Ġh ospitals
Ġìĺģíĸ¥ ëł¥ìĿĦ
ëª½ ê³¨
ĠEvent ually
ê³ł ìĹĲ
ë¬¼ ë¦¬
ĠíĨµ íĻĶ
ãĤ Ń
Ġt ested
ê°Ģ ìĿ¸
ĠìĪĺ ìĪĺ
Ġkn ock
ish a
Ġë³µ êµ¬
íĶĮëłĪìĿ´ ìĬ¤íħĮìĿ´ìħĺ
Ġtarg ets
ir ms
oy le
ê¹Įì§Ģ ëıĦ
D is
Ġh yd
Ġg ear
Ġìĭľ ëĿ¼
amp ire
ìĬ¤íħĮ ë¥´
ec ca
ard i
ë¸Į ìĬ¤
ĠìĭĿ ë³Ħ
Ġì§ĢìĽĲ íķľëĭ¤
F S
Ġiniti ative
Ġin struction
ol ve
ĠìĹŃ ìĹĲìĦľ
Ġìĺ¤ ëĶĶìĺ¤
ë¸Į ë£¨
iet ies
Ġemphas is
ìļ° ë¥¼
ì²ľ ë©´
ĠCont est
Ġë²¼ ìĬ¬
od on
ĠêµŃê°Ģ ê°Ģ
Ġpet ition
v y
Ġext ends
ĠFlore nce
Ġë¹Ħ íĭĢ
Ġì°¸ê°Ģ íķĺìĹ¬
ĠëĬ¥ ëł¥ìĿ´
onn y
c us
Ġrel ating
ì½Ķ ë¦¬ìķĦ
ĠìĻĢ ìĦľ
Ġdram atic
ĠìĤ¬ ê¸°
Ġìĭľ ì¦Ī
ì¹´ ëĬĶ
ĠìĬ¤ ìĬ¹
Ġë²ł íĨłë²¤
Ġê°Ģ ì¦Ī
ĠDemocr at
ĠE t
ìĦ± ìĹĲìĦľ
ë§Ī ìĬ¤íĦ°
Ġê²ĥìĿ´ ê³ł
Ġíľ ł
M ax
ĠìĪĺ ë°±
Ġë¬´ ìĤ°
ĠìļĶ ë¯¸ìļ°ë¦¬
ĠíĬ¹ ìĦ±ìĿĦ
ener ation
Ġì¹ľ ìĦł
åĬ ī
us a
ĠG and
ig i
ĠìĬ¤ ì¿¨
Ġíı¬ ë§·
ë°Ľ ì¹¨
ìĭľ ëĤĺ
ĠíĽĦ ì§ĢìĻĢ
Ġíķł ë¦¬
ĠìĿ¸ë¬¼ ìĿ´ëĭ¤
ĠFran co
Ġsoci eties
ìŀ¥ ìĿ¸
Ġneighbor ing
Ġproced ure
ĠSeb ast
Ġìľłê³ł ìĬ¬ëĿ¼ë¹ĦìķĦ
T N
è º
Ġs ick
ĠìĿ´ íĥľ
ĠSh adow
ĠRe ich
Ġob l
ĠìŀłìĪĺ íķ¨
od ia
ĠíĽĦ ìĿĺ
Ġê´Ģ ìĭ¬ìĿ´
Ġprison er
R ay
Ġìľł ìŀħ
Ġf erry
íķĻêµĲ ë¥¼
ond e
Ġë¬´ ë¦¬
ĠìĤ¬ìĿ´ ë²Ħ
Ġìī Ĳ
ĠCy cl
Ġìĺ¤ìĬ¤íĬ¸ëłĪìĿ¼ ë¦¬ìķĦìĿĺ
b ank
et ary
ri fic
ĠT R
ëħ¸ íĶĦ
ê²° íĺ¼
de en
ĠNe igh
Ġw al
ĠO z
ìĹ° ìĺĪ
ì¶ľ ìŀ¥
Ġì»¤ ëĭ¤ëŀĢ
Ġê¹Ĭ ìĿ´
f ight
Ġë¬´ ìĦł
ĠìķĪ ìĤ°
ëĦĪ ëĬĶ
Ġattract ion
å ģ
ĠìĿ´ íķĺìĿĺ
ĠR ush
ĠArm strong
Ġsil ent
Ġcongress ional
e on
ìłĦ ì²´
Ġìĭ¤ ìļ©
Ġíĺ¸ íĻĺ
ĠCan terbury
ĠAdvent ure
ìłĦ ìĭľ
ĠëĤ´ ëĬĶ
uch y
Ġë³¸ ë¶Ģ
ĠìĥĿê°ģ ìĿĦ
Ġê¶Įíķľ ìĿĦ
Ġìµľ ìĭł
Ġreb ellion
Ġê´ĳ ìĤ°
Ġvar iants
Ġchalleng es
Ġcooper ation
ìĹĳ ìĬ¤
b ird
ĠLe ic
ĠStev ens
ĠìĮį ëĳ¥ìĿ´
D el
ĠA V
Ġíĺ¸ ë¥´
Ġattack ing
ĠGrand e
Res ults
ĠU ntil
ĠEx ped
ë²Į ëłĪ
ĠG DP
ì¸ Ħ
íıĲ íķ©
] .
h of
ìŀ¥ ìĿ´ëĭ¤
ĠCa uc
ĠSoft ware
ëĤĺ ê¸°
ê´Ģ ìĹĲìĦľ
ĠìĹĨ ìĹĪê³ł
ãĥ Ń
Ġë©Ķ ë¥´
Ñģ ÑĤ
Ġâī ª
Ġaccomp any
ĠK arn
ĠìĦ± ê·łê´Ģ
ëª© ìľ¼ë¡ľ
èŃ °
ĠìĤ¬ ìłľ
ĠArch ae
ĠìĹ¬ ìĿ¸
Ġêµ¬ ìĤ¬
Ġë²ł ë¥¸
ĠíķľêµŃ ìĹĲìĦľ
ott om
Ġcolon ies
ĠForm ula
L es
b ian
é Ł³
Ġl ights
Ġindic ating
Ġinhab ited
Ġm emb
Ġbe ars
Ġì¶ľ ëł¥
ĠìĦ± ê³¼ë¥¼
Ġphilos opher
Ġì§Ģ íĳľ
Ġthan ks
ĠPr act
ìļ´ëıĻ ìĿĦ
Ġë³¸ìĦł ìĹĲ
ìĿ´ ê²Į
ê°Ģ ëĤĺ
Ġhe m
Ġë©Ķ ëĶĶ
aid en
Ġdep ict
æĽ ¹
ê°Ķ ê³ł
P P
ìĿ´ëĿ¼ ë©°
ê·ľ ì¹Ļ
ĠìĽĲëŀĺ ëĬĶ
art ed
Ġê¹Ģ ìĦł
Ġíİ Ģ
ĠíĺĦ ìĥģìĿĦ
Ġì°¨ì§Ģ íķľëĭ¤
Ġn erve
ì½Ķ ë¥´
ìĨĮ ëĭĪ
ĠìĦ¸ ìĽł
ĠìĤ¬ìĿ´ ëĵľ
å¤ ı
ë¡ľìĬ¤ ìķ¤ìł¤ëłĪìĬ¤
at um
ĠN ATO
ĠìŀĲìĭł ìĿĢ
k r
ëłĪ ëĵľ
Ġëĵ± ìŀ¬
Ġexper iments
in ery
Ġê°Ħ ìłĳ
ĠìĦĿ ë°©
ĠëĦĺ ê²¨
èī ¯
ĠD oll
Ġkn ee
ĠAn y
ìľĦ ìĦ±
Ġsp ots
Ġj ournals
ëĮĢ íĨµëł¹
te es
Ġout break
Ġparticip ating
ĠìŀĪ ìľ¼ë©´
æĢ Ŀ
S yn
ĠB es
ĠìĨĮ íĻĺ
ĠìĬ¹ ê³Ħ
ìķĶ ë¦¬
Ġgra ve
ĠëĤ´ ìŀ¥
Ġë¹Į íĹ¬ë¦Ħ
ĠDev on
P rior
íģ¬ ìĻĢ
Ġë³´ ëĥĪ
ìĿ´ìĬ¤ ì¼Ģ
ĠíĽ Ķ
éĿ ĳ
èª ŀ
ī ĺ
ĠëıĻ ìĦľ
ĠíĹ ĺ
Ġíģ¬ ê¸°ê°Ģ
Ġdocument ed
Ġhard ware
ĠJac ques
ĠBrad ford
ê°¤ ëŁ¬ë¦¬
er as
ic ia
ers hire
ë²Ħ ë¦¬
ĠíĺĦ ì¡´
ĠC ort
ì²ľ ëħĦ
Ġasp ect
æ¿ Ł
Ï Ģ
Ġg ift
ìłĦ ì°¨
ia o
ĠCh ange
iat ric
ĠêµŃ ìłķ
Ġ185 2
ëĲĺ ëįĺ
ĠìĹ° ê³Ħ
Ġman ip
Ġautom atic
Ġneighbour hood
Æ °
ĠR ules
ĠG M
ĠJama ica
S em
è ĸ
Ġê°ľ ê·¸
Ġê±° ëĬĲ
oun s
íĥĦ ìĿĦ
Ġìĭľê°Ħ ìĹĲ
Ġarr iving
Ġ !!
ĠìĹ° ìĦ¤
ĠEd itor
Ġ185 1
åĥ ı
Ġëª» íķĺê²Į
Ġìľ¤ ì¹ĺ
ĠJul ian
Ġfeel ing
Ġathlet ics
ĠìĬ¤ íİĻíĬ¸ëŁ¼
Ġê²° ìĭ¬
Ġë°Ľ ìľ¼ë©°
ĠìĬ¹ ì°¨
Ġspe aks
Tax a
ĠT all
ĠìĦł ë°°
íģ¬ ë¦¬
Ġprogram mes
Ġfram ework
Ġsimult aneously
ĠA str
âĢ »
ĠëĮĢ ëĭĪ
ĠCal gary
Ġpil ots
ĠRevolution ary
Ð ³
ĠCom merce
Ġë°©ìĨ¡ ìĿ¸
Ġìĸ¸ìłľ ëĤĺ
V ictor
Ġh appy
Ġë³´ ìĿ´ê³ł
ĠìľĦ ê¸°
Ġìĸ¸ë¡ł ìĿ¸
ĠD ylan
Ġcoal ition
I E
Ġbomb ing
Ġs ure
ìłľ ìĿ¼
ine e
Ġë°ķ ìĥģ
ĠíķĦìļĶ ë¡ľ
Ġexhib it
ëĿ¼ëį¸ íĶ¼ìķĦ
W in
p iece
ad h
ĠG em
ë³´ ë©´
Ġret ro
Ġobject ive
ê¼¬ ë¦¬
ë¿ Ķ
ê³ł ìĭľ
Ġë³´ ìĿ´ë©°
Ġrun ners
Ġanch or
Ġc ow
ê°Ģ ê³ł
ĠëĮĢ íķĺ
Ġun em
íĨł ë¥´
Ġë²ķ ìĽĲ
am ation
Ġst ick
Ġìºł íĶĦ
amb ers
p her
il ion
ì½Ķ ê°Ģ
Ġj ury
íĳľ ì¤Ģ
Ġìĸĳ ìĭĿ
Ġam ounts
Ġdet ail
Ġ185 3
Ġc ogn
è Ķ
Ġcons ent
Ġìłģ ìĿĦ
ĠMc N
ĠS earch
ìĭł ìĿ¸
ond o
ĠìŀĦ ìĥģ
ĠEc uador
ĠRoll ing
Ġëĭ¤ ë£¬
ìĶ¨ ë¥¼
Ġdivor ced
ĠCamer on
Ġpredomin antly
Ġwas n
ag ger
oc es
ĠëĶ ´
ic ism
Ġë¶Ģ ì²ľ
Ġ18 47
ĠëķĮ ëķĮë¡ľ
ìª½ ìľ¼ë¡ľëĬĶ
i ago
ĠP resent
Ġìĺ¤ ìĦ¸
ĠëıĦ ì¤ĳìĹĲ
íĭ° ìĿĺ
Ġì§Ģìĥģ ìĹŃìĿ´ëĭ¤
ìľ Ĺ
Ġìłľ ìķ½
ĠAll an
ĠíıĲ ê¸°
ument ary
Ġarchae ological
ĠD y
Ġst ere
ul atory
ĠìĻ¸êµĲ ê´Ģ
ĠAgric ulture
as hes
Ġ2 20
ĠC itiz
aw s
Ġë³Ģ íĻĶê°Ģ
ê²° ìłķ
Ġdef ended
umb ent
íģĲ ìĸ´
Ġmer ch
ĠíĿĲ ë¦Ħ
ĠW A
and ra
Ġrad ar
ìĤ¬ ë¦¬
Ġì§Ģ ëĮĢ
so le
Ġacc um
F ac
H ome
W ater
Ġì¤ĳ ìĹĲìĦľëıĦ
Ġcl ergy
ĠShort ly
it udes
ro x
ìĿ¸ ì¦Ŀ
ĠìĽĲ íĺķ
Ġë°Ķë¥´ìħĢë¡ľ ëĤĺ
am y
ang ular
leg raph
ì§Ģë°© ìĦłê±°
ĠëĮĢíķ´ìĦľ ëıĦ
Ġì£¼ëª© ìĿĦ
Ġhelic opter
Ġê¸° íĺ¸
Ġpro of
ĠHol mes
íĳ¸ ë¥´
Ġì§ĢëĤĺ ì§Ģ
ĠZh ang
Ġnam ely
ìłľ íķľ
Ġìľł ê²©
ì¤ĳ ìĿ´ëĭ¤
Ã© m
ĠGl ass
Ġvo iced
Ġc yl
ĠëĤĺ ìģľ
ĠìĹĲ ìĬ¤íĨł
Ġequ ation
ëĵľ ëŁ¬
Ġ18 46
ĠFin ally
ë®¤ ì§Ģì»¬
re ation
isc her
Ġg host
ĠR an
ĠG S
ĠìķĦ ëĬĶ
Ġê±´ë¬¼ ìĿĢ
1 000
ĠKing ston
ìķĦ ë¥¼
ĠB il
ìľ¼ë¡ľ ìĿĺ
ĠìłĦ ìŀĦ
ëıĮ ìĿ´
Ġë¶Ļ ìŀ¡
ĠLear ning
Ġintellect ual
Ġs itting
Ġb ell
Ġëĭ¤ ëħ
aj i
ĠìºĲ ìĬ¤íĮħ
ĠSaf ety
l ived
Ġëļ «
åĲ ³
ĠM om
ĠìĤ¬ ë¡ľ
Ġíķĺ ë§Ī
ĠëĿ¼ ìĬ¤
Ġsign als
Ġkill s
Ġë¶Ģë¥´ ê¸°ëıĦ
ìŀĲ ë³¸
U R
at ics
ìķĦ ìĺ¤
ìĨĮ ìĬ¤
Ġë°ķ ìĦ±
ëĵ¤ê³¼ ìĿĺ
! ,
ĠV il
Ġind oor
ĠMon th
ëłī ìĬ¤
ĠMo h
ĠCom edy
ĠëĿ¼ìĿ´ ìĸ¸
Ñ ĩ
ĠW ik
Ġed itors
ĠìķĪ ëĵľë¡ľìĿ´ëĵľ
Ġê·¸ëŁ¬ ë¯Ģë¡ľ
ĠBel arus
S everal
ot ions
ĠN ame
ie v
ĠìķĮ ëĿ¼
Ġë³¸ ìĿ¸
Ġëĭ¤ìĿĮ ìľ¼ë¡ľ
Ġbre eding
Ġëª¨ëį¸ ë¡ľ
Ġwind s
ĠAgain st
in ite
Ġf ame
ì°¨ ë³Ħ
Ġì¼Ģ ëĦ¤
ĠKenn eth
ĠLuther an
ìĨĮ ëł¨
Ġê³ł ë°±
ì²´ ìĿ´ëĭ¤
ĠëĵľëĿ¼ìĿ´ ë¸Į
é¢ ¨
ĠV id
ĠìĦ¸ ê·ł
Ġen rolled
Ġë¯¸êµŃ ìĹĲ
ĠArmen ia
Ġpun ishment
ĠN ak
ê³µ ë¬´ìĽĲ
ere k
âĹ ĭ
ìĽĲ ëŀĺ
ëŁ¬ ëĵľ
Ġë§Ī ìĹĲ
Ġìŀ¥ ë©´
ĠìĽĲ ëįĶ
ĠíĬ¸ ëŁŃ
ĠEp iscopal
Ġlocomot ive
Ġbatter y
J ean
ur as
im er
Ġêµ ½
Ġì¹ Ļ
ĠìĤ¬ëŀĮ ìľ¼ë¡ľ
ì²Ń ìĿĺ
Ġì½Ķ íĬ¸
Ġphot ographer
Ġment ions
h art
ĠìĹĨ ìĹĪëįĺ
ĠíĶĮë¡ľ ë¦¬ëĭ¤
Ġdoll ars
B i
Ch icago
Ġì¤Ģ ê²°ìĬ¹
ëĤ¨ ë¶Ģ
ĠìĦ¤ë¦½ íķľ
Ġstruct ural
ĠìĿ´ìĻ¸ ìĹĲëıĦ
ĠíĴįë¶Ģ íķľ
Ġê ´
Ġst eal
ì£¼ íĥĿ
row s
Ġpresent er
Ġë³Ħ ë¡ľ
ëĲĺìĹĪëĭ¤ ëĬĶ
ĠíĶ¼ ìĹĲë¥´
ĠëĴ¤ ë¡ľ
hab ilit
é® ®
F ort
Ġíķĺ ìĤ¬
Ġë§Ī ì¹ĺê³ł
ìĹ° íķľ
Ġresign ation
x x
Ġp y
íħĮ ìĬ¤íĬ¸
ìĿ¼ë°ĺ ë¯¼ì¡±íĸīìľĦ
Ġthr iller
e i
Ġt one
ĠC anyon
Ġst olen
íİ¸ ìĿ´
Ġcolumn s
nold s
1 17
ĠëĵľëĿ¼ë§Ī ìĿ´ëĭ¤
Ġsh orter
Ġíħ ľ
ĠMoroc co
ĠE in
op l
íħĮ íģ¬
Ġhol iday
Ġìłķ ìĿ´
Ġ4 50
Ġëª¨ ì§ĳ
ì¡Į ì§Ģë§Į
ìĨĲ ìŀĲ
ĠìĪĺë¡Ŀ ëĲĺìĸ´
Ġìłľ íľ´
og g
ê¸ī ìĿĺ
Ġsup plement
ĠíķŃ íķ´
ëħĦ ìłľ
ĠP iano
ĠëĤ¨ ëıĻìĥĿ
ĠGram mar
íĨł ëĬĶ
Ġê°ĢëĬ¥ ìĦ±ìĿĦ
ìĿ¸ëªħ ìĤ¬ìłĦ
Ġh ole
ĠN ancy
íļĮ ìĽĲ
Ġê³ł ìĦ±
m ade
ĠCh i
ĠìķĦë¬´ ëŁ°
Â ½
ë¦¬ ìĸ¼
Ġë°ĸ ìľ¼ë¡ľ
ĠíŀĪìĸ´ë¡ľ ì¦Ī
ç ½
ĠìĤ° ìķħ
Ġtheat rical
Ġcasual ties
ĠGram my
ĠêµŃë¯¼ìĿĺ íŀĺ
Play ers
ĠHerz egovina
Ġíķ´ íĶ¼
Ġìĭ¤ ìĪĺ
ĠAh mad
ì¤ Į
ĠManit oba
f a
ah u
h uman
Ġì£¼ ì°¨
Ġê¹Ģ ì¤Ģ
ĠNew foundland
íĶĮ ëłĪ
ĠìĤ¼ ìķĺëĭ¤
ì¸µ ìĿ´
Ġìĩł íĩ´
ar in
Ġì§Ģ ìĹĪëĭ¤
av ian
Ġì´Īê¸° ìĹĲëĬĶ
Ġquarter back
Ġë³¸ ëªħìĿĢ
Ġp icks
ĠE RA
ĠìĿ¸ ì¡°
ì²ľ ìĤ¬
Ġëĭ¹ íķ´
Ġê±¸ ëł¤
Ġë¶Ģë¶Ħ ìĹĲ
Ġì¤ĳ ëł¥
ë¹Ħ ëĤĺ
ê²½ê¸° ìĹĲìĦľ
ĠëıĻ ë©Ķëĭ¬ë¦¬ìĬ¤íĬ¸
ĠìĹĨ ê¸°
Ġë¹ ¨ë¦¬
hold ers
Ġìĵ´ ëĭ¤
u ise
Ġ18 49
Ġë¡ľë§¨ íĭ±
he ld
ĠWar ri
ìĽ¨ ìĬ¤íĬ¸
Ġseem ed
ĠìĿ¼ ìĽĲìľ¼ë¡ľ
Ġdro ve
ç« ł
Ġì¤ĳ ìĨĮ
éĥ İ
ç Ń
Ġto ll
ĠR achel
Ġimp ossible
ìĭľë§Ī íĺĦ
Ġpit ched
Ġë²Ĺ ìĸ´
ĠëĿ¼íĭ´ ìĸ´
èĲ ¬
ĠH im
Ġê¹Ģ ìľ¤
Ġpre y
Ġëª© ê²©
Ġê²ĮìŀĦ ìĿĢ
Ġstory line
Ġcompris es
H a
Ġw arri
es a
ol ine
Ġê°Ģ íķ´
ê³µ íĻĶ
ë³´ ëıĦ
arn er
åħ ¸
ê ±
Ġd eter
ok ie
ĠìķĦë¥´ ë©ĶëĭĪìķĦ
ĠìĹ´ì°¨ ëĬĶ
ê²½ìĥģ ëĤ¨ëıĦìĿĺ
ìĪĺ ìĪĺ
íļĮ ë¡ľ
ĠìĦľ ë¶ģ
Ġtro uble
Ġfight ers
Ġp ushed
ĠìĿ´ ëĤł
ëĿ¼ ë¯¸
Ġ" [
Ġben ch
Ġrac ial
Ġrestrict ions
/ (
F inal
ing le
ĠL az
od s
ĠêµĲ ëıĦ
Ġì§ĢìĹŃ ìĹĲìĦľëĬĶ
Ġë¬¸íĻĶ ìłģ
reg ular
Ġë§ī ìĿĦ
O f
ìĬ¤ ë¶Ģë¥´íģ¬
ul ates
Ġsc iences
Ġtri ple
Ġc hest
Ġê±° ì¹ľ
Ġê·¸ë¦¬ íķĺìĹ¬
Ġì£¼ë³Ģ ìĹĲ
ìĺ¤ìĬ¤íĬ¸ëłĪìĿ¼ ë¦¬ìķĦ
Ġìłľ ìŀĲ
Ġìľł ë¬¼
ìķ½ ëł¥
ê¸Ģ ë¦¬
Ġceleb ration
íĪ ´
ĠêµĲíĸ¥ ê³¡
ĠìŀĲ ìľ¨
Ġë¯¼ ì¤ĳ
ĠëıĦë¡ľ ìĿ´ëĭ¤
ĠEngine ers
ìĺĢëĭ¤ ê³ł
Ġpione er
Ġn est
ĠMan ila
Ġsuppl ied
Ġf iring
ĠK as
ì½Ķ ìĺ¬
Ġì§Ħ ìĪł
Ġìŀħ ë¬¸
Ġent ries
ì¡Į ìĿĦ
Ch inese
ĠìĿĮë°ĺ ìĿĺ
ĠìĿ´ìļ© íķĺëĬĶ
ĠCr iminal
Ġas k
ĠE ve
Ġê°Ģ ëıĦ
Ġíģ¬ ëłĪìĿ´
Ġì°½ ëĭ¹
Ġëª©ìĪ¨ ìĿĦ
L ocal
ĠëĮĢ ë¡ľ
ĠìĹŃ ìłĦ
ĠíļĮ ìĥī
Ġë¨¸ ë¦¬ë¥¼
ĠìĿ´ìłģ íķĺìĺĢëĭ¤
A I
Î ¼
Ġdebut s
ĠCzech oslov
Ġf isher
ĠTh ings
Ġë°Ģ ìłĳ
ĠìĿĺë¯¸ ê°Ģ
Ġacadem y
Ġë²łëĦ¤ ì¹ĺìķĦ
O ff
ot hes
Ġë²ł íĥĢ
ì¡Į ëįĺ
ĠìĥģíĻ© ìĿ´
umber land
Ġs ky
ì§Ģ ëĤĺ
Ġêµ ī
op rano
ĠìĿĺ ê±°
ë¯¸êµŃ ìĹĲ
ĠìĪĺ ëĭ¨
ìĭł ëĿ¼
ĠìĭľìĬ¤íħľ ìĿĺ
Ġcat hedral
in op
Ġê°Ħ ìĦŃ
Ġëªħì¹Ń ìľ¼ë¡ľ
Dan iel
C amb
M R
ĠG amb
Ġì¤ĳ ìĭľ
ëŁ¬ ëĬĶ
å· ¦
åľ ĸ
ĠìķĦë¯¸ ëħ¸
ĠìĤ¬ìļ© ìĿ´
c ity
Ġmaintain ing
M at
ĠH appy
ĠìĦ¸ê³Ħ ìĹĲ
Ġaut ob
188 9
ìľłëŁ½ ìĿĺ
Ġë¶Īë¦¬ ë©°
Ġneighbour ing
ëŀĺ ìĬ¤
Ġren owned
C ross
ed ge
ë¦¬ ì¡°
ĠJ in
Ġsw ord
ĠFras er
G ame
L L
o il
on ey
Ġin com
Ġp ointed
ip her
ĠPal m
Ġëĭ ¿
ìģ ĺ
ĠAT P
ĠìłĢ íĥĿ
L os
arm s
ĠÃ ĸ
ĠCON CACAF
ell ation
ĠAl pha
Ġìķ½ ë¬¼
ï¼ Į
Ġê·¸ëŁ¼ ìĹĲëıĦ
Ġs iege
åľ ¨
Ġunderst ood
Ġë© ĭ
Ġreg ulation
Ġê°Ħ ë¶Ģ
Ġê²°ê³¼ ëĬĶ
Ġê³µëıĻ ìłľìŀĳ
ĠÎ ²
Ġë°©íĸ¥ ìĿĦ
ìľłëĭĪ ë²Ħ
Ġconvinc ed
ì¹ĺ íĺĦ
ĠíĶ¼ ë¶Ģ
ĠëĶĶ ìł¤
Ġì¤ĳìķĻ ìĦłê±°
åĭ ķ
ĠíĶĦë¡ľíĨł ì½ľ
Ġë°ľ íļ¨
Ġíģ¬ ê¸°ìĿĺ
çľ ŀ
Sim on
Cath olic
Ġpl acing
Ġë¶Ģ ìĥģìľ¼ë¡ľ
Ġë§Ī ë£¨
ĠìĽĲ ìŀ¥
Ġconstitu encies
ĠìŀĲ ê²©ìĿĦ
ĠìľĦ íĥģ
Ġ18 37
ìŀ¬ ìĿĺ
Ġìĭľê°Ħ ìĿĢ
Ġëĥ Īëĭ¤
on te
ĠW end
Ġê°ľë°ľ ìĿĦ
Ġìłľê³µ íķĺê³ł
ì¯ ¤
C ultural
íķĺ ê°Ģ
et ics
Ġíĥľ ê·¸
ĠCro s
Ġinstall ation
ĠìĪĺëª© ëĵľëĿ¼ë§Ī
! ãĢĭ
ĠíĨł ë²Į
Ġë²ķ ìĿ¸
ĠìĦĿ íļĮ
ĠëĤĺê°Ģ ìĤ¬íĤ¤
Ġgrand son
b ours
ìĥģ ëĮĢ
ë¦¼ ìĿĦ
Ġexpl ain
Ġmonth ly
ĠìĤ¶ ìĿĺ
ì£¼ìĿĺ ëĬĶ
ĠDist inguished
Ġrefuge es
Ġtack les
M il
R NA
Ġl iver
Ġëį° ìĬ¤
Ġê¸Ī ê°ķ
ĠíĹ¤ ëĵľ
ìłĦ ëŀµ
Ġíĸ Ħ
ĠAl bums
ë¡ł ê³¼
Ġì¼Ģ ë¹Ī
íĬ¹ë³ĦìŀĲì¹ĺ ëıĦìĿĺ
B attle
ĠC yr
Ġìľł ìļ°
Ġ18 12
ĠëĲĺ ê¸°ëıĦ
Ġconf used
Ġs weet
ep age
ĠíĨ ¤
Ġìĭł íĿ¥
Ġë¶Ī ëªħ
íĻ© ìłľ
ĠP R
Ġìŀĳ ìłĦìĿĦ
ëĵ± íķľ
n ut
ĠC T
ì§Ģ ëĬ¥
ëĦ £
Ġinter action
ist ent
ĠìĤ¬ëŀĮ ìĿ´ëĭ¤
ìĺ¨ ëĭ¤
Ġmain land
Ġë°ľìĥĿ íķł
Ġcivil ians
w ind
íķĺ ê²łëĭ¤ê³ł
ë§¤ ì¹ĺ
Ġb otan
ĠP orter
ëĮĢ ìĻķ
Ġìĥģ ìĿĺ
Ġê¹Ģ ìĬ¹
Ġrel ay
ë¥ł ìĿ´
ìĿ¼ ê¸°
os y
ĠCard iff
ĠH ir
ĠìķĦ ìĦľ
ë¥ĺ ìĹĲ
Ġstat ements
Ġfre ight
Ġread ers
íķĺ ë¦¬
Ġex ha
ê²½ê¸° ìŀ¥
ĠId aho
ĠD in
íİ ĳ
Ġdest ro
ìĤ¬ ìĭľ
ĠW ii
ab lo
Ġêµ¬ ë¦Ħ
Ġunder went
ats u
Ġê¸ī ê²©
ëıĻ ë©´
ëłĪ íĭ°
ĠëıĻ ìķĦìĭľìķĦ
Ġìŀħ ëĮĢ
ä¿ Ŀ
) >
æ ¾
or ient
ìľ¼ ëł¤
ĠìĻ¸ ìĿĺ
Ġl obby
ĠëĮĢ ëĭµ
ì¦Ī ìĻĢ
Ġthere by
ĠRes p
ĠìķĬìķĺ ìľ¼ë©°
ĠëĳĲëł¤ ìĽĮ
O H
ĠL enn
Ġê°ľ ìĦ±
Ġdevelop ments
ĠBron ze
ì²´ ìĹĲìĦľ
Ġë¶ģ ê·¹
Ġìķ½ ê°ĦìĿĺ
Ġlist en
188 5
Ġcollabor ated
Ġrecon struction
Ass ociation
Ã °
Ar gent
ĠPaul o
Ġpsych ology
Ġconsum ption
Ġíķĺëĵľ ìĽ¨ìĸ´
ì²ł ìĿĺ
Ġcricket ers
ĠB ark
ìĺĪ íĶĦ
ëĲľëĭ¤ ëĬĶ
ëĦĪ ìĿĺ
ĠEd ge
Ġë¸ĮëĿ¼ ëįĶìĬ¤
y ch
µ ¸
Ġ Ø
Ġst ored
ater al
Ġìºł íį¼ìĬ¤
ĠGer ald
ĠëĮĢíķľë¯¼êµŃ ìĹĲìĦľëĬĶ
Ġìķ½ íķľ
Ġarg ues
ĠCurt is
w he
ĠR ica
ìĸ´ ìļĶ
Ġë¹Ħ ìĬ¤
ĠìĤ° íĥĢ
Ġë²Ħ íĬ¼
Å Ľ
ë° ı
op hers
ìĺĪ ìĦł
ĠíĻĶ íıĲ
íı´ ëŀĢëĵľ
Ġphys ic
ĠBudd ha
ĠìĿ´ ìĬ¤íĬ¸
per t
Ġìĺ¨ ëıĦ
Ġfail ing
ĠìĬ¤íĬ¸ë¦¬ íĬ¸
K ore
ëı Ķ
ĠH i
ìĺģ ìĿ´
Ġcompos itions
Ġë¹Ħë¡¯ íķ´
Ġbehav iour
Ġt enth
Ġp ill
ĠìĦľ ëıħ
Ġë³µ ì§Ģ
Ġput ting
Ġgraph ic
F oot
Ġì¡´ìŀ¬ ë¥¼
Ġwar fare
íĺ¸ìĦł ìĿĺ
Ġì½ľ ë¡ľ
l it
ĠB ody
tt y
Ġprogress ive
ĠìĿ´ìĿµ ìĿĦ
Ġk g
Ġ0 7
ĠSl oven
Ġëĸł ëĤľ
ĠTor ah
ĠE ye
Ġman ages
ìĭ¤ ë²łìĿ´
ĠGreat est
íĳ¸ ë¥´íĬ¸
ĠìķĦìļ° êµ¬
íķ´ ì§Ģê³ł
Ġë¯¸ ì¸ł
ê²½ ë¶ģ
re ated
ë§Ī ì¼Ģ
Ġor b
Ġêµ¬ ë¦¬
ĠDou g
Ġìľµ íķ©
ëĦ¤ëįľëŀĢëĵľ ìĿĺ
æĩ ī
Ġf aster
Ġp airs
ĠC ann
ĠM az
Ġì£¼ ìĨĮ
Ġ11 1
Ġcan on
å¯ ¶
Ġìĺ¤ë¦¬ ì½ĺ
ĠChel sea
ĠK umar
Ġëª¨ íĺķ
ĠPro cess
Ġë²Ī íĺ¸ëĬĶ
ĠëĮĢ ëĭ¨
ë§Ī ë¥´íģ¬
ë¯¸ ëĦ¤
ĠìĽĲ ë¡ľ
ĠìĤ¬ìĿ´ ë¥¼
Ġì¡°ìĦłì´Ŀëıħ ë¶Ģ
k u
Ġb orrow
Ġdis m
Ġgu ards
ĠClass ical
Ġord inary
Ġst ake
ĠìļĶ ê¸Ī
Ġent reprene
ott a
din and
Ġ å¤§
Ġte a
Ġê²Į ìŀ¬
Ġbox ing
ĠRoberts on
ĠLith uania
( "
ĠìĿĺ ë¢°
ëģ Ŀ
ĠBur ton
Ġaf ternoon
ĠL ic
ĠFin als
ìĬ¤ìľĦ ìĬ¤
ìĬ¤ìĽ¨ëį´ ìĿĺ
Ġë¹Ħ ì¦ĪëĭĪìĬ¤
Ġê¹Ģ ëªħ
ë¦° ìĬ¤
ĠíķľêµŃ ìĺģíĻĶ
Ġport rait
ĠP or
ag le
Ġì£¼ íķľ
æĻ º
Ġì¹ł ëłĪ
Ġíķ´ì²´ ëĲľ
oca ust
ĠK itt
Ġìłľ ëıĦìĿĺ
ìľł ë¦¬
Ġìĸ´ ë¦´
ĠëĳĲ ë²Īì§¸
ë©´ìĦľ ëıĦ
Ġfast est
èº «
Ġë³´ ì¶©
land o
Ġcr uis
Ġhand le
éĸ ĭ
L uc
W il
ìĹ¬ ëŀĺ
Ġres ource
Ġê³³ ìĿĢ
ĠLouis ville
Ġê²°ìĬ¹ ìłĦìĹĲìĦľ
Ġd ict
Ġë¶Ģ íĨµëł¹
Ġs overe
ol ith
Ġêµ¬ê°Ħ ìĿĢ
ë¶ĢìĤ° ê´ĳìĹŃìĭľ
ĠBey ond
Ġperce ived
ĠA ri
ĠIn itially
Ġê´Ģ ëŀĮ
ì²ľ ëıĻ
ĠëįĶ ë¹Ļ
Ġì´Ī ìłĲìĿĦ
ai ro
Ġì°½ ìĹħ
ĠG Ã¶
ìľĦ ìķĪ
Ġëĭ¹ ëĤĺëĿ¼
ìĸµ ìĽĲ
Ġtal ks
L R
ĠC rystal
Ġì¹ľ ìĿ¼ë°ĺë¯¼ì¡±íĸīìľĦ
Ġì¤ĳêµŃ ìĹĲìĦľ
ĠíĿĶ ëĵ¤
ĠBC E
Ġlaws uit
Ġë§Īìĵ° ëĭ¤ìĿ´ëĿ¼
ap a
ĠìĿ¼ íĻĺìľ¼ë¡ľ
ĠBl oom
Ġëĵ¤ ìĹ¬
ĠSur v
ĠíĨµ íĸī
Ġreform s
Ġd inosaur
íĥĦ ìĥĿ
ĠCong o
ë°Ľ ì§Ģ
ĠPop ulation
Ġvolunte ers
Ġsubmar ine
D B
w il
Ġs ending
Ġc utting
ĠP aper
ĠD ol
ĠLe vel
Ġtrans it
Ġë°± ìĿ¸
Ġel abor
êµĲ ìĭ¤
ang ered
Ġìµľ íĽĦìĿĺ
ĠCom plex
Ġpr ayer
ĠëĮĢíļĮ ë¥¼
éº Ĺ
ĠWarri ors
ĠI gn
ĠìĦł ëĳĲ
Ġë¨¹ ëĬĶëĭ¤
ĠExped ition
ĠíĻľëıĻ ìĹĲ
ĠëıĦìĭľ ìĿ´ëĭ¤
ĠEp isode
Ġì§Ģì¤ĳ íķ´
p ath
ìŀ Ń
ĠS ent
Ġëĭ¤ ê°Ģ
ĠíĶ¼ ìĹĲ
di ocese
ĠGener ation
in ts
ĠR ank
ìŀĲ ë¥´
ĠG am
Ġìłģ ìĥī
Ġhigh ways
ene ath
ĠëģĿ ëĤ´
[...]
