{"<pad>":0,"<s>":1,"</s>":2,"<unk>":3,"!":4,"\"":5,"#":6,"$":7,"%":8,"&":9,"'":10,"(":11,")":12,"*":13,"+":14,",":15,"-":16,".":17,"/":18,"0":19,"1":20,"2":21,"3":22,"4":23,"5":24,"6":25,"7":26,"8":27,"9":28,":":29,";":30,"<":31,"=":32,">":33,"?":34,"@":35,"A":36,"B":37,"C":38,"D":39,"E":40,"F":41,"G":42,"H":43,"I":44,"J":45,"K":46,"L":47,"M":48,"N":49,"O":50,"P":51,"Q":52,"R":53,"S":54,"T":55,"U":56,"V":57,"W":58,"X":59,"Y":60,"Z":61,"[":62,"\\":63,"]":64,"^":65,"_":66,"`":67,"a":68,"b":69,"c":70,"d":71,"e":72,"f":73,"g":74,"h":75,"i":76,"j":77,"k":78,"l":79,"m":80,"n":81,"o":82,"p":83,"q":84,"r":85,"s":86,"t":87,"u":88,"v":89,"w":90,"x":91,"y":92,"z":93,"{":94,"|":95,"}":96,"~":97,"¡":98,"¢":99,"£":100,"¤":101,"¥":102,"¦":103,"§":104,"¨":105,"©":106,"ª":107,"«":108,"¬":109,"®":110,"¯":111,"°":112,"±":113,"²":114,"³":115,"´":116,"µ":117,"¶":118,"·":119,"¸":120,"¹":121,"º":122,"»":123,"¼":124,"½":125,"¾":126,"¿":127,"À":128,"Á":129,"Â":130,"Ã":131,"Ä":132,"Å":133,"Æ":134,"Ç":135,"È":136,"É":137,"Ê":138,"Ë":139,"Ì":140,"Í":141,"Î":142,"Ï":143,"Ð":144,"Ñ":145,"Ò":146,"Ó":147,"Ô":148,"Õ":149,"Ö":150,"×":151,"Ø":152,"Ù":153,"Ú":154,"Û":155,"Ü":156,"Ý":157,"Þ":158,"ß":159,"à":160,"á":161,"â":162,"ã":163,"ä":164,"å":165,"æ":166,"ç":167,"è":168,"é":169,"ê":170,"ë":171,"ì":172,"í":173,"î":174,"ï":175,"ð":176,"ñ":177,"ò":178,"ó":179,"ô":180,"õ":181,"ö":182,"÷":183,"ø":184,"ù":185,"ú":186,"û":187,"ü":188,"ý":189,"þ":190,"ÿ":191,"Ā":192,"ā":193,"Ă":194,"ă":195,"Ą":196,"ą":197,"Ć":198,"ć":199,"Ĉ":200,"ĉ":201,"Ċ":202,"ċ":203,"Č":204,"č":205,"Ď":206,"ď":207,"Đ":208,"đ":209,"Ē":210,"ē":211,"Ĕ":212,"ĕ":213,"Ė":214,"ė":215,"Ę":216,"ę":217,"Ě":218,"ě":219,"Ĝ":220,"ĝ":221,"Ğ":222,"ğ":223,"Ġ":224,"ġ":225,"Ģ":226,"ģ":227,"Ĥ":228,"ĥ":229,"Ħ":230,"ħ":231,"Ĩ":232,"ĩ":233,"Ī":234,"ī":235,"Ĭ":236,"ĭ":237,"Į":238,"į":239,"İ":240,"ı":241,"Ĳ":242,"ĳ":243,"Ĵ":244,"ĵ":245,"Ķ":246,"ķ":247,"ĸ":248,"Ĺ":249,"ĺ":250,"Ļ":251,"ļ":252,"Ľ":253,"ľ":254,"Ŀ":255,"ŀ":256,"Ł":257,"ł":258,"Ń":259,"Ġì":260,"ìĿ":261,"Ġë":262,"Ġt":263,"he":264,"in":265,"Ġa":266,"er":267,"íķ":268,"on":269,"Ġê":270,"Ġthe":271,"ìĹ":272,"re":273,"an":274,"ëĭ":275,"or":276,"en":277,"at":278,"Ġo":279,"ed":280,"Ġí":281,"st":282,"al":283,"ar":284,"Ġw":285,"ìĿ´":286,"it":287,"ìĿĺ":288,"ëĭ¤":289,"Ġof":290,"Ġ1":291,"nd":292,"Ġs":293,"Ġin":294,"is":295,"ìĹĲ":296,"es":297,"Ġc":298,"Ġf":299,"ê³":300,"ìĦ":301,"ëĬ":302,"Ġb":303,"ë¡":304,"ic":305,"ëĬĶ":306,"Ġp":307,"ing":308,"Ġand":309,"ìł":310,"ê°":311,"ìŀ":312,"ë¡ľ":313,"ion":314,"ro":315,"as":316,"êµ":317,"ĠìĿ":318,"ëħ":319,"íķĺ":320,"Ġ2":321,"ĠS":322,"le":323,"ë¦":324,"ì§":325,"Ġ(":326,"Ġto":327,"ëħĦ":328,"Ġm":329,"ë¥":330,"ĠC":331,"ìľ":332,"ìĭ":333,"ìĿĦ":334,"Ġd":335,"ĠA":336,"ou":337,"Ġìŀ":338,"íķľ":339,"Ĥ¬":340,"ĠT":341,"ĮĢ":342,"ìĬ":343,"il":344,"ìķ":345,"ëı":346,"¸°":347,"Ġh":348,"ent":349,"Ġìł":350,"ìĽ":351,"ĠM":352,"ë¦¬":353,"ê³ł":354,"ëĵ":355,"am":356,"ê°Ģ":357,"ìĦľ":358,"Ġ19":359,"el":360,"ìĬ¤":361,"ol":362,"om":363,"Ġ20":364,"ìĿĢ":365,"ìļ":366,"ì§Ģ":367,"ĠĊ":368,"ĠB":369,"Ġê°":370,"Ġre":371,"Ġë°":372,"ac":373,"Ġìķ":374,"Īëĭ¤":375,"ĠìĹ":376,"Īĺ":377,"ìľ¼":378,"Ġl":379,"ĠìĦ":380,"ê¸°":381,"ĠìĿ´":382,"ìĺ":383,"ad":384,"ĠP":385,"ìĸ":386,"ë¥¼":387,"ë§":388,"ëĤ":389,"ur":390,"Ŀ¼":391,"ê²":392,"et":393,"ë¶":394,"ec":395,"ëıĦ":396,"ëł":397,"ĠH":398,"Ġn":399,"ation":400,"iv":401,"ìĭľ":402,"ers":403,"ìĿ¸":404,"ĠI":405,"ëĿ¼":406,"ig":407,"£¼":408,"id":409,"ìĿ¼":410,"Ġe":411,"ĠR":412,"Ġìĭ":413,"Ġth":414,"Ġwas":415,"ë°":416,"ot":417,"ë©":418,"us":419,"ir":420,"Ġê²":421,"Ġë§":422,"ĠD":423,"ìĤ¬":424,"ìĥ":425,"ay":426,"êµŃ":427,"ĠL":428,"ly":429,"ëĲ":430,"im":431,"ëĮĢ":432,"ìŀĲ":433,"Ġìĺ":434,"Ġfor":435,"ìľ¼ë¡ľ":436,"ĠF":437,"Ġon":438,"ì¹":439,"·¸":440,"ìĹĲìĦľ":441,"ìĸ´":442,"âĢ":443,"ëŀ":444,"Ġê³":445,"ch":446,"ut":447,"ìĻ":448,"íĻ":449,"ë³":450,"Ġg":451,"ist":452,"ĠG":453,"Ġis":454,"ë¬":455,"ĠN":456,"ë¯":457,"ow":458,"Ġì§":459,"ë¶Ģ":460,"em":461,"ìĽĶ":462,"ĠìĤ¬":463,"ĠThe":464,"ĠW":465,"íķ´":466,"Ġas":467,"19":468,"un":469,"ìķĦ":470,"íĸ":471,"ãĢ":472,"ĠëĮĢ":473,"Ġêµ":474,"ith":475,"00":476,"íĬ":477,"Ġëĭ":478,"ê³¼":479,"ter":480,"Ġst":481,"íĺ":482,"th":483,"íķĻ":484,"ëĤĺ":485,"Ġìľ":486,"and":487,"her":488,"ul":489,"ìĪĺ":490,"ĠëĤ":491,"ct":492,"ĠE":493,"ag":494,"Ġëı":495,"ce":496,"ì£¼":497,"ĠJ":498,"ë²":499,"Ġwith":500,"Ġ-":501,"ëª":502,"íĥ":503,"ì²":504,"um":505,"íĬ¸":506,"Ġby":507,"Ġë³":508,"Ġal":509,"êµ¬":510,"ìĨ":511,"os":512,"Ġë¶":513,"ìŀ¥":514,"Ġê·¸":515,"íĻĶ":516,"Ġ\"":517,"ra":518,"ëĵľ":519,"Ġbe":520,"'s":521,"ver":522,"rom":523,"op":524,"ìłķ":525,"ëį":526,"ëĵ¤":527,"ìĽĲ":528,"âĢĵ":529,"Ġ200":530,"¡°":531,"ìĥģ":532,"ëĲĺ":533,"Ġëª":534,"ĠO":535,"ëŁ":536,"Ġ3":537,"ìĻĢ":538,"Ġat":539,"Ġì¶":540,"¹Ħ":541,"ĠK":542,"ri":543,"ìĦ±":544,"ìłĦ":545,"Ġwh":546,"ĠìĪĺ":547,"Ġan":548,"¤ĳ":549,"ļĮ":550,"oc":551,"Ġìĭľ":552,"Ġ201":553,"Ġcon":554,"ìłģ":555,"ĠìķĦ":556,"êµĲ":557,"ìĿ´ëĭ¤":558,"od":559,"Ġfrom":560,"Ġhe":561,"Ġv":562,"Ġê¸°":563,"Ġì§Ģ":564,"ĠU":565,"ìļ°":566,"Ġê°Ģ":567,"20":568,"íĶ":569,"ain":570,"Ġthat":571,"Ġìłľ":572,"ian":573,"est":574,"ĠìłĦ":575,"av":576,"all":577,"ë¥´":578,"ab":579,"ëıĻ":580,"ity":581,"ìłľ":582,"íĦ":583,"´Ģ":584,"ìĹĪëĭ¤":585,"res":586,"ew":587,"Ġìĥ":588,"ia":589,"ts":590,"ê²Į":591,"ies":592,"íļĮ":593,"Ġëĵ":594,"if":595,"ģ¬":596,"ate":597,"up":598,"Ġcom":599,"ĠìŀĪ":600,"ill":601,"ìĺĢ":602,"ìĤ":603,"ber":604,"Ġpro":605,"ì°":606,"Ġìļ":607,"íĨ":608,"ë©°":609,"ì¹ĺ":610,"ë§Ī":611,"Ġíķĺ":612,"ud":613,"ard":614,"art":615,"ĠSt":616,"Ġit":617,"ìĹ¬":618,"ĠìĨ":619,"Ġíĺ":620,"ë¯¼":621,"Ġë¬":622,"ĽĦ":623,"igh":624,"ĠìĬ":625,"íĦ°":626,"ĠìĦł":627,"ak":628,"Ġde":629,"),":630,"ap":631,"ub":632,"ĠíĻ":633,"Ġë¯":634,"Ġìłķ":635,"Ġpl":636,"ë£":637,"Ġíķľ":638,"ip":639,"ë¯¸":640,"Ġ4":641,"Ġhis":642,"Ġì²":643,"ear":644,"ich":645,"ëĭĪ":646,"Ġor":647,"ore":648,"ast":649,"ĠìĿ¼":650,"ĠíĶ":651,"Ġr":652,"ort":653,"ë¬¸":654,"Ġë²":655,"ìĦł":656,"ë©´":657,"ess":658,"íģ¬":659,"ĠìŀĪëĭ¤":660,"ld":661,"ë§Į":662,"ov":663,"Ġìĺģ":664,"íĮ":665,"Ġëĭ¤":666,"ĠIn":667,"qu":668,"The":669,"Ġíķ":670,"Ġì¤ĳ":671,"ìļ©":672,"ëªħ":673,"ìĭł":674,"ìĹŃ":675,"±°":676,"ated":677,"ê³Ħ":678,"ish":679,"ĠV":680,"Ġ:":681,"ary":682,"Ġê³µ":683,"ëłĪ":684,"ë¹Ħ":685,"Ġìĸ":686,"ĠìŀĲ":687,"Ġare":688,"Ġ199":689,"Ġë³´":690,"our":691,"ment":692,"ge":693,"ĠCh":694,"ive":695,"Ġíı":696,"ìĦ¸":697,"ong":698,"mer":699,"Ġì£¼":700,"ĠìĿ¸":701,"íĥĢ":702,"Ġê²½":703,"ê¸":704,"ĠãĢ":705,"Ġì°":706,"ìľĦ":707,"Ġìľł":708,"Ġ5":709,"og":710,"ĠìĹŃ":711,"end":712,"íĸĪëĭ¤":713,"Ġch":714,"ial":715,"ug":716,"íı":717,"nt":718,"ìĤ°":719,"ìĺ¤":720,"íķĺëĬĶ":721,"ìĨĮ":722,"Ġë¯¸":723,"Ġex":724,"ine":725,"ran":726,"íķĺìĺĢ":727,"ì¹´":728,"ì¡°":729,"se":730,"ëĲľ":731,"ell":732,"ëŁ¬":733,"ks":734,"ì¦":735,"ĠëıĻ":736,"Ġê²ĥ":737,"ì¶":738,"und":739,"ep":740,"ê³µ":741,"ì§Ħ":742,"ere":743,"ust":744,"ĠìľĦ":745,"ord":746,"ë³´":747,"ãĢĭ":748,"ame":749,"½Ķ":750,"ant":751,"uc":752,"êµ°":753,"Ġë¶Ģ":754,"êµŃìĿĺ":755,"Ġ18":756,"Ġì¹":757,"fer":758,"Ġë§Ī":759,"Ġse":760,"ĠâĢĵ":761,"íĤ":762,"ê·¸":763,"ëĦ":764,"ĠëĲ":765,"so":766,"ĠìĻ":767,"ĠíĮ":768,"ê²½":769,"Ġíĥ":770,"ect":771,"ure":772,"Ġìĺ¤":773,"ost":774,"ĠìĬ¤":775,"ìĹ°":776,"ire":777,"ĠìĹ°":778,"Ġì¡°":779,"Ġwere":780,"íķĻêµĲ":781,"íĭ":782,"ĠìĨĮ":783,"ê´Ģ":784,"200":785,"ìĥĿ":786,"Ġê°ľ":787,"¢ħ":788,"ical":789,"Ġle":790,"Ġ6":791,"ìĭĿ":792,"ue":793,"ack":794,"Ġëĵ±":795,"ions":796,"ĶĶ":797,"ìŀ¬":798,"ĠëĤĺ":799,"ĠìĽ":800,"ĠãĢĬ":801,"Ġëį":802,"íĶĦ":803,"íķĺê³ł":804,"Ġwhich":805,"ìĺģ":806,"ĠêµŃ":807,"ie":808,"Ġsp":809,"Ġëª¨":810,"ê°Ħ":811,"Ġì¶ľ":812,"íĺ¸":813,"ther":814,"Ġalso":815,"Ġê³ł":816,"enc":817,"ign":818,"Ġk":819,"ĠìĿĺ":820,"ĠHe":821,"ĠUn":822,"Ġsh":823,"are":824,"Ġy":825,"ĠìĹ¬":826,"ëĭ¨":827,"ĠëıĦ":828,"ì²´":829,"ìŀĳ":830,"Ġ7":831,"ry":832,"Ġêµ¬":833,"ff":834,"Ġ198":835,"rit":836,"íĤ¤":837,"201":838,"ìĹħ":839,"Ġcomp":840,"ê·":841,"ĠíĨ":842,"ĳľ":843,"ì¡":844,"ëĭ¹":845,"Ġë°ľ":846,"ë³¸":847,"ass":848,"||":849,"age":850,"pp":851,"ë¬´":852,"ric":853,"íķĺìĹ¬":854,"ĠíĶĦ":855,"íķĺìĺĢëĭ¤":856,"ìľł":857,"ë¬¼":858,"Ġplay":859,"íİ":860,"ê°ľ":861,"ight":862,"íĸī":863,"ĠìĦ¸":864,"ìĹĪ":865,"ĠìĦľ":866,"ìĿĮ":867,"Ġë¹Ħ":868,"Ġ8":869,"ŀĪ":870,"íķľëĭ¤":871,"ĳĲ":872,"ous":873,"cl":874,"ê°ģ":875,"ide":876,"ìķ¼":877,"ëį°":878,"man":879,"Ġun":880,"ĠëĤ¨":881,"Ġìĭł":882,"ĠĠ":883,"ìŀĦ":884,"Ġ10":885,"Ġëħ":886,"ĠëĮĢíķľ":887,"ĠY":888,"íĨł":889,"irst":890,"Ġìĥģ":891,"´Ī":892,"ķĮ":893,"Ġ9":894,"ê±°":895,"íĽĦ":896,"ìľ¼ë©°":897,"ond":898,"¸Į":899,"ĠìĦłìĪĺ":900,"ìĪ":901,"land":902,"ĠíĽĦ":903,"ëĲĺìĹĪëĭ¤":904,"ork":905,"ory":906,"ëł¥":907,"ë°©":908,"ì°¨":909,"ìķĪ":910,"ê¹":911,"ë£¨":912,"Ġcl":913,"ĠìĦ±":914,"±´":915,"Ġnot":916,"ations":917,"iz":918,"ĠìĤ":919,"ìļ´":920,"Ġê´Ģ":921,"erv":922,"ang":923,"per":924,"Ġar":925,"Ġhad":926,"ë°ĺ":927,"ave":928,"ëŀĺ":929,"ok":930,"ìĹĲëĬĶ":931,"ng":932,"ëĶĶ":933,"íķł":934,"ational":935,"hed":936,"own":937,"ìļĶ":938,"Ġhas":939,"Ġíķ´":940,"Ġ||":941,"Ġíĸ":942,"µľ":943,"ey":944,"ëł¤":945,"íħ":946,"ice":947,"tern":948,"ool":949,").":950,"ount":951,"ome":952,"ican":953,"act":954,"Ġ197":955,"Ġus":956,"fter":957,"ĠëĲĺ":958,"ach":959,"Ġro":960,"ì¤ĳ":961,"Ġwhe":962,"ì½Ķ":963,"orn":964,"Ġfirst":965,"ëŀĮ":966,"ĠêµĲ":967,"Ġê¹":968,"Ġë°°":969,"amp":970,"Ġint":971,"ater":972,"ëįĺ":973,"ĠTh":974,"ĠAl":975,"ìĻ¸":976,"Ġcont":977,"ib":978,"Ġìŀĳ":979,"ëª¨":980,"ì¦Ī":981,"Ġres":982,"ëħ¸":983,"ĠëķĮ":984,"ember":985,"íı¬":986,"ĠìĺģíĻĶ":987,"ph":988,"wo":989,"ë¡Ŀ":990,"In":991,"Ġë°©":992,"ĠIt":993,"íĭ°":994,"íĨµ":995,"Ġ12":996,"out":997,"ition":998,"ë²Ħ":999,"uct":1000,"ìĸĳ":1001,"Ġì¶ķ":1002,"ĠíĬ":1003,"ens":1004,"ìĨį":1005,"ult":1006,"Ġad":1007,"ence":1008,"ë¦½":1009,"ime":1010,"ë¶Ħ":1011,"ë°Ķ":1012,"ree":1013,"Ġits":1014,"Ġìŀ¥":1015,"Ġte":1016,"ì¸":1017,"ee":1018,"Ġtheir":1019,"íŀĪ":1020,"ì¢ħ":1021,"¶Į":1022,"ates":1023,"ik":1024,"Ġìļ°":1025,"Ġë¦":1026,"ace":1027,"ited":1028,"Ġ'":1029,"ìħ":1030,"Ġj":1031,"lect":1032,"íĺĦ":1033,"ĠAr":1034,"Ġwho":1035,"Ġë¬¸":1036,"chool":1037,"aw":1038,"Ġ~":1039,"ark":1040,"Ġë©":1041,"Ġab":1042,"ound":1043,"íĳľ":1044,"Ġê¸":1045,"Ġë°Ķ":1046,"199":1047,"Ġë¬´":1048,"ĠìŀĪëĬĶ":1049,"íĴ":1050,"Ī¬":1051,"pl":1052,"Âł":1053,"Ġbut":1054,"ë¶ĢíĦ°":1055,"port":1056,"íĮĮ":1057,"ê¹Į":1058,"ath":1059,"eg":1060,"merican":1061,"Ġíı¬":1062,"ite":1063,"18":1064,"Ġì¶ķêµ¬":1065,"Ġ196":1066,"Ġone":1067,"Ġê¹Ģ":1068,"oll":1069,"íĹ":1070,"Ġac":1071,"Ġìµľ":1072,"Ġëħ¸":1073,"Ġyear":1074,"íĸĪ":1075,"ugh":1076,"ubl":1077,"ences":1078,"Ġapp":1079,"ĠíĨµ":1080,"clud":1081,"ëĵ±":1082,"ally":1083,"over":1084,"Ġpart":1085,"ile":1086,"ild":1087,"pt":1088,"Ġ11":1089,"ors":1090,"ivers":1091,"ì§Ģë§Į":1092,"iss":1093,"ĺĲ":1094,"Ġíİ":1095,"ĠìķĬ":1096,"eb":1097,"ë²ķ":1098,"ĠìĤ¬ëŀĮ":1099,"Ġê·":1100,"Ġman":1101,"Ġë¦¬":1102,"Ġë§Į":1103,"ĠNew":1104,"ilm":1105,"wn":1106,"ë¦°":1107,"ëĤ¨":1108,"Ġë¡":1109,"ĠëĤ´":1110,"Ġrec":1111,"for":1112,"ould":1113,"ress":1114,"íĺķ":1115,"Ġìĸ´":1116,"ĠâĢ":1117,"´ĳ":1118,"Ġì§Ħ":1119,"ents":1120,"hn":1121,"Ġê²°":1122,"ë©Ķ":1123,"Ġher":1124,"eop":1125,"ĠëĶ":1126,"les":1127,"Ġag":1128,"ĠíĺĦ":1129,"oy":1130,"¤Ģ":1131,"Ġê±°":1132,"ade":1133,"ìĬ¤íĬ¸":1134,"Ġhave":1135,"ë¥¸":1136,"Â·":1137,"Ġper":1138,"ìĹĲê²Į":1139,"ob":1140,"old":1141,"uring":1142,"Ġsc":1143,"ëŀĢ":1144,"ì¼":1145,"Ġthis":1146,"ì¶ľ":1147,"ìĦ¤":1148,"Ġbec":1149,"ìĭ¤":1150,"ĠëĺĲ":1151,"ë¸Į":1152,"ìĬ¹":1153,"io":1154,"Ġtwo":1155,"Re":1156,"ern":1157,"Ġinclud":1158,"Ġall":1159,"ì¿":1160,"eople":1161,"ìķĺ":1162,"ĠìĥĿ":1163,"ĠMar":1164,"ĠìĽĲ":1165,"ê¹Įì§Ģ":1166,"ons":1167,"ë°ľ":1168,"te":1169,"ëŀĳ":1170,"íķ©":1171,"ind":1172,"ëĤ´":1173,"ì²ľ":1174,"ased":1175,"ĠíĮĮ":1176,"ëıħ":1177,"vel":1178,"Ġê°ķ":1179,"gh":1180,"oin":1181,"ê²©":1182,"ward":1183,"ferences":1184,"urn":1185,"oot":1186,"ss":1187,"Ġother":1188,"ĠCom":1189,"ail":1190,"als":1191,"Ġë¶Ħ":1192,"21":1193,"ìłģìĿ¸":1194,"Ġë¶Ī":1195,"ì»":1196,"ĠìķĮ":1197,"ĠìĦ¤":1198,"able":1199,"Ġbeen":1200,"ted":1201,"ings":1202,"ĠìĹĲ":1203,"ìłģìľ¼ë¡ľ":1204,"hip":1205,"uch":1206,"ìĿ´ëĿ¼":1207,"ìłĲ":1208,"Ġ15":1209,"ied":1210,"Ġdis":1211,"íĴĪ":1212,"Ġafter":1213,"Ġdes":1214,"ê¶Į":1215,"ë¯¼êµŃìĿĺ":1216,"ĠëĦ":1217,"way":1218,"ft":1219,"Ġ194":1220,"Ġcomm":1221,"Ġëĭ¹":1222,"ely":1223,"we":1224,"ìĨ¡":1225,"Ġë°ı":1226,"Ġact":1227,"ood":1228,"References":1229,"ton":1230,"Ġ195":1231,"ì§ģ":1232,"Ġim":1233,"Ġê°Ļ":1234,"Ġë°ĺ":1235,"red":1236,"Ġë§ģ":1237,"ìļ¸":1238,"Ġ17":1239,"Ġup":1240,"ics":1241,"ëł¹":1242,"Ġë¡ľ":1243,"Ġê³Ħ":1244,"ĠíĹ":1245,"ìĪł":1246,"ĠìķĪ":1247,"íĥľ":1248,"Ġëĭ¨":1249,"ex":1250,"ral":1251,"Ġ16":1252,"ball":1253,"outh":1254,"ë¦¬ìķĦ":1255,"ury":1256,"ĠìĿĮ":1257,"orld":1258,"ont":1259,"ah":1260,"ĠìĹĨ":1261,"ance":1262,"ase":1263,"íĶ¼":1264,"Ġë§ģíģ¬":1265,"Ġoff":1266,"ĠìĤ¬ìļ©":1267,"Ġëªħ":1268,"..":1269,"ë¥ĺ":1270,"Ġout":1271,"000":1272,"Ġnew":1273,"Ġover":1274,"ished":1275,"pe":1276,"ren":1277,"Ġen":1278,"Ġpr":1279,"ìĻ¸ë¶Ģ":1280,"198":1281,"ì´Ī":1282,"one":1283,"Ġì¹´":1284,"ëĦ¤":1285,"ĠëĶ°":1286,"Ġìĭ¤":1287,"Ġìŀ¬":1288,"ëĲĺìĸ´":1289,"ì²Ń":1290,"ìĦĿ":1291,"Ġì°¨":1292,"ë£Į":1293,"íĿ":1294,"ĠëĿ¼":1295,"ans":1296,"ëĳĲ":1297,"ĠíĶĦë¡ľ":1298,"ĠAmerican":1299,"Ġì°¸":1300,"ĠìĺĪ":1301,"Ġê°Ĳ":1302,"ock":1303,"´Ŀ":1304,"ision":1305,"ĠLe":1306,"íķ¨":1307,"ê±´":1308,"ram":1309,"Ġlin":1310,"Ġinto":1311,"Ġthey":1312,"Ġfilm":1313,"ĠìļĶ":1314,"ough":1315,"anc":1316,"íĮĲ":1317,"ê°ķ":1318,"ë¨":1319,"ê¸ī":1320,"ì¡±":1321,"ĠëĳĲ":1322,"Ġëį°":1323,"Ġtr":1324,"íħĮ":1325,"ĠSh":1326,"gan":1327,"Ġë§Ĳ":1328,"ames":1329,"ë¡ł":1330,"Ġì½Ķ":1331,"ë¦¼":1332,"iversity":1333,"rans":1334,"ë²Ī":1335,"Ġíķ¨":1336,"Ġëł":1337,"ë¦Ħ":1338,"ĠíĬ¹":1339,"Ġserv":1340,"Ġë°Ľ":1341,"Ġev":1342,"olog":1343,"Ġund":1344,"ĠìĿ¼ë³¸":1345,"ann":1346,"inal":1347,"ĠSp":1348,"orth":1349,"ict":1350,"ick":1351,"Ġì¡":1352,"íİĺ":1353,"ëĮĢíķľ":1354,"duc":1355,"Ġgro":1356,"Ġatt":1357,"ake":1358,"ĠíĥĢ":1359,"rough":1360,"BS":1361,"ëĵ¤ìĿ´":1362,"ë²ł":1363,"ale":1364,"Ġê²Į":1365,"ix":1366,"Ġloc":1367,"ìĹĲìĦľëĬĶ":1368,"íĪ¬":1369,"ĠëįĶ":1370,"ì¿ł":1371,"ose":1372,"Ġpre":1373,"ë³Ħ":1374,"ë©´ìĦľ":1375,"íķĺê¸°":1376,"Ġì¢ħ":1377,"ì¤Ģ":1378,"ìħĺ":1379,"Ex":1380,"Ġtime":1381,"ê°ģì£¼":1382,"Ġhim":1383,"ģ´":1384,"ins":1385,"ëĵ¤ìĿĢ":1386,"Ġì´Ī":1387,"ever":1388,"Ġíħ":1389,"att":1390,"ason":1391,"ev":1392,"ĠëĨ":1393,"ê¸Ī":1394,"ll":1395,"ìĭ¬":1396,"ĠëłĪ":1397,"ious":1398,"Ġìĺ¬":1399,"Ġwork":1400,"cess":1401,"ĠUnited":1402,"Ġkn":1403,"rib":1404,"ìŀħ":1405,"Ġë¹":1406,"ëħĦìĹĲ":1407,"form":1408,"Ġsec":1409,"reat":1410,"ĠìĻ¸":1411,"Ġíķľëĭ¤":1412,"Ġëĵľ":1413,"ì¸ł":1414,"ĠìĿ´íĽĦ":1415,"íķŃ":1416,"Ġêµ°":1417,"az":1418,"cent":1419,"ĠZ":1420,"Ġì¦":1421,"íķĺê²Į":1422,"oun":1423,"ists":1424,"ì§Ī":1425,"ë§Ŀ":1426,"Ġbet":1427,"ĠCol":1428,"ĠJo":1429,"ternal":1430,"iel":1431,"Ġpeople":1432,"ìķħ":1433,"ener":1434,"Ġ13":1435,"ì£¼ìĿĺ":1436,"Ġ14":1437,"ë³ĳ":1438,"ities":1439,"inn":1440,"Ġwhen":1441,"Ġìļ´":1442,"Ġbu":1443,"Ġshe":1444,"Ġunder":1445,"Ġê±´":1446,"ìķ½":1447,"che":1448,"ê³¡":1449,"eat":1450,"ìĸ¸":1451,"Ġcons":1452,"ë§¤":1453,"str":1454,"Ġëıħ":1455,"10":1456,"Ġì¶Ķ":1457,"ĠPro":1458,"Ġì±":1459,"ince":1460,"Ġë²ł":1461,"aj":1462,"Ã©":1463,"ĠInd":1464,"Ġcent":1465,"ëŀľ":1466,"į¼":1467,"ë¯¼êµŃ":1468,"Ġco":1469,"ife":1470,"oth":1471,"ëĬ¥":1472,"Ġind":1473,"bum":1474,"ãĥ":1475,"ëĭ¬":1476,"ne":1477,"Ġreg":1478,"197":1479,"Ġ193":1480,"uary":1481,"ĠíĶ¼":1482,"ìĤ´":1483,"ween":1484,"22":1485,"íİ¸":1486,"usic":1487,"ê´ĳ":1488,"ĠSc":1489,"ëłĪìĿ´":1490,"ĠìĪ":1491,"ular":1492,"der":1493,"Ġmore":1494,"ĠUniversity":1495,"Ġyears":1496,"ollow":1497,"ootball":1498,"use":1499,"Ġíĸī":1500,"Ġpubl":1501,"ìķĺëĭ¤":1502,"Ġwould":1503,"Ġë³Ģ":1504,"Ġlinks":1505,"Ġë§¤":1506,"oci":1507,"ª½":1508,"ĠCl":1509,"íĸ¥":1510,"ëĤľ":1511,"ier":1512,"Ġìĸĳ":1513,"ual":1514,"Ġìŀħ":1515,"ìĭľìķĦ":1516,"Ġform":1517,"Ġret":1518,"´ī":1519,"ily":1520,"Ġë°ķ":1521,"Ġonly":1522,"ĠAn":1523,"Ġcan":1524,"Ġ2006":1525,"Ġass":1526,"lish":1527,"ident":1528,"ë¹":1529,"Ġbo":1530,"Ġëª©":1531,"round":1532,"Ġest":1533,"ĠíĻľ":1534,"Ġíģ¬":1535,"ìĺĪ":1536,"External":1537,"ĵ°":1538,"Ġcol":1539,"ĠEng":1540,"Ġíĥľ":1541,"irect":1542,"eries":1543,"ìłĢ":1544,"Ġagain":1545,"Ġë°°ìļ°":1546,"Ġmost":1547,"Ġstud":1548,"Ġíĺ¸":1549,"Ġíĺķ":1550,"emb":1551,"Ġduring":1552,"Ġteam":1553,"Ġschool":1554,"ĠíĿ":1555,"ëŁī":1556,".\"":1557,"Ġë¯¸êµŃ":1558,"ĠíĻĶ":1559,"Ġsub":1560,"ë°°":1561,"Ġsup":1562,"ìĺĢëĭ¤":1563,"ê²°":1564,"ëįĶ":1565,"ëĵ±íķĻêµĲ":1566,"Ġpol":1567,"ëł¨":1568,"ley":1569,"air":1570,"any":1571,"Ġsy":1572,"Ġwhere":1573,"enn":1574,"Ġbetween":1575,"raph":1576,"Ġ&":1577,"Ġë©Ķ":1578,"ĠíļĮ":1579,"Ġrel":1580,"Ġë§İ":1581,"ìľ¡":1582,"Ġê³¼":1583,"ĠìĤ°":1584,"Ġíıī":1585,"ars":1586,"duct":1587,"ement":1588,"Ġused":1589,"ĠìĬ¹":1590,"ëĵł":1591,"ëĲľëĭ¤":1592,"17":1593,"ê»":1594,"ìª½":1595,"Ġabout":1596,"ãģ":1597,"ì§ĳ":1598,"Ġë³¸":1599,"istory":1600,"ì²ĺ":1601,"ìĻķ":1602,"ĠìľĦíķ´":1603,"arl":1604,"ìĦ¸ê¸°":1605,"ional":1606,"ative":1607,"ìľ¼ëĤĺ":1608,"Ġplayers":1609,"ash":1610,"ĠìĻķ":1611,"ëĲĺìĹĪ":1612,"Łģ":1613,"pr":1614,"ague":1615,"Ġqu":1616,"Ġdist":1617,"ë¶ģ":1618,"\",":1619,"Ġrele":1620,"Ġthrough":1621,"¸Ķ":1622,"Ġpop":1623,"ê¸Ģ":1624,"Ġrem":1625,"Ġfl":1626,"Ġdec":1627,"hen":1628,"Ġìłģ":1629,"ĠStates":1630,"Ġalbum":1631,"overn":1632,"fore":1633,"Ġinter":1634,"ì¼Ģ":1635,"Ġthree":1636,"ĠìĹ´":1637,"resent":1638,"ina":1639,"ìŁģ":1640,"ober":1641,"ëª©":1642,"Ġed":1643,"ĠìŀĦ":1644,"Ġ)":1645,"âĢĻ":1646,"Ġfound":1647,"Ġthere":1648,"Ġì§ĢìĹŃ":1649,"ë³µ":1650,"erm":1651,"ê»ĺ":1652,"ĠëĲĺìĹĪëĭ¤":1653,"ĠIs":1654,"ĠBr":1655,"BC":1656,"ìĶ":1657,"Ġnum":1658,"iver":1659,"ouse":1660,"ower":1661,"ĠëĤ¨ìŀĲ":1662,"ten":1663,"Ġìĭľìŀĳ":1664,"()":1665,"por":1666,"Ġë²Ī":1667,"Ġsing":1668,"ific":1669,"Ġthem":1670,"ĠThis":1671,"Ġê°ĻìĿĢ":1672,"ĠĠĠĠ":1673,"ĠSchool":1674,"Ġso":1675,"196":1676,"Ġì²ł":1677,"\".":1678,"Ġì´Ŀ":1679,"Ġlater":1680,"15":1681,"ëĦĪ":1682,"ìĽĮ":1683,"Ġend":1684,"Ġfollow":1685,"16":1686,"erman":1687,"Ġtra":1688,"Ġme":1689,"Ġra":1690,"ĠBl":1691,"ì²ł":1692,"Ġì»":1693,"ĠëĲľ":1694,"ëĬĶëį°":1695,"Ġê²½ê¸°":1696,"íļ":1697,"Ġthen":1698,"íĻĺ":1699,"iam":1700,"ield":1701,"ert":1702,"Ġtrans":1703,"ëĵ¤ìĿĺ":1704,"pen":1705,"12":1706,"ating":1707,"arg":1708,"erson":1709,"ĠíķĻ":1710,"ìĬ¤ìĿĺ":1711,"Ġê·¸ëĬĶ":1712,"ëĿ¼ìĿ´":1713,"Ġmov":1714,"ĠëķĮë¬¸":1715,"Ġ2007":1716,"ì§¸":1717,"cc":1718,"son":1719,"ism":1720,"Ġë¶ģ":1721,"Ġíĳľ":1722,"ì±":1723,"Ġ2010":1724,"ĠQ":1725,"ìĿ´ë©°":1726,"Ġìº":1727,"ĠêµŃê°Ģ":1728,"Ġmade":1729,"Ġwrit":1730,"ank":1731,"oss":1732,"Ġ2008":1733,"Ġrecord":1734,"Ġìķ¼":1735,"Ġ30":1736,"ĠAust":1737,"Ġsuch":1738,"Ġsecond":1739,"ëħĢ":1740,"Ġê·¸ë¦¬":1741,"Ġthan":1742,"Ġ0":1743,"ĠíķľêµŃ":1744,"Ġ/":1745,"ve":1746,"ĠJohn":1747,"Ġëĭ¤ë¥¸":1748,"ĠWorld":1749,"Ġspec":1750,"arly":1751,"Ġknown":1752,"Ġset":1753,"ìłĪ":1754,"Ġam":1755,"iew":1756,"Ġíķ¨ê»ĺ":1757,"Ġëĭ¬":1758,"Ġê°ģ":1759,"ĠAs":1760,"·¨":1761,"Ġent":1762,"lev":1763,"ograph":1764,"Ġë¸Į":1765,"ĠëĮĢíķľë¯¼êµŃ":1766,"ĠìĤ¬ìĿ´":1767,"ëĮĢíķľë¯¼êµŃìĿĺ":1768,"ëĿ¼ë§Ī":1769,"ures":1770,"velop":1771,"ĠíĨł":1772,"ĠPh":1773,"ì¡Į":1774,"ìķł":1775,"Ġë¯¼":1776,"ept":1777,"ĠëĶ°ëĿ¼":1778,"itt":1779,"ĠWar":1780,"rict":1781,"its":1782,"ì½":1783,"Ġsome":1784,"Ġê°Ħ":1785,"ike":1786,"ĠCon":1787,"Ġseason":1788,"ë¨¸":1789,"Ġdef":1790,"Ġëĵ¤":1791,"Ġ2011":1792,"Ġelect":1793,"Ġart":1794,"Ġ2009":1795,"Ġíİ¸":1796,"ê·¼":1797,"23":1798,"ëŀľëĵľ":1799,"ĠìŀĳíĴĪ":1800,"ìł¸":1801,"íıī":1802,"ĠCan":1803,"Ġ2005":1804,"ëĵ¤ìĿĦ":1805,"ĠFran":1806,"ived":1807,"Ġë¬¼":1808,"Ġbl":1809,"íķĺë©°":1810,"ĠCount":1811,"Ġprov":1812,"Ġinv":1813,"Ġbeing":1814,"els":1815,"Ġê²ĮìŀĦ":1816,"Ġbecame":1817,"other":1818,"ments":1819,"Ġì¶ľìĥĿ":1820,"ax":1821,"ëĿ¼ëĬĶ":1822,"Ġcall":1823,"ĠOr":1824,"íį¼":1825,"ron":1826,"Ġê²½ìļ°":1827,"uro":1828,"ī´":1829,"ìĺ¨":1830,"Ġ2012":1831,"ise":1832,"Ġestab":1833,"com":1834,"Ġì§ģ":1835,"stit":1836,"ute":1837,"ĠëĶĶ":1838,"ê·¹":1839,"uss":1840,"Ġph":1841,"ines":1842,"íĻ©":1843,"Ġsong":1844,"íĥĪ":1845,"Ġdirect":1846,"Ġìķ½":1847,"ays":1848,"Ġexp":1849,"ef":1850,"Ġ25":1851,"Ġmon":1852,"Ġìķł":1853,"urch":1854,"ĠìĥĪ":1855,"Ġì²ĺ":1856,"stem":1857,"ĠìĨį":1858,"ì¶ķ":1859,"ìŀĪ":1860,"Ġchar":1861,"ounc":1862,"ĠìłĢ":1863,"14":1864,"Ġdo":1865,"ìĥī":1866,"ĠBrit":1867,"Ġwell":1868,"ĠComm":1869,"ull":1870,"ãĤ":1871,"tt":1872,"Ġì§ĳ":1873,"Ġstr":1874,"ĠìĦ¸ê³Ħ":1875,"une":1876,"Ġfam":1877,"ĠNational":1878,"Ġì¶ľìĭł":1879,"ĠìŀĲìĭł":1880,"by":1881,"ĪĦ":1882,"iving":1883,"very":1884,"Ġfootball":1885,"inist":1886,"ëĿ¼ê³ł":1887,"mp":1888,"Ġì²´":1889,"íķĺì§Ģ":1890,"ê°Ĳ":1891,"Ġì¡´":1892,"Ġfour":1893,"Ġseries":1894,"ĻìĿ´":1895,"ì¦Į":1896,"ĠShe":1897,"arn":1898,"íķĺëĭ¤":1899,"ai":1900,"Ġê¸°ë¡Ŀ":1901,"ĠFor":1902,"13":1903,"ëŁ½":1904,"ĠPr":1905,"ĠYork":1906,"ternational":1907,"Ġ2014":1908,"ĠíķŃ":1909,"ĠPl":1910,"Ġincluding":1911,"Ġì²Ń":1912,"ĠíĪ¬":1913,"Ġorig":1914,"Ġ2013":1915,"ĠAd":1916,"Ġ2004":1917,"íĬ¹":1918,"ë²Ķ":1919,"Ġgroup":1920,"Ġhigh":1921,"Ġì²ľ":1922,"ĠOn":1923,"ys":1924,"Ġwhile":1925,"ium":1926,"owever":1927,"Ġlead":1928,"til":1929,"rist":1930,"ëĮĢíķĻêµĲ":1931,"Ġoper":1932,"elf":1933,"ĠëĬ":1934,"Ġê¸Ī":1935,"195":1936,"Ġmany":1937,"ather":1938,"Ġ.":1939,"Ġbefore":1940,"ĠëĺĲíķľ":1941,"ues":1942,"íĹĺ":1943,"Ġë£":1944,"ìĶ¨":1945,"Ġadd":1946,"ĠWest":1947,"ĠMay":1948,"eth":1949,"uk":1950,"ired":1951,"Ġ2000":1952,"ject":1953,"my":1954,"Ġsign":1955,"Ġê´ĳ":1956,"Ġbro":1957,"ĠíĬ¸":1958,"ces":1959,"sp":1960,"ty":1961,"ìľĦìĽĲ":1962,"|-":1963,"ution":1964,"ĠíĻķ":1965,"Ġëĭ¤ìĿĮ":1966,"íĮĢ":1967,"ered":1968,"ĠìĿ´ë¦Ħ":1969,"Ġgo":1970,"Ġmod":1971,"Ġagainst":1972,"ural":1973,"amed":1974,"Ġë²ķ":1975,"Ġì¢":1976,"Ġmed":1977,"ths":1978,"Ġë²Ħ":1979,"Ġsur":1980,"Ġbir":1981,"ians":1982,"arri":1983,"Ġshow":1984,"ives":1985,"ulation":1986,"Ġíķ©":1987,"ĠSouth":1988,"Ġown":1989,"ĠJan":1990,"ĠëĴ":1991,"Ġinc":1992,"let":1993,"Ġëģ":1994,"Ġno":1995,"Ġë³µ":1996,"Ġ2015":1997,"Ġname":1998,"Ġback":1999,"Ġê°Ģìŀ¥":2000,"ä¸":2001,"ĠGerman":2002,"Ġuntil":2003,"Ġgu":2004,"ott":2005,"ĠíķĺëĤĺ":2006,"Ġmain":2007,"ĠëĺĲëĬĶ":2008,"ica":2009,"ĠAustral":2010,"ëıĦìĿĺ":2011,"11":2012,"Ġcount":2013,"icip":2014,"Ġê°Ĳëıħ":2015,"Ġnumber":2016,"ĠíķĦ":2017,"íĶ½":2018,"ê²¬":2019,"ĠëķĮë¬¸ìĹĲ":2020,"Ġ24":2021,"yl":2022,"Ġë³´ê¸°":2023,"ìĿ´ëĤĺ":2024,"íĥĦ":2025,"gram":2026,"ì°½":2027,"ology":2028,"ì³":2029,"ìĹĲëıĦ":2030,"ĠìłĲ":2031,"born":2032,"194":2033,"ëĲĺëĬĶ":2034,"Ġê·¸ëŁ¬":2035,"Ġmay":2036,"Ġdevelop":2037,"Ġboth":2038,"ĠII":2039,"Ġ2016":2040,"ĠìĿĺíķ´":2041,"ìĿ´ìĬ¤":2042,"eng":2043,"Ġì¦Ŀ":2044,"uth":2045,"ove":2046,"ìĹ´":2047,"ĠCounty":2048,"Ġarea":2049,"Ġê²ĥìĿĦ":2050,"Ġìĭ¬":2051,"ets":2052,"ĠëĮĢíķľë¯¼êµŃìĿĺ":2053,"ĠíŀĪ":2054,"ient":2055,"rad":2056,"ĠíĶĮ":2057,"ëŁ°":2058,"ĠWh":2059,"St":2060,"Ġoffic":2061,"Ġmusic":2062,"lege":2063,"ĠìĦľìļ¸":2064,"Ġcare":2065,"Ķëĭ¤":2066,"Ġcap":2067,"led":2068,"Ġformer":2069,"aid":2070,"Ġfin":2071,"ital":2072,"Ġdr":2073,"ì°°":2074,"Ġ2003":2075,"Ch":2076,"ĠCent":2077,"íĶĮ":2078,"´Į":2079,"ĠíĮĲ":2080,"hes":2081,"ross":2082,"Ġìĸ¸":2083,"ĠAt":2084,"ê°ĻìĿ´":2085,"Ġê·¸ìĿĺ":2086,"Ġem":2087,"ajor":2088,"Ġë¨":2089,"au":2090,"arm":2091,"ê¸°ëıĦ":2092,"imes":2093,"ì°¸":2094,"Ġ,":2095,"Ġì¹ĺ":2096,"Ġsever":2097,"ĠJu":2098,"ĠíĺĦìŀ¬":2099,"ery":2100,"ampions":2101,"ĠëŁ":2102,"Ġì½":2103,"rid":2104,"Ġíİĺ":2105,"ae":2106,"ëĥ":2107,"ĽĪ":2108,"íĿ¬":2109,"ĠëıĻë¬¸":2110,"ĠìĹ¬ìŀĲ":2111,"ĠìĤ¬ë§Ŀ":2112,"ized":2113,"ĠìĤ¼":2114,"Ġdeath":2115,"Ġëĭ¹ìĭľ":2116,"£½":2117,"ĶëłĪ":2118,"ually":2119,"ëĶĶìĺ¤":2120,"Ġgener":2121,"overnment":2122,"ëĦĲ":2123,"ìŀĪëĬĶ":2124,"ë°±":2125,"Ġdif":2126,"Ġrece":2127,"Ġì°½":2128,"Ġê²ĥìľ¼ë¡ľ":2129,"isc":2130,"ugust":2131,"ĠíĤ":2132,"Ġcre":2133,"Ġ2002":2134,"embers":2135,"Ġì°¸ê°Ģ":2136,"ĠëĴ¤":2137,"ple":2138,"ĠBro":2139,"Ġplayed":2140,"Ġ2017":2141,"ook":2142,"ĠíĻ©":2143,"ëŀ¨":2144,"ĠDe":2145,"ĠìĤ´":2146,"ë¦¬ìĬ¤":2147,"Ġ2018":2148,"ĠíĻľëıĻ":2149,"struct":2150,"Ġfeat":2151,"Ġ23":2152,"Ġbuild":2153,"Ġrep":2154,"duced":2155,"Ġext":2156,"Ġsm":2157,"inc":2158,"ior":2159,"oman":2160,"ĠëĦ¤":2161,"Ġvar":2162,"ĠGe":2163,"ĠCanad":2164,"ages":2165,"ved":2166,"ìĽ¨":2167,"ìĿ¼ë³¸":2168,"ĠCity":2169,"ë°ķ":2170,"ared":2171,"ĠâĢĶ":2172,"ĠBritish":2173,"Ġ21":2174,"Ġgame":2175,"ìķĻ":2176,"ĠëĲľëĭ¤":2177,"Ġreleased":2178,"Ġopen":2179,"ained":2180,"ĠíĶĦëŀĳ":2181,"ĠìŀĪìĹĪëĭ¤":2182,"ĠìĽĶ":2183,"ĠNorth":2184,"íģ´":2185,"Ġëª»":2186,"Ġíģ´":2187,"ë¦¬ëĬĶ":2188,"Ġne":2189,"Ġê²ĥìĿ´":2190,"ĠGu":2191,"ĠEd":2192,"ìĿ´ëĿ¼ê³ł":2193,"ause":2194,"iet":2195,"Ġtown":2196,"Ġsystem":2197,"Ġpar":2198,"ĠìŀĪìľ¼ë©°":2199,"ĠNov":2200,"ë¯¸êµŃìĿĺ":2201,"fess":2202,"Ġdesign":2203,"ìĿ´íĬ¸":2204,"ĠLeague":2205,"Ġì·¨":2206,"ìĬµ":2207,"ĠíĨµíķ´":2208,"Ġ2001":2209,"Ġì²«":2210,"osed":2211,"Ġë£¨":2212,"ĠAll":2213,"ìĪľ":2214,"Ġstation":2215,"omen":2216,"ìĿ´ì§Ģ":2217,"ission":2218,"å¤":2219,"Ġ190":2220,"Ġstate":2221,"ãĢī":2222,"Ŀ½":2223,"ĠDec":2224,"sh":2225,"Ġë°±":2226,"ird":2227,"Ġ22":2228,"Ġrun":2229,"ĠBe":2230,"ĠTV":2231,"ìĬ¬":2232,"...":2233,"levision":2234,"rand":2235,"ĠíĸĪëĭ¤":2236,"ë³Ģ":2237,"eptember":2238,"ony":2239,"Ġacc":2240,"fl":2241,"ìĿ¼ìĹĲ":2242,"ê¸°ë¥¼":2243,"Ġcalled":2244,"ĠMan":2245,"ĠìĻĦ":2246,"ì¹Ń":2247,"Ġê·¼":2248,"ë¹ĦìłĦ":2249,"ven":2250,"ĠUS":2251,"ĠKing":2252,"ê¸°ìĹĲ":2253,"Ġê°Ģì§Ģ":2254,"ĠRe":2255,"Ġìĭľì¦Į":2256,"ì¡´":2257,"Ġann":2258,"ĠìľĦì¹ĺ":2259,"ì¶Ķ":2260,"Ġlong":2261,"ê·ľ":2262,"ham":2263,"ĠCal":2264,"ris":2265,"ê·¸ëŀ¨":2266,"vent":2267,"ëĭĪìķĦ":2268,"ĠX":2269,"ĠAugust":2270,"Ġpolit":2271,"Ġ28":2272,"íļĮìĿĺ":2273,"ible":2274,"Ġíı¬íķ¨":2275,"ange":2276,"ëĤł":2277,"Ġwon":2278,"Ġob":2279,"ox":2280,"ĠìĪĺìĥģ":2281,"ĠAss":2282,"ĠAm":2283,"Ġsame":2284,"Ġ26":2285,"ĠìĿĮìķħ":2286,"¤Ħ":2287,"ctober":2288,"Ġë¦¬ê·¸":2289,"Ġreturn":2290,"wards":2291,"ë¦¬ê·¸":2292,"ë¦¼íĶ½":2293,"Ġseveral":2294,"Ġbas":2295,"ĠëıĮ":2296,"ilt":2297,"Ġì¡°ìĦł":2298,"Ġíļ":2299,"FA":2300,"ĠEuro":2301,"å®":2302,"Ġì¶©":2303,"ility":2304,"ëĿ½":2305,"ĠâĢĺ":2306,"the":2307,"amb":2308,"ĠìĿ¼ë¶Ģ":2309,"See":2310,"ì´Į":2311,"Ġcontin":2312,"ĠMarch":2313,"ì¡Įëĭ¤":2314,"Ġìļ©":2315,"American":2316,"ĠìĹ°êµ¬":2317,"pril":2318,"rent":2319,"ìĿ´ìħĺ":2320,"istor":2321,"Ġìłķì¹ĺ":2322,"Ġ27":2323,"oint":2324,"af":2325,"25":2326,"ëĬĶëĭ¤":2327,"aking":2328,"Ġ2019":2329,"Ġíķł":2330,"ë¶Ī":2331,"Ġdep":2332,"ĠìĦ¤ë¦½":2333,"Ġwill":2334,"ales":2335,"ring":2336,"ful":2337,"Ġair":2338,"Ġlife":2339,"ĠíĮ¨":2340,"ì¦Ŀ":2341,"ĠìķĦìĿ´":2342,"ë´ī":2343,"ìĭľìĿĺ":2344,"íĭĢ":2345,"yle":2346,"ially":2347,"ster":2348,"ë¡Ģ":2349,"Ġsuc":2350,"ë¦¬ë¥¼":2351,"Ġpublic":2352,"ĠSeptember":2353,"Ġmat":2354,"Ġearly":2355,"ains":2356,"Ġorgan":2357,"ĠíħĮ":2358,"Ġprogram":2359,"Ġì¤Ģ":2360,"lished":2361,"ography":2362,"ĠìĪľ":2363,"Ġnear":2364,"ëĶ":2365,"ë¦Ń":2366,"ĠJune":2367,"ung":2368,"Ġ2020":2369,"reen":2370,"ìĬ¨":2371,"km":2372,"193":2373,"yn":2374,"ĠCar":2375,"ì±ħ":2376,"ëŁ¼":2377,"ëģ":2378,"rop":2379,"Ġclass":2380,"íĻľ":2381,"Ġbel":2382,"ke":2383,"ĠHigh":2384,"ality":2385,"ĠJuly":2386,"åħ":2387,"Ġê¶Į":2388,"Ġë³ĳ":2389,"Ġê·¸ë¦¬ê³ł":2390,"ĠFl":2391,"ê²ĥ":2392,"angu":2393,"ured":2394,"row":2395,"íļį":2396,"erg":2397,"ĠìĿĢ":2398,"ebr":2399,"ĶëłĪë¹ĦìłĦ":2400,"TV":2401,"Ġfollowing":2402,"Ġthese":2403,"Ġì¹ľ":2404,"±¸":2405,"Ġê·¸ëŁ¬ëĤĺ":2406,"ĠJanuary":2407,"Ġë°©ìĨ¡":2408,"ĠëĵľëĿ¼ë§Ī":2409,"ĠOctober":2410,"Ġdisc":2411,"ĠìĨĲ":2412,"ĠWill":2413,"Ġclub":2414,"ilit":2415,"Ġë§İìĿĢ":2416,"Ġband":2417,"Ġstart":2418,"ĩ¼":2419,"ĠChrist":2420,"ience":2421,"Ġcommun":2422,"Ġëĵ¤ìĸ´":2423,"Ġcur":2424,"ator":2425,"Ġany":2426,"ane":2427,"ì§ĢëĬĶ":2428,"On":2429,"apan":2430,"ĠEx":2431,"Ġmin":2432,"Ġchild":2433,"ĠCo":2434,"Ġìłľìŀĳ":2435,"century":2436,"ĠêµŃìłľ":2437,"ĠíĮĢ":2438,"=\"":2439,"ĠState":2440,"ices":2441,"cept":2442,"ë§ī":2443,"ìĵ°":2444,"ided":2445,"ese":2446,"Ġgames":2447,"âĢĿ":2448,"Ġfamily":2449,"ret":2450,"Ġë§Įëĵ¤":2451,"ille":2452,"Ġ1999":2453,"Ġuse":2454,"Ġcareer":2455,"ĠApril":2456,"ìĿ´ëĿ¼ëĬĶ":2457,"ĠíķĺëĬĶ":2458,"ë¸Ķ":2459,"Ġhead":2460,"ants":2461,"ëĮĢë¡ľ":2462,"ìĦ¼":2463,"ìķĦìŀĪëĬĶ":2464,"echn":2465,"Ġì£½":2466,"ì¸µ":2467,"onom":2468,"ĠëĨĴ":2469,"Ġì±Ħ":2470,"Ã¡":2471,"ĠNo":2472,"ĠíĶĦë¡ľê·¸ëŀ¨":2473,"ampionship":2474,"ode":2475,"ued":2476,"orm":2477,"ĠëĮĢíķ´":2478,"Ġvers":2479,"ĠíĴ":2480,"ĠSe":2481,"Ġsince":2482,"Ġpres":2483,"ĠReg":2484,"Ġê²ĥìĿ´ëĭ¤":2485,"Ġcity":2486,"Ġìĵ°":2487,"orts":2488,"ĠPol":2489,"ë§Ĳ":2490,"ĠRep":2491,"ket":2492,"Ġalong":2493,"ically":2494,"ĠSw":2495,"ĠBar":2496,"ĠThey":2497,"¸ìĹħ":2498,"ĠEnglish":2499,"ĠìºĲ":2500,"Ġpopulation":2501,"ection":2502,"ëĤ¬":2503,"Ġ189":2504,"ĠìĿ´ìĥģ":2505,"íĦ´":2506,"Ġpass":2507,"Ġland":2508,"ended":2509,"æĿ":2510,"ised":2511,"ĠãĢĪ":2512,"Ġ29":2513,"50":2514,"Ġíģ":2515,"24":2516,"Ġappear":2517,"ival":2518,"ĠRec":2519,"Ġsim":2520,"Ġresp":2521,"ects":2522,"Ġeff":2523,"ĠTr":2524,"Ġcomple":2525,"):":2526,"íĸĪê³ł":2527,"Ġtit":2528,"ĠAf":2529,"ĠìĹŃìĤ¬":2530,"orks":2531,"acks":2532,"ĠìĭĿ":2533,"ords":2534,"ĩ´":2535,"aced":2536,"Ġwe":2537,"íĥĿ":2538,"ëĲĺê³ł":2539,"ĠMc":2540,"ĠìĤ¬íļĮ":2541,"ights":2542,"Ġëĸ":2543,"Ġnamed":2544,"Ġìĺ¬ë¦¼íĶ½":2545,"ĠRo":2546,"íķĺë©´ìĦľ":2547,"íĹĮ":2548,"uck":2549,"ëıĦë¡ľ":2550,"Ġbased":2551,"Ġyou":2552,"ĠAnd":2553,"ling":2554,"Ģë¡ľ":2555,"Ġì¼":2556,"Ġ1998":2557,"ĠíħĶëłĪë¹ĦìłĦ":2558,"ĠDecember":2559,"ĠNovember":2560,"ëħĦëĮĢ":2561,"Ġmembers":2562,"ìĿ´ìĹĪëĭ¤":2563,"ìĤ´ìķĦìŀĪëĬĶ":2564,"ech":2565,"íĺģ":2566,"ĠEurope":2567,"ford":2568,"ê²¨":2569,"ĠHar":2570,"Ġëī´":2571,"ĠìłĦìŁģ":2572,"ĠAfter":2573,"ìº":2574,"Ġdesc":2575,"ĠíĤ¤":2576,"augh":2577,"Ġbegan":2578,"Ġdid":2579,"Ġëĭ¤ìĭľ":2580,"duction":2581,"ì§ķ":2582,"Ġestablished":2583,"me":2584,"Ġocc":2585,"iness":2586,"ì»¤":2587,"Ġ[":2588,"ì³Ĳ":2589,"ck":2590,"ëĮĢíĳľ":2591,"ĠíĹĪ":2592,"ble":2593,"aving":2594,"ëħĲ":2595,"ĠëıħìĿ¼":2596,"ner":2597,"ĠìŀĪìĹĪ":2598,"Ġë¯¸êµŃìĿĺ":2599,"urg":2600,"Ġâ":2601,"view":2602,"int":2603,"ìĬ¤ëĬĶ":2604,"Ġ100":2605,"Ġsmall":2606,"ĠEast":2607,"Ġeach":2608,"ĠíĻį":2609,"ebruary":2610,"íķĻìŀĲ":2611,"eter":2612,"ë¦¬ì¹´":2613,"Ġëª¨ëĵł":2614,"ì»µ":2615,"ìķĶ":2616,"side":2617,"ĠPar":2618,"Ġprom":2619,"Ġlist":2620,"Ġcentury":2621,"ps":2622,"Ġmajor":2623,"ëĳ":2624,"ĠëŁ¬":2625,"30":2626,"Ġeng":2627,"Ġ1990":2628,"Ġlocated":2629,"Ġmen":2630,"Ġëª¨ëĳĲ":2631,"ĠâĢľ":2632,"ĠìĹ¬ëŁ¬":2633,"aul":2634,"Ġmanag":2635,"ĠGeor":2636,"ats":2637,"ĠìľĦíķľ":2638,"ĠëĮĢíķĻ":2639,"Ġsupport":2640,"íĺĳ":2641,"rench":2642,"ĠíıĲ":2643,"ìĬ¤íĦ°":2644,"ourn":2645,"ĠHis":2646,"oo":2647,"ë³´ëĭ¤":2648,"ald":2649,"ê°ľìĿĺ":2650,"rew":2651,"ì´Ŀ":2652,"Ġbus":2653,"ract":2654,"ĠPart":2655,"Ġì¤ĳêµŃ":2656,"ëĭ´":2657,"ìµľ":2658,"ĠCollege":2659,"ĠìķĦëĭĪ":2660,"ards":2661,"ene":2662,"ë¡ľìĦľ":2663,"Ġì²łëıĦ":2664,"ĠAb":2665,"ê³¨":2666,"Ġsl":2667,"Ġê·ľ":2668,"ata":2669,"íķĦ":2670,"ìĬĪ":2671,"ìĿ´ìŀĲ":2672,"ãĢĬ":2673,"que":2674,"ĠAir":2675,"Ġimp":2676,"íĽĪ":2677,"ides":2678,"Ġsingle":2679,"Ġlaw":2680,"ĠPark":2681,"Ġplace":2682,"ë§ģ":2683,"ĠComp":2684,"Th":2685,"ìĹĶ":2686,"Ġíģ°":2687,"Ġ2021":2688,"Ġìłķë¶Ģ":2689,"íĺ¼":2690,"Ġhome":2691,"ëł¸":2692,"ĠëıĦìĭľ":2693,"Ġterm":2694,"Ġvill":2695,"Ġcar":2696,"lin":2697,"íķĺìĺĢê³ł":2698,"adem":2699,"Ġnow":2700,"alth":2701,"ĠSy":2702,"ĠíĻĺ":2703,"ety":2704,"Ġgovernment":2705,"ett":2706,"ivision":2707,"Ġ<":2708,"ffic":2709,"ondon":2710,"Ġmet":2711,"Ġì¿":2712,"íĬ¹ë³Ħ":2713,"arge":2714,"ĠEn":2715,"ë°Ľ":2716,"ored":2717,"Ġêµ¬ìĦ±":2718,"Ġperson":2719,"Ġbirths":2720,"ĠTe":2721,"ĠëĮĢíĳľ":2722,"rol":2723,"Al":2724,"Ġworld":2725,"ìĿ´ê³ł":2726,"Ġìĺ¨":2727,"ĠìĿĮë°ĺ":2728,"ë¨¼":2729,"ino":2730,"(,":2731,"ìĤ¬ë¥¼":2732,"itions":2733,"Ġìļ°ìĬ¹":2734,"Ġnational":2735,"Ġ1996":2736,"ĠCup":2737,"ì¹ľ":2738,"ĠJapan":2739,"Ġtelevision":2740,"ëįķ":2741,"Ġíĺĳ":2742,"atic":2743,"ĠEl":2744,"íĮ¨":2745,"Ġìľ¡":2746,"ìłĳ":2747,"Ġdiffer":2748,"osition":2749,"med":2750,"Ġaround":2751,"ourt":2752,"ĠFebruary":2753,"ature":2754,"yp":2755,"Ġsuccess":2756,"idd":2757,"Ġcould":2758,"ë¦¬ìĹĲ":2759,"unicip":2760,"íĨµëł¹":2761,"Ġfilms":2762,"ĠìĦłê±°":2763,"reet":2764,"sc":2765,"Ġlocal":2766,"Ġë¸Ķ":2767,"Ġëĵ±ìŀ¥":2768,"aces":2769,"Ġì¸":2770,"vers":2771,"Ġold":2772,"earch":2773,"ëŀĢëĵľ":2774,"Ġplayer":2775,"Ġlast":2776,"Ġ1997":2777,"Ġê³µìĭĿ":2778,"unct":2779,"Ġê²Ģ":2780,"æľ":2781,"Ġì¡¸ìĹħ":2782,"ana":2783,"ìĦ±ìĿĦ":2784,"Ġline":2785,"ĠHowever":2786,"He":2787,"ë¦¬ì¦Ī":2788,"ê±°ëĤĺ":2789,"ëıĮ":2790,"acter":2791,"ublic":2792,"ows":2793,"ĠëĨį":2794,"ideo":2795,"ìŀ¥ìĿĦ":2796,"ison":2797,"ington":2798,"Ġê¸¸":2799,"uthor":2800,"Ġpo":2801,"ìĥģìĿĦ":2802,"äº":2803,"ìľĦë¥¼":2804,"ìĿ´ëĬĶ":2805,"Ġleg":2806,"Ġì²ĺìĿĮ":2807,"28":2808,"iter":2809,"Ġbuilt":2810,"aint":2811,"Ġcompany":2812,"ëĮĢìĿĺ":2813,"Ġmember":2814,"Ġê°ĢëĬ¥":2815,"ìĽĢ":2816,"ëĪĦ":2817,"26":2818,"ĠDav":2819,"illion":2820,"ëį¸":2821,"Ġhel":2822,"ìľĦìĽĲíļĮ":2823,"Ġ188":2824,"akes":2825,"Ġref":2826,"ë°©ìĨ¡":2827,"ëłĮ":2828,"ë¦¬ê°Ģ":2829,"ara":2830,"ĠìķĮëł¤":2831,"aus":2832,"Ġrest":2833,"co":2834,"ĠMed":2835,"ĠHer":2836,"27":2837,"Ġdue":2838,"ë·":2839,"ìŀĲê°Ģ":2840,"Ġep":2841,"Ġcr":2842,"ately":2843,"ëĤĺëĿ¼":2844,"Ġë¬¸íĻĶ":2845,"ë£¹":2846,"Ġcompet":2847,"ãĢĭ(":2848,"eder":2849,"ëĨ":2850,"Ġê°ľë°ľ":2851,"ociation":2852,"ĠìĿ´ìļ©":2853,"ĠLondon":2854,"alk":2855,"ë°Ģ":2856,"ĠMe":2857,"Ġheld":2858,"ently":2859,"Ġì¡´ìŀ¬":2860,"ìĸ´ì§Ħ":2861,"ified":2862,"ĠAng":2863,"ì§Ģë¥¼":2864,"Ġleft":2865,"ext":2866,"ĠCor":2867,"ĠSup":2868,"Ġpublished":2869,"Ġtook":2870,"ëĵĿ":2871,"ches":2872,"Ġ1995":2873,"éĩ":2874,"Ġê±¸":2875,"Ġëħ¼":2876,"ĠëıĻìķĪ":2877,"day":2878,"ĠëģĿ":2879,"umb":2880,"Ġ31":2881,"Ġnorth":2882,"ìĿĳ":2883,"ìĿ´ìĹĪ":2884,"ĠíĶĦëŀĳìĬ¤":2885,"ody":2886,"íĥĪë¦¬ìķĦ":2887,"Ġê²°ê³¼":2888,"though":2889,"ilitary":2890,"ï¼":2891,"29":2892,"ì°©":2893,"ĠFC":2894,"ëĮĢíķĻ":2895,"Ġ1980":2896,"ĠYou":2897,"Ġê´Ģê³Ħ":2898,"ĠDr":2899,"¶ģ":2900,"Ġ|":2901,"ink":2902,"ration":2903,"Ġìķŀ":2904,"ìĿ¸ìĿĺ":2905,"Ġ2022":2906,"êµ°ìĿĺ":2907,"ĳ¸":2908,"iod":2909,"oph":2910,"aim":2911,"adio":2912,"ĠWilliam":2913,"ìĨĲ":2914,"Ġëŀ":2915,"ĠëĮĢíļĮ":2916,"Ġfinal":2917,"Ġë¬¸ìłľ":2918,"Ġcamp":2919,"ê³łëĵ±íķĻêµĲ":2920,"aster":2921,"to":2922,"ped":2923,"Ġdown":2924,"omin":2925,"ĠìĿ¼ë°ĺ":2926,"ĠDist":2927,"Ġëĵ±ìĿ´":2928,"Ã¼":2929,"iven":2930,"ĠPhil":2931,"Ġeduc":2932,"Ġbecause":2933,"Ġê´Ģëł¨":2934,"ëħĦë¶ĢíĦ°":2935,"ĠìŀĲìĭłìĿĺ":2936,"ëł¥ìĿĦ":2937,"ording":2938,"ĠìĺģêµŃ":2939,"ĠSec":2940,"ë¡ľìļ´":2941,"ief":2942,"Ġìľ¤":2943,"Ġjoin":2944,"aur":2945,"uf":2946,"ë¶Ģë¶Ħ":2947,"Ġserved":2948,"ĠìĤ¬ê±´":2949,"ĠëĤĺíĥĢ":2950,"ency":2951,"ĠìŀĪìĸ´":2952,"attle":2953,"Ġevent":2954,"raft":2955,"ìĺģíĻĶ":2956,"ìĬ¤íĥĢ":2957,"Ġhistory":2958,"åŃ":2959,".,":2960,"ĠAfric":2961,"ë²Į":2962,"ization":2963,"ected":2964,"ined":2965,"ĠëĮĢíĨµëł¹":2966,"anguage":2967,"Ġ50":2968,"Ġpresent":2969,"ê¸°ìĿĺ":2970,"line":2971,"ĠìĬĪ":2972,"2010":2973,"Ġdet":2974,"Ġday":2975,"ìĭľìĹĲ":2976,"Ġinclude":2977,"ument":2978,"ľĺ":2979,"ĠìĿ´ë£¨":2980,"Ġsix":2981,"Ġprofess":2982,"ĠíĻĪ":2983,"Ġ1994":2984,"ler":2985,"2006":2986,"Ġíŀ":2987,"Ġconsid":2988,"Ġtri":2989,"ê°Ŀ":2990,"ĠìĹĶ":2991,"ĠKBS":2992,"ĠFrench":2993,"ĠíķĺìĺĢëĭ¤":2994,"Ġlarge":2995,"ones":2996,"ìľ¨":2997,"ĠìĨ¡":2998,"Ġshort":2999,"ouncil":3000,"Ġrequ":3001,"Ġëĵ±ìĿĺ":3002,"ĠThere":3003,"íĶĦíĬ¸":3004,"Ġappro":3005,"hem":3006,"Ġì¦ī":3007,"ĠGl":3008,"Ġfive":3009,"lymp":3010,"´´":3011,"Ġorder":3012,"ĠAct":3013,"ìĺ¬":3014,"ìĤ¼":3015,"ì°¸ê³ł":3016,"ĠìĻĢ":3017,"ste":3018,"Ġpower":3019,"Ġë§ŀ":3020,"ĠíıŃ":3021,".)":3022,"reg":3023,"Ġoriginal":3024,"Ġë³Ħ":3025,"Ġê²ĥìĿĢ":3026,"Ġdistrict":3027,"riend":3028,"iforn":3029,"uman":3030,"ĠìĦĿ":3031,"History":3032,"ĠëĤł":3033,"Ġë°ľìĥĿ":3034,"Ġê·¹":3035,"ìĹĺ":3036,"íģ":3037,"ĠRiver":3038,"inning":3039,"Ġë²Īì§¸":3040,"Ġìłĳ":3041,"Ġav":3042,"®¤":3043,"tal":3044,"Ġincluded":3045,"ze":3046,"Ġrefer":3047,"ively":3048,"Ġborn":3049,"ĠRuss":3050,"Ġëĳ":3051,"Ġlarg":3052,"ĠAustralia":3053,"Ġmark":3054,"ì°¬":3055,"Ġstand":3056,"oon":3057,"ĠíĹ¤":3058,"Ġwithin":3059,"Ġjust":3060,"leg":3061,"ifornia":3062,"Ġëĭ´":3063,"ĠìĦ¤ì¹ĺ":3064,"Ġrepl":3065,"Ġë°ľíĳľ":3066,"tain":3067,"ĠëĮĢíķĻêµĲ":3068,"Ġ$":3069,"Ġë§¡":3070,"Ġdeb":3071,"Ġ...":3072,"ness":3073,"ĠêµĲìľ¡":3074,"ĠSch":3075,"ĠRes":3076,"Ġsaid":3077,"na":3078,"urther":3079,"Ġ1992":3080,"ì¶©":3081,"Ġìĭ±":3082,"Ġreceived":3083,"Ġë°Ģ":3084,"Ġresult":3085,"ĠItal":3086,"į¨":3087,"ĠEngland":3088,"ĠHouse":3089,"Ġëľ":3090,"umn":3091,"Ġanother":3092,"ĠInternational":3093,"ëĭĪë©Ķ":3094,"Ġif":3095,"ĠMich":3096,"Ĳëĭ¤":3097,"ki":3098,"ìļ°ìĬ¤":3099,"40":3100,"ĠAg":3101,"Ġwomen":3102,"ĠAc":3103,"Ġíĸ¥":3104,"arried":3105,"Ġfr":3106,"ĠìłĦíĪ¬":3107,"Ġbook":3108,"2000":3109,"itar":3110,"ÃŃ":3111,"Ġla":3112,"Ġstyle":3113,"Ġdifferent":3114,"ë¡ľë¶ĢíĦ°":3115,"omb":3116,"ìŀĲìĿĺ":3117,"ëıĦë¡Ŀ":3118,"Ġì§Ħíĸī":3119,"ê°Ī":3120,"ë¬¸íĻĶ":3121,"ĠëĭĪ":3122,"ĠëĿ¼ìĿ´":3123,"cast":3124,"Ġstill":3125,"Ġnon":3126,"ëŁ¬íķľ":3127,"eek":3128,"60":3129,"Ġìŀĺ":3130,"íĤ¨":3131,"Ġ187":3132,"acy":3133,"Ġê³µê²©":3134,"Ġlike":3135,"ves":3136,"Ġthird":3137,"Ġë³¼":3138,"ë¦¬ìĿĺ":3139,"Ġê°ĢìĪĺ":3140,"ìĬ¤íħ":3141,"ë¹ĦìķĦ":3142,"Ġtop":3143,"Ġaddition":3144,"Ġsouth":3145,"Ġë°ľê²¬":3146,"ether":3147,"Ġë°ľë§¤":3148,"Ġcharacter":3149,"Ġdem":3150,"íķĺë©´":3151,"ĠìĹĨëĭ¤":3152,"Ġ1970":3153,"alt":3154,"Ġì¢ĭ":3155,"ë¥ł":3156,"ius":3157,"íĸĪìľ¼ë©°":3158,"ering":3159,"Ġprot":3160,"Ġson":3161,"dom":3162,"ĠìĿ´ìłĦ":3163,"Un":3164,"CA":3165,"ummer":3166,"ours":3167,"Ġìĭľê°Ħ":3168,"Ġperform":3169,"osp":3170,"vious":3171,"ocial":3172,"ĠCalifornia":3173,"eal":3174,"urs":3175,"hern":3176,"ë²Ħì§Ģ":3177,"Ġê·Ģ":3178,"Ġkill":3179,"Ġ1993":3180,"ëĭĮ":3181,"ì¸¡":3182,"Ġversion":3183,"ms":3184,"ops":3185,"ĠSan":3186,"ëķĮ":3187,"ìĭľíĤ¤":3188,"ëĭĪë©ĶìĿ´ìħĺ":3189,"Ġchildren":3190,"ĠìĿ´ìĸ´":3191,"Ġìķ¨":3192,"ëĤ¬ëĭ¤":3193,"Ġdied":3194,"ĠMon":3195,"Ġwater":3196,"Ġì£¼ìŀ¥":3197,"ĠPer":3198,"lands":3199,"Ġcurrent":3200,"Ġwar":3201,"Ġdescrib":3202,"Ġì¤ĳìĭ¬":3203,"Ġvery":3204,"ĠLa":3205,"ĠArt":3206,"íķľêµŃ":3207,"2007":3208,"2008":3209,"ĠIndian":3210,"Ġfac":3211,"rest":3212,"Ġservice":3213,"Ġë§ī":3214,"Ġíļ¨":3215,"Ġadv":3216,"Ġcor":3217,"Ġnov":3218,"Ġequ":3219,"Ġìĺģíĸ¥":3220,"Ġtrad":3221,"ĠëĪĦ":3222,"Ġê²½ìłľ":3223,"Ġ1991":3224,"bo":3225,"ê·ł":3226,"ĠChampionship":3227,"Ġperiod":3228,"ëªħìĿĺ":3229,"Ġê³³":3230,"Ġpost":3231,"ky":3232,"ĠChurch":3233,"ael":3234,"Ġoften":3235,"ĠìĿ´ëĬĶ":3236,"ìĹŃìĤ¬":3237,"ĠìĽĶëĵľ":3238,"ugg":3239,"Ġstat":3240,"Ġeast":3241,"ëĵ¤ê³¼":3242,"ë²Īì§¸":3243,"eneral":3244,"Ġweb":3245,"Ã³":3246,"oyal":3247,"Ġbuilding":3248,"ĠíĦ":3249,"Ġê¸°ìĹħ":3250,"epend":3251,"ë¯¼ì£¼":3252,"ëħĦìĹĲëĬĶ":3253,"Ġì¿ł":3254,"Ġì§Ģë°©":3255,"Ġ40":3256,"ìĿµ":3257,"ê¸¸":3258,"Ġadm":3259,"Ġhand":3260,"Ġvis":3261,"ĠCanada":3262,"Ġì»¤":3263,"2011":3264,"alf":3265,"ady":3266,"Ġê³¨":3267,"âĢĶ":3268,"Ġincre":3269,"Ġíĸīìłķ":3270,"Ġwest":3271,"ëĸ":3272,"ĪĪ":3273,"Ġê°ĸ":3274,"Ġì¶ľìĹ°":3275,"Ġiss":3276,"íļ¨":3277,"Ġreport":3278,"irl":3279,"ka":3280,"ê¸°ê°Ģ":3281,"orthern":3282,"Ġì±ħ":3283,"work":3284,"ining":3285,"Ġì¼Ģ":3286,"Ġmunicip":3287,"hel":3288,"Ġthough":3289,"Ġë³Ģê²½":3290,"artment":3291,"Ġsold":3292,"Ġê¸°ìĪł":3293,"uit":3294,"£Ħ":3295,"íĴį":3296,"uel":3297,"Ġbeg":3298,"Ġrepresent":3299,"ĠBo":3300,"2012":3301,"Ġmale":3302,"ociety":3303,"Ġë²Ķ":3304,"ë§¹":3305,"ìĻĢìĿĺ":3306,"Ġauthor":3307,"2009":3308,"Ġturn":3309,"Ġvillage":3310,"Ġopp":3311,"Ġì¤Ħ":3312,"ĠGro":3313,"Ġconstruct":3314,"ë¡ľëĬĶ":3315,"ĠPres":3316,"ĠìķĶ":3317,"olic":3318,"Ar":3319,"ìĸµ":3320,"Ġhouse":3321,"Ġë°Ŀ":3322,"Ġorigin":3323,"bert":3324,"ê¸°ëĬĶ":3325,"of":3326,"ĠDistrict":3327,"ground":3328,"ense":3329,"ë¹Ī":3330,"app":3331,"ĠìĿ´ëŁ¬íķľ":3332,"ico":3333,"lection":3334,"Ġaff":3335,"Ġì¤ĳìķĻ":3336,"ĠìĿ¸ë¬¼":3337,"ê¹Ģ":3338,"ì´Īëĵ±íķĻêµĲ":3339,"Ġled":3340,"Ġëį°ìĿ´":3341,"Ġconc":3342,"Ġìļ´ìĺģ":3343,"site":3344,"ĠìĿ¸íķ´":3345,"ĠìĬ¤íĥĢ":3346,"ìĿ´ëĵľ":3347,"ĠAward":3348,"2005":3349,"Ġê¸°ì¤Ģ":3350,"ĠëĲĺìĸ´":3351,"Ġeven":3352,"íĿ¥":3353,"aff":3354,"Ġbusiness":3355,"Ġê³¡":3356,"Ġbest":3357,"Ġcountry":3358,"ploy":3359,"ize":3360,"Ġìµľì´Ī":3361,"Ġstudents":3362,"Ġside":3363,"Ġëĵ±ìĿĦ":3364,"ĠĠĊ":3365,"Ġíķĺê³ł":3366,"uted":3367,"Ġsite":3368,"ë¦¬ìĬ¤íĬ¸":3369,"01":3370,"formation":3371,"2014":3372,"ĠìĨĮìĨį":3373,"Ġcover":3374,"Ġì°¸ìĹ¬":3375,"mm":3376,"ridge":3377,"ìĦľëĬĶ":3378,"ases":3379,"ìłķìĿĦ":3380,"ĠSm":3381,"Ġec":3382,"ìĦ±ìĿ´":3383,"Ġthose":3384,"ĠëĮĢë¶Ģë¶Ħ":3385,"Ġëħ¸ëŀĺ":3386,"Ġannounc":3387,"Ġlate":3388,"align":3389,"ories":3390,"lex":3391,"esp":3392,"ìĤ¬ê°Ģ":3393,"êµ¬ìĿĺ":3394,"Ġsett":3395,"Ġmag":3396,"ë¥´íģ¬":3397,"An":3398,"Ġmoved":3399,"Ġì§ĢìĽĲ":3400,"Ġ=":3401,"ãĢį":3402,"ĠìłĪ":3403,"07":3404,"ĠOne":3405,"ney":3406,"ĠQu":3407,"ĠStreet":3408,"Ġì§Ī":3409,"Ġel":3410,"useum":3411,"Ġcrit":3412,"ope":3413,"Ġarch":3414,"ush":3415,"Ġfield":3416,"ĠëŁ¬ìĭľìķĦ":3417,"Ġexper":3418,"Ġspe":3419,"ĠAmer":3420,"ëħĦê¹Įì§Ģ":3421,"ì¹¨":3422,"Ġë©´":3423,"ĠIndia":3424,"ìĭ±":3425,"ìĽĶìĹĲ":3426,"ìĹĲìĦľëıĦ":3427,"íĩ´":3428,"ľ´":3429,"right":3430,"Ġdel":3431,"Ġíĥľìĸ´":3432,"Ġproduced":3433,"Ġport":3434,"Ġëıħë¦½":3435,"Ġestablish":3436,"Ġtitle":3437,"Ġposs":3438,"ëĲĺìĹĪê³ł":3439,"ĠChar":3440,"ìľ¤":3441,"field":3442,"ĠFI":3443,"Ġpat":3444,"olution":3445,"ript":3446,"ë²¨":3447,"æĸ":3448,"ĠìĿĺë¯¸":3449,"off":3450,"Ġwin":3451,"Ġfore":3452,"ĠìķłëĭĪë©ĶìĿ´ìħĺ":3453,"2013":3454,"Ġíĭ":3455,"Ġepis":3456,"íĻĶêµŃ":3457,"ivil":3458,"Ġíķĺì§Ģë§Į":3459,"Ġë¨¸":3460,"Ġmake":3461,"ì¿Ħ":3462,"ream":3463,"ander":3464,"ries":3465,"ê·Ģ":3466,"ëĵ¤ìĹĲê²Į":3467,"2015":3468,"Ġlevel":3469,"Ġcult":3470,"Ġamong":3471,"Ġë§ĪìĿ´":3472,"'t":3473,"Ġchang":3474,"ìĤ¬ìĿĺ":3475,"Ġval":3476,"ole":3477,"Ġcommon":3478,"Ġcame":3479,"Ġfe":3480,"ray":3481,"Ġwritten":3482,"ĠíĸĪ":3483,"ĠHol":3484,"ìĪĻ":3485,"ĠêµŃê°ĢëĮĢíĳľ":3486,"03":3487,"íĮħ":3488,"Ġallow":3489,"Ġfather":3490,"ê´ĳìĹŃ":3491,"ë¦´":3492,"Ġë´ī":3493,"ĠArmy":3494,"avy":3495,"åı":3496,"ĠíĥĪ":3497,"ìĬ¤ë¥¼":3498,"ëĤ¨ëıĦ":3499,"ĠMBC":3500,"Ġìĸ»":3501,"ape":3502,"irc":3503,"Ġfact":3504,"Ġrole":3505,"Ġ186":3506,"ĠìŀĲìľł":3507,"Ġbre":3508,"Ġ1989":3509,"Ġìłķë³´":3510,"ëĬĲ":3511,"ë¨¸ëĭĪ":3512,"Ġ1987":3513,"Ġhistor":3514,"Ġëĭ¤ìĸĳ":3515,"Ġactiv":3516,"Ġëľ»":3517,"Ġexpl":3518,"ìį¨":3519,"Ġê°Ī":3520,"Ġmuch":3521,"otes":3522,"ëĬĺ":3523,"ìĦľìļ¸":3524,"Ġsw":3525,"ĠìĿ´ë¥¼":3526,"ë§¨":3527,"ëī´":3528,"Ġ1988":3529,"ama":3530,"ĠìĥĪë¡ľìļ´":3531,"íĭ´":3532,"Ġë¡ľë§Ī":3533,"ĠOlymp":3534,"Ġëĭ¤ìĿĮê³¼":3535,"Ġwhat":3536,"2016":3537,"ĠìľłëŁ½":3538,"Ġrail":3539,"Ġtechn":3540,"Ġinvol":3541,"Ġê·¸ë£¹":3542,"Ã¶":3543,"ced":3544,"ì»¬":3545,"2004":3546,"Ġtem":3547,"ĠĠĠĠĠĠĠĠ":3548,"ote":3549,"ìĬ¤íħľ":3550,"ched":3551,"ìļĶíķľ":3552,"rem":3553,"ĠPort":3554,"Ġvoc":3555,"ĠRoad":3556,"ì¶ľìĹ°":3557,"ĠìĭľëĮĢ":3558,"Ġship":3559,"de":3560,"ëłī":3561,"Ġspecies":3562,"thern":3563,"ìŀĲë¥¼":3564,"Ġì¸¡":3565,"ĠìĥĿê°ģ":3566,"omet":3567,"Ġê²°ìłķ":3568,"Ġfre":3569,"ĠPaul":3570,"Ġengine":3571,"ĠìĪĺëıĦ":3572,"ìŀĲëĬĶ":3573,"ville":3574,"ha":3575,"ĠìķĦëĵ¤":3576,"ournal":3577,"Ġêµ¬ì¡°":3578,"Ġimport":3579,"ë³¼":3580,"ĠìĿ¼ë³¸ìĿĺ":3581,"Ġprevious":3582,"ê³¼ìĿĺ":3583,"ìĹĪê³ł":3584,"ĠNor":3585,"ĠDep":3586,"ĠDavid":3587,"Ġtotal":3588,"col":3589,"ĠRoman":3590,"iction":3591,"Ġgiven":3592,"ĠRober":3593,"Ġë¶Ģë¶Ħ":3594,"ì¡°ìĦł":3595,"berg":3596,"ëĲł":3597,"Ġinternational":3598,"ĠRed":3599,"Ġofficial":3600,"ĠMy":3601,"ìĭľì¼":3602,"outhern":3603,"reek":3604,"ìĺ¥":3605,"ë·Ķ":3606,"forman":3607,"ĠLou":3608,"Ġyoung":3609,"itz":3610,"Ġet":3611,"self":3612,"Ġ1960":3613,"Ġpopular":3614,"back":3615,"ivid":3616,"Ġìĩ¼":3617,"Ġì¹¨":3618,"ĠMor":3619,"ago":3620,"ĠíĥĢìĿ´":3621,"Ġbecome":3622,"ì¹¸":3623,"Ġsit":3624,"Ġvol":3625,"ming":3626,"Ġê·¸ëħĢ":3627,"ĠAustralian":3628,"ĠBy":3629,"ëł¸ëĭ¤":3630,"Ġwent":3631,"FC":3632,"Ġage":3633,"era":3634,"People":3635,"ports":3636,"Ġëª©ë¡Ŀ":3637,"itor":3638,"ìļķ":3639,"ots":3640,"ĠÃ":3641,"ìĬ¤ê°Ģ":3642,"Ġì½ĺ":3643,"Ġant":3644,"ittle":3645,"ari":3646,"ĠVal":3647,"ĠJames":3648,"anish":3649,"ĠAmerica":3650,"Com":3651,"ĠìĿ¼ìĸ´":3652,"Ġíĺķíĥľ":3653,"Ġprocess":3654,"ĠQue":3655,"ê°Ģì§Ģ":3656,"ĠGeorge":3657,"06":3658,"Ġvarious":3659,"Ġìħ":3660,"ëıĦë¥¼":3661,"ëĭĺ":3662,"Ġevery":3663,"ĠRich":3664,"ëĭĪëĭ¤":3665,"ĠBel":3666,"ĠRecords":3667,"ĠíĥĦ":3668,"Ġintro":3669,"esc":3670,"stitute":3671,"Ġíı´":3672,"Ġprim":3673,"ì±Ħ":3674,"ention":3675,"icle":3676,"Ġìĭľë¦¬ì¦Ī":3677,"iber":3678,"åĲ":3679,"NA":3680,"Ġvideo":3681,"Ġhost":3682,"eh":3683,"Ġê°ĻìĿ´":3684,"Ġìķħ":3685,"ilar":3686,"ìĬ¤íģ¬":3687,"ament":3688,"Ġë°°ê²½":3689,"ĠAssociation":3690,"Ġread":3691,"abor":3692,"Ġíĺ¼":3693,"unn":3694,"ania":3695,"lement":3696,"ĠSing":3697,"arch":3698,"ìĹ¼":3699,"urb":3700,"ëª¬":3701,"Ġcommunity":3702,"ĠRev":3703,"Ġgeneral":3704,"Ġtw":3705,"ĠPress":3706,"Ġ()":3707,"2017":3708,"æ°":3709,"ipp":3710,"Ġhaving":3711,"Ġmillion":3712,"Ġroad":3713,"Ġinit":3714,"Ġ1986":3715,"ĠìĤ¬ìĭ¤":3716,"ĠThom":3717,"ĠParty":3718,"ances":3719,"Ġfew":3720,"ĠìĹĨëĬĶ":3721,"Ġnext":3722,"Ġopened":3723,"Ġusing":3724,"çĶ":3725,"ĠPal":3726,"ì¢":3727,"ĠëĤľ":3728,"rote":3729,"ĠêµĲìĪĺ":3730,"ëĤĺëĭ¤":3731,"ìŀĲë¡ľ":3732,"rain":3733,"ë¶ĢìĿĺ":3734,"ĠìĹ¬ìĦ±":3735,"Ġìŀ¡":3736,"īê¸Ģ":3737,"ë¥´ëĬĶ":3738,"íĸĪëįĺ":3739,"iment":3740,"ìļ´ëĵľ":3741,"ĠHall":3742,"Ġway":3743,"ĠFrance":3744,"Ġprop":3745,"ĠBas":3746,"Ġìµľê³ł":3747,"ìķ¼ë§Ī":3748,"bor":3749,"ĠíĬ¹íŀĪ":3750,"2018":3751,"ĠìŀĲë£Į":3752,"ĠAnt":3753,"hers":3754,"Ġê¸ī":3755,"05":3756,"Ġworks":3757,"ìķĮ":3758,"ological":3759,"ĠìĬ¤íİĺ":3760,"ĠìĿ´íĥĪë¦¬ìķĦ":3761,"Ġìĥģíĥľ":3762,"ĠStud":3763,"å·":3764,"Ġìķ¼êµ¬":3765,"Ġaward":3766,"íı´":3767,"Ġstruct":3768,"ĠìĤ¬ëŀĳ":3769,"ister":3770,"ĠíķĻêµĲ":3771,"ached":3772,"ston":3773,"ĠìĹħ":3774,"48":3775,"ëį´":3776,"Ġstarted":3777,"íķĺìĺĢìľ¼ë©°":3778,"ean":3779,"ĠìľĦìĽĲ":3780,"åľ":3781,"íĺ¸ìĦł":3782,"Ġë°Ľìķĺëĭ¤":3783,"Ġcreated":3784,"Ġhig":3785,"ëĲĺìĹĪìľ¼ë©°":3786,"Ġstory":3787,"Ġspecial":3788,"raw":3789,"Ġìļ´ëıĻ":3790,"ìŀĲìĿ¸":3791,"ĠìĿ´ìĹĲ":3792,"ì²ĺëŁ¼":3793,"ĠDivision":3794,"Ġgreat":3795,"Ġë¥":3796,"Ġì§Ħì¶ľ":3797,"Ġ1984":3798,"2002":3799,"Ġíķ´ëĭ¹":3800,"ĠMusic":3801,"Ġsk":3802,"ĠEm":3803,"ogn":3804,"Ġclaim":3805,"ination":3806,"AR":3807,"oor":3808,"iol":3809,"Ġproduction":3810,"iron":3811,"ê±°ë¦¬":3812,"Ġì°¾":3813,"iddle":3814,"Ġgrad":3815,"ĠìĹĺ":3816,"Ġtake":3817,"aken":3818,"ĠìĿ¸êµ¬":3819,"Ġhowever":3820,"08":3821,"Ġproduc":3822,"ìĹĦ":3823,"ecut":3824,"ĠCouncil":3825,"Ġdevelopment":3826,"Ġalbums":3827,"Ġ1985":3828,"åį":3829,"Pro":3830,"2003":3831,"íŀ":3832,"ë¯Ģë¡ľ":3833,"ĠMal":3834,"Ġgl":3835,"Ġì§Ģìłķ":3836,"Ġsent":3837,"lected":3838,"êµĲìľ¡":3839,"ests":3840,"Ġdeaths":3841,"wood":3842,"Ġbroad":3843,"west":3844,"íĺľ":3845,"Ġschools":3846,"ì¹´ìĿ´":3847,"ĠWhen":3848,"Ġreturned":3849,"ample":3850,"Ġmilitary":3851,"rab":3852,"å¤§":3853,"Ġëħ¸ìĦł":3854,"ìĿ¸ë¯¼":3855,"ìľ¼ë¡ľëĬĶ":3856,"Ġcoach":3857,"As":3858,"Ġtimes":3859,"ìĹĲìĦľìĿĺ":3860,"Ġê°Ģì§Ģê³ł":3861,"ĠëĦĺ":3862,"sequ":3863,"Ġìĸ´ëĸ":3864,"Ġpri":3865,"Ġsongs":3866,"Ġë°ĽìķĦ":3867,"ators":3868,"09":3869,"å°":3870,"Ġìłľê³µ":3871,"ëĮĢë¥¼":3872,"Ġconf":3873,"Ġconn":3874,"02":3875,"ìĹ°êµ¬":3876,"íĻį":3877,"Ġmult":3878,"ĠìĦ±ê³µ":3879,"ìĭĿìĿĦ":3880,"Ġstar":3881,"ìĿ¼ë³¸ìĿĺ":3882,"ĠêµŃê°ĢëĮĢíĳľíĮĢ":3883,"ëĵľëĿ¼ë§Ī":3884,"Ġë²Į":3885,"ĠíĶĦë¦¬":3886,"ĠCath":3887,"Ġannounced":3888,"Ġguitar":3889,"iles":3890,"ëªħìĿĦ":3891,"Ġì¹¼":3892,"ida":3893,"ĠëĮĢìłĦ":3894,"Ġfem":3895,"ĠRoyal":3896,"ule":3897,"ìĿ¸ìĿ´":3898,"ĠBlack":3899,"ëłĪìĬ¤":3900,"Ġê¸Ģ":3901,"atch":3902,"ĠíĦ°":3903,"Ġê±°ì£¼":3904,"Ġter":3905,"łëĭ¤":3906,"Ġëį°ë·Ķ":3907,"less":3908,"unt":3909,"ì¤ĳíķĻêµĲ":3910,"īê¸Ģëŀľëĵľ":3911,"utes":3912,"ë²ĦìĬ¤":3913,"ĠìĥĿìĤ°":3914,"rian":3915,"ĠìķĦë²Ħì§Ģ":3916,"ya":3917,"Ġê³ĦìĨį":3918,"flu":3919,"Ġfull":3920,"ĠBer":3921,"Ġcomb":3922,"Ġ1983":3923,"íľĺ":3924,"ype":3925,"ëĲĺì§Ģ":3926,"ĠGermany":3927,"now":3928,"íĺĢ":3929,"Ġsol":3930,"Ġpe":3931,"ê²½ê¸°":3932,"íķĻê³¼":3933,"ĠGeneral":3934,"Ġë§¤ìļ°":3935,"ST":3936,"ĠClub":3937,"Ġbeh":3938,"ĠìĭľìłĪ":3939,"ĠCanadian":3940,"Ġwebsite":3941,"ference":3942,"Living":3943,"ëŀµ":3944,"ĠMag":3945,"ìĻĦ":3946,"ìľ¼ë¡ľìĦľ":3947,"Ġround":3948,"han":3949,"ìķķ":3950,"Ġsee":3951,"ìĥĪ":3952,"ìĭľë§Ī":3953,"ĠìĿ¸íĦ°":3954,"After":3955,"ĠëłĪìĿ´":3956,"ĠëıĮìķĦ":3957,"ĠëĶ¸":3958,"xt":3959,"ê´´":3960,"ĠìĿ´ê²ĥ":3961,"ĠDuring":3962,"ĠMart":3963,"å±":3964,"ĠìķĬìķĺëĭ¤":3965,"ili":3966,"35":3967,"uff":3968,"ĠíĽĦë³´":3969,"Ġwithout":3970,"2020":3971,"Ġregion":3972,"Ġë¹Į":3973,"ê¸´":3974,"ĠUnion":3975,"ëªħìĿ´":3976,"Ġappe":3977,"ê¶ģ":3978,"Ġneed":3979,"rack":3980,"ĠThese":3981,"Ġê³µëıĻ":3982,"Ġren":3983,"¿Ĳ":3984,"Ġlim":3985,"inister":3986,"Ġposition":3987,"ĠìŀĪê³ł":3988,"ashington":3989,"Ġ1982":3990,"2019":3991,"Ġcontrol":3992,"ì£Ħ":3993,"ĠEuropean":3994,"ëŀĻ":3995,"Ġattem":3996,"Ġì£¼ë¡ľ":3997,"Ġfriend":3998,"Ġinf":3999,"Ġë¸ĮëĿ¼":4000,"ĠìŀĪëįĺ":4001,"ources":4002,"Ġìŀĳê³¡":4003,"ĠKingdom":4004,"Ġpolitical":4005,"Ġareas":4006,"ĠêµŃë¯¼":4007,"ê¸°ë¡ľ":4008,"ocr":4009,"II":4010,"ìºĲ":4011,"Ġìĭ±ê¸Ģ":4012,"ë¶ģëıĦ":4013,"ills":4014,"atter":4015,"ê°ĢìĻĢ":4016,"ĠCompany":4017,"ibr":4018,"iography":4019,"lo":4020,"Ġì¡°ì§ģ":4021,"2001":4022,"ĠìĿ´ìķ¼":4023,"uce":4024,"Ġwrote":4025,"04":4026,"ĠìĦ¼":4027,"ìĸ´ë¡ľ":4028,"ìŀ¥ìĿ´":4029,"ĠBra":4030,"ym":4031,"ells":4032,"ĠPat":4033,"ketball":4034,"ĠíĹĮ":4035,"aper":4036,"aining":4037,"icular":4038,"Pl":4039,"ĠFIFA":4040,"etwork":4041,"Ġright":4042,"ĠìĨĮìŀ¬":4043,"Ġfind":4044,"Ġbrother":4045,"ĠNe":4046,"Ġpract":4047,"Ġsimilar":4048,"Ġ1981":4049,"Ġê³łëł¤":4050,"Ġchurch":4051,"Ġjoined":4052,"Ġalign":4053,"Ġperforman":4054,"Ġpoint":4055,"ĠìĦ¬":4056,"Ġdest":4057,"Cl":4058,"ither":4059,"year":4060,"ways":4061,"ĠTex":4062,"Ġìķ¨ë²Ķ":4063,"yd":4064,"eball":4065,"Ġgen":4066,"ona":4067,"Ġconsidered":4068,"Ġred":4069,"ij":4070,"wh":4071,"KBS":4072,"Ġ1979":4073,"Ġpolitic":4074,"ĠLaw":4075,"Ġattack":4076,"Ġmarried":4077,"arth":4078,"ĠWe":4079,"Ġrecorded":4080,"Ġê³Ħíļį":4081,"ĠìķĦëĭĪëĿ¼":4082,"ĠIsland":4083,"Ġì»´":4084,"ma":4085,"Ġleague":4086,"ising":4087,"uz":4088,"ĠìĿ´ìľł":4089,"ishing":4090,"íķ´ìĦľ":4091,"ĠTown":4092,"Ġappeared":4093,"ìłĦìĿĦ":4094,"Ġdescribed":4095,"burg":4096,"ĠDon":4097,"Ġê¸°íĥĢ":4098,"ockey":4099,"ì¶ĺ":4100,"oul":4101,"apt":4102,"ĠâĨ":4103,"189":4104,"ëĵľëĬĶ":4105,"Ġëª¨ëį¸":4106,"ëĤ¸":4107,"ìĽĲìĿĺ":4108,"ìļ´ëıĻ":4109,"ë¦¬ìĺ¤":4110,"Ġì°¨ì§Ģ":4111,"men":4112,"Ġcontinued":4113,"umni":4114,"ê²Ģ":4115,"éģ":4116,"ìĪĺìĿĺ":4117,"Ġindust":4118,"ĠPresident":4119,"ë¦¬ê³ł":4120,"ĠSim":4121,"ĠìĭľìĬ¤íħľ":4122,"erb":4123,"íı¬ì¸ł":4124,"iers":4125,"ëĤĺëĬĶ":4126,"ĠTur":4127,"cy":4128,"Ġëªĩ":4129,"ĠVol":4130,"ì§Ģë§ī":4131,"Ġtrack":4132,"uation":4133,"ê°ĦìĿĺ":4134,"ĠìłĦì²´":4135,"ĠJos":4136,"ointed":4137,"Ġgroups":4138,"ê´ĳìĹŃìĭľ":4139,"°ëĭ¤":4140,"Ġë°©ë²ķ":4141,"Ġident":4142,"olf":4143,"Ġproject":4144,"Ġeducation":4145,"45":4146,"Ġìŀł":4147,"ì¹Ļ":4148,"ì¢Į":4149,"Ġì¢Į":4150,"Ġliter":4151,"ĠCourt":4152,"ëıĦê°Ģ":4153,"Ġì£¼ìļĶ":4154,"ĠìķĬëĬĶëĭ¤":4155,"rd":4156,"oints":4157,"Ġ2023":4158,"ĠVir":4159,"Ġ#":4160,"ĠServ":4161,"Ġìļ¸":4162,"Ġlost":4163,"anies":4164,"ĠSl":4165,"Ġmy":4166,"ĠMo":4167,"ìĦ¬":4168,"Ġíŀĺ":4169,"Ġprofessional":4170,"ges":4171,"Ġ1950":4172,"ĠìĻ¸êµŃ":4173,"ades":4174,"ĠëĶ°ë¥´":4175,"ĠSen":4176,"ateg":4177,"ĠAngel":4178,"ĠGroup":4179,"ably":4180,"hib":4181,"Ġindivid":4182,"ĠWith":4183,"Ġreal":4184,"Ġë¹ł":4185,"ãĢı":4186,"ested":4187,"ĠTrans":4188,"ìĩ¼":4189,"oks":4190,"ĠRail":4191,"ĵ¨":4192,"ĠArch":4193,"ĠFootball":4194,"íĶĦë¦¬ì¹´":4195,"Ġdi":4196,"ĠãĢĮ":4197,"æĺ":4198,"ending":4199,"Ġhalf":4200,"Ġz":4201,"used":4202,"ëĦ·":4203,"val":4204,"Ġlive":4205,"SA":4206,"ë¥´íĬ¸":4207,"It":4208,"ying":4209,"Ġë°ĶìĿ´":4210,"ìĦ±ìĿĺ":4211,"ë¦¬ì§Ģ":4212,"íĶ¼ìĸ¸":4213,"ë¡ľìĬ¤":4214,"ĠìķĬê³ł":4215,"aughter":4216,"ĠSociety":4217,"Ġë¶ĢìĤ°":4218,"ĠëĤ´ìļ©":4219,"Ġdays":4220,"Ġì²łëıĦìĹŃ":4221,"lear":4222,"ĠìĹ´ë¦°":4223,"ëĭ¬ë¦¬ìĬ¤íĬ¸":4224,"ĠAcadem":4225,"gin":4226,"Ġstations":4227,"Ġcross":4228,"Ġworked":4229,"odes":4230,"íĨ¤":4231,"lic":4232,"here":4233,"ĠGreat":4234,"Ġlanguage":4235,"aged":4236,"íħĲ":4237,"Ġoffer":4238,"80":4239,"ĠMary":4240,"Ġê´Ģíķľ":4241,"reland":4242,"ĠëĬ¥":4243,"ë²¤":4244,"ìĥ¤":4245,"ĠíķŃê³µ":4246,"Ġcaus":4247,"1999":4248,"Ġnovel":4249,"Ġì¶Ķê°Ģ":4250,"ëĭĿ":4251,"Ġëĸł":4252,"Ġhon":4253,"Ġproper":4254,"ĠëĪĪ":4255,"ĠGr":4256,"ë¡¯":4257,"ìļ±":4258,"Ġelection":4259,"íĻķ":4260,"ĠFirst":4261,"Ġfounded":4262,"rated":4263,"ĠìĽĶëĵľì»µ":4264,"ìĸ¼":4265,"Ġëħ¹":4266,"ìĿĮìĿĦ":4267,"ĠìĹŃíķł":4268,"Ġëĭ¤ìĸĳíķľ":4269,"rap":4270,"Ġmid":4271,"ìĭŃ":4272,"Ġenc":4273,"ĠOrder":4274,"ë¹Į":4275,"ĠWashington":4276,"Ġeconom":4277,"Ġëĳĺ":4278,"roll":4279,"ìĤ¬ëĬĶ":4280,"Ġtyp":4281,"éĩĳ":4282,"íĬľ":4283,"ĠChristian":4284,"37":4285,"Ġdiv":4286,"Ġdeveloped":4287,"unction":4288,"íĻĶë¥¼":4289,"Ġëĭ¤ìĿ´":4290,"Ġmatch":4291,"ä¹":4292,"ĠìĽĮ":4293,"1990":4294,"ĠMont":4295,"ĠíĺĦëĮĢ":4296,"idence":4297,"Ġë®¤":4298,"pro":4299,"ĠHen":4300,"Sh":4301,"udd":4302,"ĠCenter":4303,"ĠìĹ°ê²°":4304,"Ġdoes":4305,"Ġtradition":4306,"Ġê±´ì¶ķ":4307,"ani":4308,"Ġë¶Ħë¥ĺ":4309,"æĿİ":4310,"Ġservices":4311,"Ġevents":4312,"ger":4313,"Ġê²½ìĥģ":4314,"å¾":4315,"Ġins":4316,"ults":4317,"ĠScott":4318,"Ġpriv":4319,"ĠíĶĮëłĪìĿ´":4320,"Ġdirector":4321,"ele":4322,"ĠRobert":4323,"ìĽĲìĿĦ":4324,"Ġpresident":4325,"Ġêµ¬ê°Ħ":4326,"Ġhold":4327,"rish":4328,"Ġìĸ¼":4329,"ĠBay":4330,"¥Ĳ":4331,"ume":4332,"ĠSBS":4333,"ĠMiss":4334,"Ġaut":4335,"BA":4336,"ccording":4337,"ĠíĬ¹ë³Ħ":4338,"ë¹ĦìĬ¤":4339,"éĥ":4340,"ì·¨":4341,"ĠDem":4342,"Ġë°°ê²½ìľ¼ë¡ľ":4343,"ĠMex":4344,"olit":4345,"ump":4346,"éĻ":4347,"ertain":4348,"ìŀ¡":4349,"ëıĻì°¨":4350,"íĥķ":4351,"Ġrelations":4352,"most":4353,"Ġbody":4354,"Ġgood":4355,"ìĿį":4356,"ements":4357,"Ġcompleted":4358,"Ġ185":4359,"Ġavail":4360,"Ġteams":4361,"Ġ1974":4362,"Ġvict":4363,"Ġdebut":4364,"ê¶ĮìĿĦ":4365,"Ġaver":4366,"acing":4367,"íİĺìĿ´ì§Ģ":4368,"ìĬ¤ì½Ķ":4369,"Ġhimself":4370,"å¯":4371,"ĠSal":4372,"ĠTexas":4373,"ĠLouis":4374,"Ġless":4375,"aker":4376,"ĠJew":4377,"Ġíį¼":4378,"ids":4379,"ĠMac":4380,"ĠYear":4381,"Ġview":4382,"Ġë§¥":4383,"ĠList":4384,"epar":4385,"Ġmiss":4386,"ĠìĨĮìĦ¤":4387,"Ġten":4388,"ì½ľ":4389,"Ġ1978":4390,"ĠBest":4391,"36":4392,"estival":4393,"Ġë§Īì§Ģë§ī":4394,"ĠêµĲíĨµ":4395,"ĠìĿ´ë¯¸":4396,"Ġfurther":4397,"ĠGreen":4398,"íķĺê¸°ëıĦ":4399,"Ġëĸ¨":4400,"atre":4401,"Ġsqu":4402,"Ġcase":4403,"ìĿ¼ë¶ĢíĦ°":4404,"ĠMichael":4405,"vert":4406,"Ġnever":4407,"Ġ1972":4408,"Ġ1976":4409,"Ġíķĺê³Ħ":4410,"ìĽĲìłĦ":4411,"Ġshould":4412,"Ġrelease":4413,"Ġëª¨ìĬµ":4414,"oice":4415,"ĠUK":4416,"ë§¥":4417,"1998":4418,"ĠMad":4419,"ĠCatholic":4420,"ìĬ¤íĥĦ":4421,"ĠCont":4422,"Ġhelp":4423,"Ġê°Ļëĭ¤":4424,"Ġadminist":4425,"Ġimportant":4426,"Ġemploy":4427,"ique":4428,"aign":4429,"Ġformed":4430,"Sp":4431,"Ġsurv":4432,"ĠGold":4433,"Ġder":4434,"ning":4435,"ĠCr":4436,"ification":4437,"Ġë§İìĿ´":4438,"íķĺìŀĲ":4439,"Ġsigned":4440,"Ġcond":4441,"Ġhuman":4442,"Ġexample":4443,"ĠMount":4444,"Ġanim":4445,"ĠìĤ¬ìĹħ":4446,"usical":4447,"alls":4448,"47":4449,"íĬ¸ë¡ľ":4450,"Ġê³¼ìłķ":4451,"ĠCap":4452,"ĠInter":4453,"ìĿ¸ë¬¼":4454,"ìłĲìĿĦ":4455,"Ġmodern":4456,"Ġinflu":4457,"Ġcast":4458,"itch":4459,"ìĿ¸ë¯¼ê³µ":4460,"ala":4461,"Ġplaying":4462,"ĠíĮĶ":4463,"ìĭľê°Ħ":4464,"Ġrev":4465,"ĠìķĦëŀĺ":4466,"ux":4467,"play":4468,"êµ´":4469,"íĿĲ":4470,"ìĪĺë¥¼":4471,"ĠSam":4472,"Ġrul":4473,"Ġë°´":4474,"atural":4475,"rael":4476,"Ġrock":4477,"ĠíĿ¬":4478,"ìķ¡":4479,"Ġ1973":4480,"Film":4481,"ì½ĺ":4482,"sy":4483,"ìĤ¬ê´Ģ":4484,"New":4485,"ĠTor":4486,"Ġê°ľìµľ":4487,"ĠíķĦìļĶ":4488,"ĠìĦ±ìļ°":4489,"ī¬":4490,"Ġê²°êµŃ":4491,"íĶĦë¡ľ":4492,"Ġëª¸":4493,"Ġground":4494,"ĠíıĲì§Ģ":4495,"icles":4496,"ĠPri":4497,"Ġexist":4498,"eck":4499,"ĠìľĦì¹ĺíķľ":4500,"Ġë³´ê³ł":4501,"ĠCro":4502,"ER":4503,"Ġíĭ°":4504,"ĠTra":4505,"ini":4506,"ê³³":4507,"Ġparticular":4508,"íĳ¸":4509,"be":4510,"33":4511,"ĠGod":4512,"time":4513,"íģĲ":4514,"Ġfail":4515,"ensive":4516,"ĠBen":4517,"Ġìľłì§Ģ":4518,"íķĻê¸ī":4519,"Ġeffect":4520,"eph":4521,"ĠMark":4522,"Ġweek":4523,"Ġradio":4524,"ìļ´ëį°":4525,"Ġwife":4526,"erry":4527,"Jo":4528,"Ġassist":4529,"Ġmaking":4530,"itive":4531,"mar":4532,"Ġtro":4533,"elt":4534,"arliam":4535,"Ġì±Ķ":4536,"ĠCD":4537,"Ġ1975":4538,"ĠMet":4539,"Ġlo":4540,"¾¸":4541,"Ġgrow":4542,"uter":4543,"ĠìĽ¹":4544,"Ġparticip":4545,"ìľ¼ë¡ľë¶ĢíĦ°":4546,"Ġbecom":4547,"ĠFranc":4548,"ê°ĢëĬĶ":4549,"ìĤ¬ë¡ľ":4550,"íĹ¤":4551,"Ġothers":4552,"ĠCommun":4553,"ë¥Ļ":4554,"íĨ¨":4555,"Ġsepar":4556,"ĠìĹĦ":4557,"Ġê¸°ëĬ¥":4558,"Ġsports":4559,"ĠWestern":4560,"ilities":4561,"unk":4562,"azine":4563,"Ġê²©":4564,"ged":4565,"ĠJapanese":4566,"Ġarr":4567,"íĶĦëŀĳ":4568,"Ġmater":4569,"ĠëıĦë¡ľ":4570,"Ġfire":4571,"ĠWil":4572,"Ġë¬ĺ":4573,"Ġindepend":4574,"itted":4575,"rick":4576,"ì§Ħëĭ¤":4577,"Ġë¯¼ì£¼":4578,"½ĥ":4579,"Ġmot":4580,"itect":4581,"íĦ¸":4582,"ĠZeal":4583,"ìĿ¸ëĭ¤":4584,"Ġbelie":4585,"ership":4586,"Ġmunicipality":4587,"Ġcoll":4588,"Ġê±°ìĿĺ":4589,"ë£¡":4590,"Ġì¶ľìłĦ":4591,"ëĮĢíķľë¯¼êµŃ":4592,"Ġsocial":4593,",\"":4594,"imately":4595,"istic":4596,"asons":4597,"ula":4598,"arliament":4599,"Ġìļ´íĸī":4600,"Ġ1977":4601,"ëıĦëĬĶ":4602,"ĠCentral":4603,"ĠThomas":4604,"ederal":4605,"ä»":4606,"ë¶ĢìĹĲ":4607,"1996":4608,"ĠChina":4609,"ictor":4610,"Eng":4611,"39":4612,"hi":4613,"ĠíĴį":4614,"Ġalthough":4615,"ector":4616,"ude":4617,"ĠëĮĢìĥģ":4618,"ĠZealand":4619,"ĠTo":4620,"ellow":4621,"bour":4622,"ĠìĿ´ëģ":4623,"1997":4624,"Ġavailable":4625,"stead":4626,"Ġhous":4627,"Ġproduct":4628,"Ġmeet":4629,"Ġpoints":4630,"ĠGo":4631,"Ġìĺ¤ë¸Į":4632,"ĠêµŃíļĮìĿĺ":4633,"38":4634,"Ľ°":4635,"ĠìķĬìĿĢ":4636,"ĠëıĦì¿Ħ":4637,"Ġ1971":4638,"Ġreview":4639,"craft":4640,"ĠíĳľíĺĦ":4641,"31":4642,"Ġê³µê°ľ":4643,"ĠDay":4644,"ĠAlex":4645,"rey":4646,"ethod":4647,"ĠëĨĴìĿĢ":4648,"rig":4649,"ëĥĲ":4650,"aps":4651,"\")":4652,"edy":4653,"ĠProv":4654,"onn":4655,"iting":4656,"Ġìľłëªħ":4657,"aut":4658,"ìĿ´ê°Ģ":4659,"Sc":4660,"eep":4661,"ĠíĻĪíİĺìĿ´ì§Ģ":4662,"Ġlow":4663,"ĠIreland":4664,"ìľ¼ë¡ľìį¨":4665,"ĠìĽ¨":4666,"mon":4667,"ada":4668,"aries":4669,"Ġepisode":4670,"ware":4671,"ìĸ´ë¥¼":4672,"Ã¤":4673,"roy":4674,"atory":4675,"ìĿ´ìĿĺ":4676,"ĠìĥĿíĻľ":4677,"Ġtog":4678,"íķ´ìķ¼":4679,"ĠTom":4680,"íĥģ":4681,"ĠChe":4682,"Ġaway":4683,"ĠëĶ°ë¥´ë©´":4684,"ecutive":4685,"Ġdoc":4686,"cle":4687,"Ġmother":4688,"ĠìĿĳ":4689,"Ġì±ĶíĶ¼ìĸ¸":4690,"ĠìķĦë¥´":4691,"Ġinvest":4692,"fficial":4693,"Ġtogether":4694,"Ġìĺģíĸ¥ìĿĦ":4695,"oys":4696,"isl":4697,"Ġëª°":4698,"Ġvocals":4699,"Ġë¹ĦëĶĶìĺ¤":4700,"anding":4701,"annel":4702,"ìłľë¡ľ":4703,"ĠPeter":4704,"Ġê°ģê°ģ":4705,"head":4706,"ĠBill":4707,"ĠAcademy":4708,"ëĶ©":4709,"ĠLove":4710,"oted":4711,"Ġcontract":4712,"Ġìķ¤":4713,"ĠRock":4714,"ĠGrand":4715,"ĠFrom":4716,"ota":4717,"íķĺëł¤":4718,"Ġê±´ìĦ¤":4719,"ëłĩ":4720,"EFA":4721,"Ġìĸ´ë¨¸ëĭĪ":4722,"Ġacross":4723,"ĠCharles":4724,"ena":4725,"Ġdeg":4726,"Ġë§Įëĵ¤ìĸ´":4727,"Ġonce":4728,"lor":4729,"íĵ¨":4730,"ror":4731,"íķĢ":4732,"ĠìłľêµŃ":4733,"Ġ1968":4734,"ìŀ¥ìĿĢ":4735,"ios":4736,"Ġ1969":4737,"ëª¨íĨł":4738,"Ġ1945":4739,"Ġinformation":4740,"íĹĪ":4741,"êµ°ìĿĢ":4742,"æŃ":4743,"çİ":4744,"ìŀ¥ìľ¼ë¡ľ":4745,"49":4746,"46":4747,"Ġë¬¸íĹĮ":4748,"ìĥģìĿĺ":4749,"ĠHistory":4750,"Ġì½ľ":4751,"ĠíķĺìĹ¬":4752,"IN":4753,"ëł¥ìĿ´":4754,"Ġê´Ģë¦¬":4755,"Ġíľ´":4756,"ceed":4757,"ĠFrank":4758,"ĠCong":4759,"ëĥĪëĭ¤":4760,"Ġìĥ¤":4761,"´¬":4762,"Ġphys":4763,"ĠInstitute":4764,"ww":4765,"%)":4766,"Ġconstruction":4767,"ĠìłĦêµŃ":4768,"Ġfree":4769,"go":4770,"Ġê°Ģìļ´ëį°":4771,"Ġlight":4772,"ĠìĿ¸ìłķ":4773,"Ġphot":4774,"ĠìĿ´ë¡ł":4775,"acters":4776,"íı°":4777,"Ġìĺ¤ìĬ¤íĬ¸":4778,"Ġrecogn":4779,"oms":4780,"center":4781,"ìł¤":4782,"Ġë°ľìłĦ":4783,"ducation":4784,"Ġíıīê°Ģ":4785,"Ġrelig":4786,"viron":4787,"Ġoriginally":4788,"ĠìĿ¸ëıĦ":4789,"ìĿ´ìĸ´":4790,"Ġoffice":4791,"ĠPet":4792,"å¹":4793,"hood":4794,"Ġmust":4795,"ì§ĢìĿĺ":4796,"Ġelected":4797,"ores":4798,"ìĽĲìĿ´":4799,"aches":4800,"emor":4801,"ëĭ¤ê°Ģ":4802,"igital":4803,"Ġsound":4804,"Ġworking":4805,"Ġdev":4806,"Ġstrong":4807,"ĠDo":4808,"íķĺëįĺ":4809,"heast":4810,"ece":4811,"ishop":4812,"Ġ(\"":4813,"70":4814,"Ġê²¸":4815,"Ġperformed":4816,"ì²Ļ":4817,"ĠëĮĢìĭł":4818,"Ġì§ģìłĳ":4819,"ittee":4820,"Ġacqu":4821,"Ġinst":4822,"¹ìĿĢ":4823,"ìĦ¼íĦ°":4824,"Ġê·¸ê²ĥ":4825,"2021":4826,"gress":4827,"ìĪĺìĥģ":4828,"iding":4829,"ĠDepartment":4830,"ĠìŀĳìĿĢ":4831,"ìĬ¤ìĻĢ":4832,"íıŃ":4833,"Ġìĸ´ë¦°":4834,"ĠPenn":4835,"Ġ35":4836,"Ġblack":4837,"Wh":4838,"och":4839,"writ":4840,"ĠìĿ´ëıĻ":4841,"Ġ60":4842,"ĠAfrica":4843,"1995":4844,"Ġalumni":4845,"Ġê²°íĺ¼":4846,"ĠBut":4847,"ylv":4848,"ĠìĥģíĻ©":4849,"uild":4850,"atives":4851,"Ġincludes":4852,"ĠMer":4853,"ĠìłķìĿĺ":4854,"Ġtaken":4855,"ĠMuseum":4856,"Ġresearch":4857,"ential":4858,"Ġfund":4859,"aves":4860,"Ġaverage":4861,"ĠKore":4862,"Ġhow":4863,"Ġfollowed":4864,"For":4865,"ĠíķĻìĥĿ":4866,"´¬ìĺģ":4867,"Ġmix":4868,"ought":4869,"ability":4870,"íķĺì§Ģë§Į":4871,"ĠLake":4872,"ĠìĮ":4873,"ĩĮ":4874,"Ġmonths":4875,"Ġappointed":4876,"idents":4877,"Ġestablishments":4878,"ĠCarol":4879,"Ġcour":4880,"ship":4881,"´Ħ":4882,"Ġsuccessful":4883,"Ġbooks":4884,"igned":4885,"ria":4886,"Ð°":4887,"jects":4888,"ĠMel":4889,"ĠÂ·":4890,"32":4891,"Ġcompanies":4892,"uated":4893,"Ġmar":4894,"ê³¤":4895,"ano":4896,"asc":4897,"ìĩ":4898,"ranch":4899,"Ġìłķì¹ĺìĿ¸":4900,"Ġë°©ìĭĿ":4901,"ìĺĢëįĺ":4902,"Ġparty":4903,"Ġlab":4904,"Ġë²¨":4905,"Ġaccess":4906,"ìħĶ":4907,"incip":4908,"ĠíĽ":4909,"ì³¤":4910,"ĠRob":4911,"ĠFlor":4912,"ĠìĦłìłķ":4913,"íĸĪì§Ģë§Į":4914,"Ġseen":4915,"ĠìĬ¬":4916,"ĠPlay":4917,"ĠìĿ´ë¦ĦìĿĦ":4918,"FL":4919,"iff":4920,"adium":4921,"rel":4922,"ĠìĿ´ë£¨ìĸ´":4923,"Ġkilled":4924,"AC":4925,"icago":4926,"Ġrace":4927,"Ġë³´ìĹ¬":4928,"ĠAfrican":4929,"ĠCamp":4930,"ìĤ¬íļĮ":4931,"ì§ĢìĹĲ":4932,"ĠLeg":4933,"ergy":4934,"AT":4935,"Ġreported":4936,"ìĬ¤ë¡ľ":4937,"Ġlaun":4938,"elling":4939,"Ġë¨¹":4940,"Ġeight":4941,"Ġtour":4942,"ä½":4943,"Ġíĳ¸":4944,"ĠDan":4945,"aren":4946,"ibrary":4947,"ĠëĤ¨ìķĦ":4948,"Ġìķķ":4949,"ospital":4950,"ìĿ¼ìĿĺ":4951,"left":4952,"Ġ1967":4953,"Ġattempt":4954,"ĠRichard":4955,"ĠHill":4956,"Ġê±´ë¬¼":4957,"Ġkm":4958,"iqu":4959,"1994":4960,"ĠHam":4961,"Ġì§Ģíķĺ":4962,"ĠApp":4963,"ìĿ¸ìĿĦ":4964,"ĠFore":4965,"Ġfeatures":4966,"Ġide":4967,"íħĶ":4968,"ĠKn":4969,"ĠìķĬëĬĶ":4970,"ĠPe":4971,"atri":4972,"ìŀĲìĻĢ":4973,"ĠFilm":4974,"Ġwid":4975,"2022":4976,"Ġassoci":4977,"æ´":4978,"ìĿ¸ìĿĢ":4979,"34":4980,"Ġput":4981,"istan":4982,"75":4983,"ugby":4984,"ĠìŀĦëªħ":4985,"thlet":4986,"Ġagre":4987,"arian":4988,"ìĻĶëĭ¤":4989,"Ġmarket":4990,"ëģ¼":4991,"anded":4992,"Ġcontrib":4993,"ëıħêµĲ":4994,"ëłĢ":4995,"Ġì£¼ë³Ģ":4996,"ĠëĤĺëĿ¼":4997,"ĠItalian":4998,"Ġê¼":4999,"Ġconduct":5000,"å±±":5001,"íıĲ":5002,"ë¡¤":5003,"Ġplan":5004,";\"":5005,"Ġmaterial":5006,"ĠVirgin":5007,"ìĪĺê°Ģ":5008,"stitut":5009,"olk":5010,"ĠWhite":5011,"Ġbar":5012,"ands":5013,"atin":5014,"ems":5015,"åº":5016,"Ġdaughter":5017,"iation":5018,"Ġìŀĳê°Ģ":5019,"At":5020,"Ġcost":5021,"serv":5022,"Ġentire":5023,"Ġanal":5024,"Ġfight":5025,"Ġcirc":5026,"ë°ĶìĿ´":5027,"nder":5028,"Ġíķµ":5029,"Ġ1964":5030,"mb":5031,"ìłĦíŀĪ":5032,"Ġì§ĢëıĦ":5033,"Ġlargest":5034,"Ġcapt":5035,"Ġpark":5036,"Ġthroughout":5037,"merc":5038,"Ġdirected":5039,"ĠëĲĺëĬĶ":5040,"ĠëĬĲ":5041,"ĠíĺķìĦ±":5042,"ì¹ĺëĬĶ":5043,"ĠÐ":5044,"Ġë§ĪìĿĦ":5045,"ificant":5046,"Ġfeatured":5047,"Ġìĥī":5048,"Ġshows":5049,"anta":5050,"ë¯¸ëĶĶ":5051,"ado":5052,"ê²¼":5053,"ì§Ģê³ł":5054,"ìłľë¥¼":5055,"enced":5056,"ëĵĢ":5057,"order":5058,"ĠëĽ°":5059,"ĠìķĦìĭľ":5060,"ĠIsrael":5061,"erous":5062,"Ġì¶ľìĭľ":5063,"ĠíĽĪ":5064,"ë²½":5065,"ĠSmith":5066,"Ġproble":5067,"ëĭ¤ëĬĶ":5068,"ìľĦìĹĲ":5069,"ked":5070,"imate":5071,"ìłľê°Ģ":5072,"Ġê²½ì°°":5073,"inese":5074,"ĠìŀĲìĹ°":5075,"íĬ¹ë³Ħìĭľ":5076,"ĠìłĦë¬¸":5077,"ĠSpanish":5078,"Ġcampaign":5079,"ĠDes":5080,"ites":5081,"oma":5082,"Ġeither":5083,"Ġstri":5084,"ĠSuper":5085,"ëĲĲëĭ¤":5086,"chie":5087,"ĠScot":5088,"ĠLos":5089,"ĠìķĮëł¤ìł¸":5090,"Ġeventually":5091,"Ġ1966":5092,"Ġregular":5093,"Ġearl":5094,"åĪ":5095,"Ġmodel":5096,"road":5097,"ê¸°ê´Ģ":5098,"airs":5099,"Ġgave":5100,"ì¹´ìĻĢ":5101,"Ġgoal":5102,"Ġremained":5103,"ë©ĺ":5104,"ĠëĶ°ëĿ¼ìĦľ":5105,"hest":5106,"ĠRepublic":5107,"ê°ľìļĶ":5108,"Ġbroadcast":5109,"Ġê²½ëł¥":5110,"Ġbuildings":5111,"Ġë¶Ļ":5112,"ìĤ¬ìĹĲ":5113,"Ġtest":5114,"ĠëĤ®":5115,"color":5116,"ë¯¸êµŃ":5117,"ê³¼íķĻ":5118,"aval":5119,"overnor":5120,"This":5121,"ìŀ¥ìĿĺ":5122,"vironment":5123,"99":5124,"Ġfront":5125,"SS":5126,"Ġkey":5127,"ì¤Ħ":5128,"Ġviol":5129,"ìĥĿìķł":5130,"Ge":5131,"ON":5132,"aching":5133,"Ġê·¸ë¦¬ìĬ¤":5134,"Ġê³¼íķĻ":5135,"55":5136,"ĠìľĮ":5137,"ĠRussian":5138,"Ġêµ°ìĤ¬":5139,"agon":5140,"ĠVictor":5141,"ĠWin":5142,"Ġreplaced":5143,"ëĮĢìĹĲ":5144,"ĠíĥĲ":5145,"1992":5146,"ëĵ¤ìĹĲ":5147,"Ġdam":5148,"Ġtransl":5149,"188":5150,"ëĨį":5151,"Ġseven":5152,"Ġê¸°ë°ĺ":5153,"Ġtre":5154,"êµ°ìĿ´":5155,"Ġimpro":5156,"è¡":5157,"ë¶Ģë¥¼":5158,"Ġsugg":5159,"ëŁ¬ìĬ¤":5160,"Ġcharacters":5161,"Ġìĸ¸ìĸ´":5162,"ĠìķĬìķĺ":5163,"aught":5164,"Ġë¹Ī":5165,"ĠSecond":5166,"44":5167,"Ġap":5168,"ìĽ¨ìĸ´":5169,"ooks":5170,"kn":5171,"ource":5172,"ĠìĦľë¡ľ":5173,"ëĭ¨ìĿĺ":5174,"ìĦ¸ìĿĺ":5175,"Ġëħ¸ëıĻ":5176,"Ġê²½ê¸°ëıĦ":5177,"Ġconsist":5178,"Ġhom":5179,"Ġintroduced":5180,"ëĤĺìĿ´":5181,"Ġforces":5182,"ĠëĤĺìĺ¤":5183,"ĠíĻľìķ½":5184,"ì¼ĵ":5185,"Ġpress":5186,"Ġ1965":5187,"ĠêµŃíļĮìĿĺìĽĲ":5188,"Ġê¸´":5189,"Ġinj":5190,"ĠíĨµíķ©":5191,"¤ë²Ħ":5192,"oviet":5193,"Ġpast":5194,"ĠCons":5195,"anks":5196,"ĠìłĦëĿ¼":5197,"ìłĦìĹĲ":5198,"ê³µíķŃ":5199,"ëł¬":5200,"Ġì¤ĳìļĶíķľ":5201,"Ġstage":5202,"cer":5203,"ĠíĽĦìĹĲ":5204,"ì§Ģê°Ģ":5205,"cher":5206,"nel":5207,"Ġperformance":5208,"ìŀĪëĭ¤":5209,"ĠBur":5210,"ëĳ¥":5211,"ĠEv":5212,"rant":5213,"Ġsignificant":5214,"Ġ1963":5215,"ift":5216,"ķħ":5217,"ĠCast":5218,"mpire":5219,"Ġê³µìĹ°":5220,"ì²łëıĦ":5221,"ĠSqu":5222,"ĠFin":5223,"ìĦłê±°":5224,"ĠëĮĢêµ¬":5225,"Ġì´¬ìĺģ":5226,"ĠOf":5227,"ìĬ¤íĤ¤":5228,"ees":5229,"ras":5230,"ĠStar":5231,"Ġëĭ¨ì²´":5232,"1993":5233,"Ġì·¨ìŀĦ":5234,"Ġå":5235,"gy":5236,"íĬ¸ë¦¬":5237,"ëĵľìĿĺ":5238,"íĵ¨íĦ°":5239,"Ġabove":5240,"atal":5241,"ëįľ":5242,"Ġaud":5243,"ĠìĻ¸êµŃìĿ¸":5244,"uture":5245,"Ġê°ľìĿ¸":5246,"æĪ":5247,"Ġìłķì±ħ":5248,"ĠìĬ¤íı¬ì¸ł":5249,"ìĹĨ":5250,"ola":5251,"ĠìĪĺíĸī":5252,"ë¨¼íĬ¸":5253,"ë§Īëĭ¤":5254,"ì¥Ĳ":5255,"ĠëıĻìĭľìĹĲ":5256,"Ġreb":5257,"Ġmount":5258,"Ġê¸°ê´Ģ":5259,"Äģ":5260,"ì§Ģë°©":5261,"ëĮĢê°Ģ":5262,"ĠÂ":5263,"ĠìłľìĻ¸":5264,"Ġill":5265,"Ð¾":5266,"za":5267,"Ġdou":5268,"Ġtraining":5269,"ê³Ħë¥¼":5270,"1980":5271,"Ġ500":5272,"Ġsubsequ":5273,"Ġusually":5274,"icy":5275,"ĠìķĦëĭĮ":5276,"Ġê¸°ê°Ħ":5277,"éķ":5278,"ĠForce":5279,"íģ¬ë¡ľ":5280,"ì£¼ìĭľ":5281,"ç¾":5282,"Ġfoc":5283,"Ġdesigned":5284,"Ġ1940":5285,"Ġcivil":5286,"ì¹ĺë¥¼":5287,"ien":5288,"urity":5289,"Ġboard":5290,"ĠìĹ°íķ©":5291,"Ġget":5292,"Ġmedal":5293,"Ġwinn":5294,"Ġsinger":5295,"ì¹¼":5296,"ìĬ¤íħĮ":5297,"ĠBrown":5298,"90":5299,"ĠëĦĪ":5300,"ĠGames":5301,"Ġê³łëĵ±íķĻêµĲ":5302,");":5303,"ĠíĮĲë§¤":5304,"Ġíĩ´":5305,"ì§Ģë¡ľ":5306,"ĠìļĶêµ¬":5307,"Ph":5308,"Ġtreat":5309,"ìłķë¶Ģ":5310,"ĠìłķëıĦ":5311,"Ġìĭ¸":5312,"inct":5313,"Ġer":5314,"utch":5315,"Ġleading":5316,"Ġë§Įëĵł":5317,"arter":5318,"ersey":5319,"ĠìĤ¬ìĿ´ìĹĲ":5320,"yr":5321,"Ġtransfer":5322,"//":5323,"ulated":5324,"Ġcourt":5325,"ëĮĢíļĮ":5326,"Ġì¹ľêµ¬":5327,"ufact":5328,"lam":5329,"Ġê³Ħìķ½":5330,"Ġëªħì¹Ń":5331,"ura":5332,"Ġroute":5333,"ìª½ìľ¼ë¡ľ":5334,"ĠGre":5335,"uns":5336,"ĠëıĦìŀħ":5337,"Ġinvolved":5338,"65":5339,"Ġpos":5340,"medi":5341,"íĭ±":5342,"ĠìĤ°ìĹħ":5343,"Ġupon":5344,"Ġprivate":5345,"ìĽĲìľ¼ë¡ľ":5346,"ĠChicago":5347,"ĠDirect":5348,"ĠìĿĺíķľ":5349,"IS":5350,"read":5351,"Ġê°Ģì§Ħ":5352,"ĠHenry":5353,"ĠParis":5354,"ĠTour":5355,"ëĵľë¡ľ":5356,"ĠìĭľìŀĳíĸĪëĭ¤":5357,"ĠMus":5358,"Ġíģ¬ë¦¬ìĬ¤":5359,"ĠHistor":5360,"zil":5361,"Ġrange":5362,"Ġcompos":5363,"ĠOlympics":5364,"Ġê³µê°Ħ":5365,"ĠAngeles":5366,"Ind":5367,"iÄ":5368,"ĠJust":5369,"ving":5370,"ë¦°ëĭ¤":5371,"ĠGeorg":5372,"Ġì§Ģê¸Ī":5373,"Ġbasketball":5374,"ëłĪìĿ¼":5375,"Ġser":5376,"ĠìĿ¼ìľ¼":5377,"Ġì§Ģêµ¬":5378,"ita":5379,"Ġê¸°ë³¸":5380,"ìłķë³´":5381,"ĠTer":5382,"Ġstudy":5383,"Ġrights":5384,"Ġclos":5385,"Ġê°Ģì¡±":5386,"ĠMass":5387,"Rec":5388,"78":5389,"ĠClass":5390,"Ġfinished":5391,"Ġë§Ŀ":5392,"ĠDel":5393,"ĠìĥģëĮĢ":5394,"Ġscored":5395,"ìĤ¬ì¹´":5396,"Ð¸":5397,"Ġriver":5398,"Ad":5399,"Ġchange":5400,"ĠSome":5401,"ĠìĿ¸ê°Ħ":5402,"ĠAnn":5403,"face":5404,"AN":5405,"ĠíĬ¹ì§ķ":5406,"',":5407,"Ġ1962":5408,"ëĵľë¦¬":5409,"ìĹ¬ìŀĲ":5410,"OS":5411,"Ġable":5412,"ĠStev":5413,"ĠMr":5414,"Ġì°¨ëŁī":5415,"Ġsem":5416,"rought":5417,"Ġadded":5418,"ìĬ¤íĭ°":5419,"List":5420,"Ġmean":5421,"ë¥¸ëĭ¤":5422,"ìĨĮëħĦ":5423,"ìĤ¬ìĻĢ":5424,"icated":5425,"uke":5426,"la":5427,"ĠFlorida":5428,"Ġìļ°ì£¼":5429,"ĠWales":5430,"Ġ1930":5431,"igan":5432,"mercial":5433,"ĠãĢİ":5434,"Ġcollege":5435,"Ġgold":5436,"ìłĦìĹĲìĦľ":5437,"ylvania":5438,"Ġê°ľêµĲ":5439,"idge":5440,"ì½©":5441,"Ġclose":5442,"Ġê¸°ëħĲ":5443,"ìĽħ":5444,"ëĲĺë©°":5445,"fic":5446,"ìĿ´ë¥¼":5447,"asing":5448,"hold":5449,"Ġhealth":5450,"1991":5451,"lim":5452,"Ġê·¸ê°Ģ":5453,"well":5454,"Ġë°ĺëĮĢ":5455,"Ġë¹Ħë¡¯":5456,"ĠMinister":5457,"ãĥ»":5458,"ìļĶìĿ¼":5459,"Ġchampionship":5460,"ĠíĻĺê²½":5461,"íĬ¼":5462,"Ġíģ¬ê²Į":5463,"ĠSaint":5464,"ìłľìĿĺ":5465,"ãĢĭ,":5466,"Ġnight":5467,"Ġrespons":5468,"Ġjud":5469,"Ġ+":5470,"ilver":5471,"English":5472,"íķĺëĿ¼":5473,"Ġíĺģ":5474,"Ġneigh":5475,"Ġpur":5476,"ĠìŀĪëĬĶëį°":5477,"Ġcenter":5478,"Ġrank":5479,"Ġrailway":5480,"Ġë¿Ĳ":5481,"min":5482,"aying":5483,"ĠìĹ°ìĨį":5484,"ĠìĹŃìĭľ":5485,"Ġpolitician":5486,"ìĽĲìĿĢ":5487,"stant":5488,"rup":5489,"Ġsex":5490,"Ġactress":5491,"ĠìĶ":5492,"ìŀĦìĿĦ":5493,"rial":5494,"ella":5495,"Ġleast":5496,"Ġwhite":5497,"ises":5498,"ires":5499,"arily":5500,"sel":5501,"ëĲĺë©´ìĦľ":5502,"cm":5503,"Ġìĭ¤ìĭľ":5504,"ĠìĦ¤ëªħ":5505,"MBC":5506,"gen":5507,"ender":5508,"Ġjournal":5509,"ĠMa":5510,"ĠRh":5511,"AS":5512,"De":5513,"oute":5514,"Ġwriter":5515,"ero":5516,"Ġstates":5517,"Ġfemale":5518,"ĠMod":5519,"ĠMur":5520,"Ġë¯¼ì¡±":5521,"ë¬ĺ":5522,"Ġbirth":5523,"Ġconv":5524,"oper":5525,"ìĿ¼ê¹Įì§Ģ":5526,"Early":5527,"EC":5528,"ĠMil":5529,"ìĨĮë¥¼":5530,"Ġëį°ìĿ´íĦ°":5531,"eleb":5532,"ĠColumb":5533,"Ġdiscover":5534,"ĠPublic":5535,"çĽ":5536,"ctor":5537,"Ġê°ľìĿĺ":5538,"ams":5539,"Ġìĺ¥":5540,"Ġprovided":5541,"Ġ32":5542,"board":5543,"sych":5544,"Ġste":5545,"ulations":5546,"íĬ¸ìĿĺ":5547,"ply":5548,"umm":5549,"Ġvia":5550,"íĤ¹":5551,"42":5552,"ĠOper":5553,"ĠìĹŃíķłìĿĦ":5554,"Ġsen":5555,"Ġsaw":5556,"Ġê·¸ëŀĺ":5557,"Ġartists":5558,"stra":5559,"ĠWhile":5560,"stitution":5561,"Ġìĸ´ëĸ¤":5562,"erve":5563,"ĠKh":5564,"Ġcop":5565,"ëĿ¼ìĿ¸":5566,"utt":5567,"ĠIll":5568,"Ġbi":5569,"ë©Ķë¦¬ì¹´":5570,"Ġíİ¸ìĦ±":5571,"íĹ¨":5572,"iano":5573,"ensus":5574,"eated":5575,"Ġsection":5576,"Ġlearn":5577,"æĹ":5578,"Ġhit":5579,"å¸":5580,"Ġê²¬":5581,"41":5582,"ë¬¸ìĿĦ":5583,"enth":5584,"istics":5585,"ometimes":5586,"Ġi":5587,"org":5588,"ĠOld":5589,"Ġparts":5590,"ìĦłìĿĺ":5591,"Ġìľ¡êµ°":5592,"Le":5593,"Ġexpress":5594,"Ġking":5595,"Ġmanager":5596,"Ġsch":5597,"Ġlower":5598,"ĠìĪĺë¡Ŀ":5599,"Ġë§Ĳíķľëĭ¤":5600,"Ġmedia":5601,"ends":5602,"ĠPre":5603,"Ġarg":5604,"ĠëĲĺìĹĪ":5605,"Ġ45":5606,"Ġawarded":5607,"key":5608,"ëĤĺìĿĺ":5609,"ìŀ¥ìĹĲ":5610,"Ġì´Īê¸°":5611,"ì¦ĺ":5612,"ĠìŀĪëĭ¤ê³ł":5613,"ĠìłĦê¸°":5614,"Ã¨":5615,"Ġearn":5616,"ĠItaly":5617,"¢°":5618,"Ġtravel":5619,"ì¹ł":5620,"Ġì°©":5621,"Ġqual":5622,"iences":5623,"pts":5624,"95":5625,"Ġcountries":5626,"Ġë©¤ë²Ħ":5627,"ĠAtl":5628,"Ġaircraft":5629,"ì£¼ìĹ°":5630,"ĠCarl":5631,"Ġë¹ĦíĮĲ":5632,"1989":5633,"Bl":5634,"ario":5635,"Ġcy":5636,"Ġinterest":5637,"eds":5638,"ĠìĤ¬ê³ł":5639,"ĠìĿ¸ì²ľ":5640,"Ġë³´íĺ¸":5641,"ì§ĢìĹŃ":5642,"wa":5643,"ongs":5644,"ĠOther":5645,"ĠìĬ¤ìľĦ":5646,"ìłĿ":5647,"ĠìĨĮëł¨":5648,"ìĤ¬ìĹħ":5649,"Ġwriters":5650,"ption":5651,"cient":5652,"den":5653,"ask":5654,"Ġaccom":5655,"iana":5656,"Ġtrib":5657,"ê°ĳ":5658,"ĠìĹ°ì£¼":5659,"Ġì¦Ŀê°Ģ":5660,"ye":5661,"ë¶ĢëĬĶ":5662,"ĠArts":5663,"ì²´ìĿĺ":5664,"urt":5665,"porary":5666,"Ġtype":5667,"ĠìĹ°ê·¹":5668,"Ġaction":5669,"Ġìµľì´ĪìĿĺ":5670,"ĠMexico":5671,"ìĺ¤ì¹´":5672,"ĠNorthern":5673,"ils":5674,"ĠëĨĵ":5675,"sylvania":5676,"Ġreached":5677,"Ġêµ¬ìĹŃ":5678,"Ġ1961":5679,"æ³":5680,"66":5681,"Ġíĥĳ":5682,"ĠìĹ°ë°©":5683,"ëħ¼":5684,"Ġchanged":5685,"ĠPan":5686,"par":5687,"Ġtax":5688,"Ġíļį":5689,"ĠJim":5690,"ĠìĭľìĦ¤":5691,"Ġoutside":5692,"Ġcentral":5693,"ë¥´ê²Į":5694,"ê¸°ìĪł":5695,"Ġê°ľíĨµ":5696,"ros":5697,"Ġì²ĺìĿĮìľ¼ë¡ľ":5698,"Ġfav":5699,"ĠIrish":5700,"IA":5701,"ìŀĶ":5702,"ĠìŀĪìĿĦ":5703,"ĠìºĲëĤĺëĭ¤":5704,"ĠAv":5705,"John":5706,"ĠService":5707,"with":5708,"Ġprimary":5709,"ultural":5710,"éĿ":5711,"ĠIm":5712,"Ġknow":5713,"ë¦¬ìķĦìĿĺ":5714,"ĠëĿ¼ëĶĶìĺ¤":5715,"Ġfig":5716,"bl":5717,"Ġspace":5718,"Ġdram":5719,"Ġëĭ´ëĭ¹":5720,"ë¦ī":5721,"ĠScience":5722,"ider":5723,"ĠSummer":5724,"Ġstaff":5725,"ĠìĤ¬ë¬´":5726,"Ġ1944":5727,"bur":5728,"ĠChinese":5729,"Ġê¸°ì¡´":5730,"Ġgr":5731,"ë£¨ìĬ¤":5732,"ĠDemocr":5733,"ëįľëŀĢëĵľ":5734,"ë¦¬ìĻĢ":5735,"Ġoccup":5736,"ension":5737,"43":5738,"://":5739,"ua":5740,"ì¤ĳìĹĲ":5741,"Ġ1920":5742,"ĠìĬĪíį¼":5743,"Ġinstead":5744,"ette":5745,"ĠíŀĪë¡ľ":5746,"1988":5747,"Ġactor":5748,"êµŃë¯¼":5749,"Ġche":5750,"ìĤ¬ìĿ´":5751,"ĠëĵĿ":5752,"ĠìĽĲëŀĺ":5753,"ĠìĨĮíĶĦíĬ¸":5754,"ĠTwo":5755,"98":5756,"There":5757,"ì£¼ëĬĶ":5758,"Ġarchitect":5759,"Ġwant":5760,"Ġcurrently":5761,"ength":5762,"ëĭī":5763,"ĠTechn":5764,"ìŀ¥ìĹĲìĦľ":5765,"Ġplant":5766,"Ġdistrib":5767,"ĠSir":5768,"ëĮĢëĬĶ":5769,"ĠíĮ¬":5770,"Ġmultip":5771,"ĠOut":5772,"reme":5773,"known":5774,"ĠWood":5775,"gcolor":5776,"ĠIII":5777,"ĠâĨĴ":5778,"ìĸ´ëĬĶ":5779,"ĠEr":5780,"ĠCommission":5781,"ë¦¬íķĻ":5782,"ìĬ¤ì¹´":5783,"ĠSwed":5784,"ĠíĸīëıĻ":5785,"ë¬¼ìĿĦ":5786,"Ġoccur":5787,"ë°į":5788,"ĠMill":5789,"ĠSeries":5790,"ëĺĲ":5791,"Ġê¶ģ":5792,"Åį":5793,"ĠĠĠ":5794,"Ġ1948":5795,"Ġrespect":5796,"ìĿ¼ëŀľëĵľ":5797,"Ġpolice":5798,"ĠíĶ¼íķ´":5799,"hab":5800,"Ã³n":5801,"ë²łìĿ´":5802,"76":5803,"Ġcritic":5804,"Am":5805,"like":5806,"ĠLife":5807,"íĻĶê°Ģ":5808,"Ġíģ´ëŁ½":5809,"ìĬ¤íİĺ":5810,"íĺĶëĭ¤":5811,"Ġmur":5812,"Ġì¢ħêµĲ":5813,"Ġê±°ì³Ĳ":5814,"Ġmass":5815,"ë¡Ń":5816,"Notes":5817,"Ġsouthern":5818,"ĠCongress":5819,"Ġgirl":5820,"Ġfootballers":5821,"Ġrelationship":5822,"Ġproducer":5823,"ĠUEFA":5824,"ĠArab":5825,"íĺĦìŀ¬":5826,"idae":5827,"ëª½":5828,"Ġmethod":5829,"owers":5830,"ĠìĹ¼":5831,"Ġdeal":5832,"ìłł":5833,"venue":5834,"Ġê²½ê¸°ìĹĲìĦľ":5835,"Ġíĺ¹ìĿĢ":5836,"Ġìłģìļ©":5837,"ìĦľê´Ģ":5838,"oke":5839,"antic":5840,"ê²©ìĿĦ":5841,"Ġpot":5842,"åŁ":5843,"ĠIts":5844,"Ġclosed":5845,"RA":5846,"oring":5847,"ĠìµľëĮĢ":5848,"ĠOff":5849,"Ġrather":5850,"lements":5851,"Ġfall":5852,"Ġbrought":5853,"Ġfrequ":5854,"íĬ¸ë¥¼":5855,"ãģ®":5856,"Ġdocument":5857,"ìĿ´ìĹĪëįĺ":5858,"íĤ¬":5859,"Ġì¤ĳíĻĶ":5860,"Ġachie":5861,"During":5862,"usp":5863,"ĠUp":5864,"ìĬ¤íĨł":5865,"ĠHow":5866,"rim":5867,"ecially":5868,"ĠìłĦíĨµ":5869,"ê°Ķëĭ¤":5870,"Ġpred":5871,"Ĳë¦¬":5872,"ĠìŀĳìĹħ":5873,"ç¥":5874,"Ġloss":5875,"band":5876,"ulture":5877,"Ġì¹¸":5878,"Ġ80":5879,"Ġapprox":5880,"Ġëĭ¬ë¦¬":5881,"ĠPennsylvania":5882,"ĠëĲł":5883,"Ġê±°ì£¼íķľ":5884,"Ġunits":5885,"Ġê³¼ê±°":5886,"ìķĦìĿ´":5887,"Ġfar":5888,"Ġhard":5889,"Ġwhose":5890,"VD":5891,"ĠëĤĺê°Ģ":5892,"ìħĢ":5893,"ĠJack":5894,"ëĤĺë¬´":5895,"ĠOh":5896,"Ġì§ĢëĤĺ":5897,"ìĿ¼íķľ":5898,"ato":5899,"íĸĪìľ¼ëĤĺ":5900,"ĠVirginia":5901,"ĠìĨĶ":5902,"Ġnetwork":5903,"ìĬ·":5904,"ĠSoviet":5905,"çİĭ":5906,"Ġstre":5907,"Ġalmost":5908,"ìłķìĿĺ":5909,"ĠSpec":5910,"Ġimm":5911,"Ġesp":5912,"íķĺëĬĶëį°":5913,"ĠSk":5914,"77":5915,"ìĪĺë¡ľ":5916,"ients":5917,"ID":5918,"Ġë¯¸ìĪł":5919,"Ġë²łìĿ´":5920,"Ġresults":5921,"uments":5922,"ë¢°":5923,"ĠOl":5924,"Ġë°Ķë¡ľ":5925,"ĠInc":5926,"ĠìĹ´ì°¨":5927,"Ġplaces":5928,"ìłķíķľ":5929,"Ġbass":5930,"ĠEmpire":5931,"Ġmusical":5932,"ëĵľë¥¼":5933,"58":5934,"Ġíķľíİ¸":5935,"ĠDi":5936,"Ġpers":5937,"Ġdecided":5938,"ĠAp":5939,"ĠëĤĺë":5940,"Ġrate":5941,"Ġtourn":5942,"ĠSur":5943,")\"":5944,"ìĬ¤íĦ´":5945,"Ġ70":5946,"Ġìĺ®":5947,"Ġhigher":5948,"íĮĶ":5949,"Ġ1956":5950,"ĠíĴĢ":5951,"ëĿ¼ìĬ¤":5952,"Ġesc":5953,"ingu":5954,"Ġdata":5955,"Ġplaced":5956,"ĠíĻķìĿ¸":5957,"Ġprovide":5958,"æ²":5959,"Ġisland":5960,"êµĲíĨµ":5961,"icro":5962,"uts":5963,"Ġstated":5964,"Ġ1955":5965,"ription":5966,"Ġprison":5967,"ĠìļĶìĭľ":5968,"Ġnorthern":5969,"Ġ1946":5970,"ìĩĦ":5971,"æĽ":5972,"Ġitself":5973,"Ġì¶©ì²Ń":5974,"Ġaccept":5975,"ĠìĦłíĥĿ":5976,"ĠêµŃëĤ´":5977,"Ġì»¨":5978,"based":5979,"Ġtransport":5980,"Ġreve":5981,"Ġpossible":5982,"gl":5983,"Ġsuper":5984,"Ġpoet":5985,"1987":5986,"68":5987,"oid":5988,"ĠJersey":5989,"Ġpurch":5990,"íĬ¸ëĤ¨":5991,"ĠìĿ´ìĤ¬":5992,"Ġcreat":5993,"Ġìķ¡":5994,"ĠFestival":5995,"ë®¤":5996,"ĠDen":5997,"ìħľ":5998,"ĠFre":5999,"ĠìĿ´ìķ¼ê¸°":6000,"Ġ1958":6001,"Ġveh":6002,"ĠBig":6003,"ĠMartin":6004,"embly":6005,"azz":6006,"ìī¬":6007,"ĠTimes":6008,"Ġprincip":6009,"ental":6010,"clus":6011,"Ġíĥľìĸ´ëĤ¬ëĭ¤":6012,"Ġwinning":6013,"Ġ1959":6014,"Ġedition":6015,"Ġë§ĪìĿĮ":6016,"ëĭ¹ìĿĺ":6017,"ë¥´ê³ł":6018,"eff":6019,"ĠGreek":6020,"Con":6021,"Ġcoast":6022,"ìĪĺëĬĶ":6023,"ĠHon":6024,"Ġmanufact":6025,"ati":6026,"ĠìĹ°ê¸°":6027,"ì£¼ìļĶ":6028,"Ġwind":6029,"Can":6030,"ĠìĿ¼ë°ĺìłģìľ¼ë¡ľ":6031,"Ġlik":6032,"ìĦ±ìĿĢ":6033,"Ġë©Ķëĭ¬ë¦¬ìĬ¤íĬ¸":6034,"íĢ":6035,"íķĺê±°ëĤĺ":6036,"íķĺìĿ´":6037,"oses":6038,"Ġë¹ĦìĬ·":6039,"Ġgoals":6040,"Ġsystems":6041,"ĠBattle":6042,"Ġplann":6043,"iro":6044,"Ġë¶Ģë¬¸":6045,"orse":6046,"ounter":6047,"IC":6048,"ìĦłìĿĦ":6049,"Ġforce":6050,"ĠêµŃë¦½":6051,"Ġì§Ģíľĺ":6052,"illa":6053,"BO":6054,"ëªħìĿĢ":6055,"asion":6056,"wer":6057,"ìŀĲì¹ĺ":6058,"isco":6059,"ollowing":6060,"ca":6061,"êµ°ìĿĦ":6062,"Ġsingles":6063,"ĠìľĦíķĺìĹ¬":6064,"change":6065,"Ġbgcolor":6066,"Ġbank":6067,"Ġcompetition":6068,"Ġíķĺë©°":6069,"Ġruns":6070,"ëĵ¬":6071,"ĠìĦ¤ë¦½ëĲľ":6072,"Ġculture":6073,"ĠInt":6074,"ìĦľë¥¼":6075,"ĠìĨĮìŀ¬ë¡ľ":6076,"Ġê¸°ëıħêµĲ":6077,"Ġstop":6078,"anced":6079,"Ġcou":6080,"Ġìĵ":6081,"ĠìĪĻ":6082,"ĠRadio":6083,"Ġëĵ±ìŀ¥ìĿ¸ë¬¼":6084,"ibl":6085,"ĠìķĦìĭľìķĪ":6086,"ëª°":6087,"ĠBre":6088,"ĠíķĺìĺĢ":6089,"64":6090,"kins":6091,"ë£¬":6092,"100":6093,"Ġpreviously":6094,"Ġê°ĳ":6095,"ĠEducation":6096,"orpor":6097,"Ġcred":6098,"500":6099,"ulty":6100,"overs":6101,"ĠNews":6102,"ìłģìĿĦ":6103,"Ġë°ĽìĿĢ":6104,"itiz":6105,"Ġfarm":6106,"Ġpaint":6107,"Ġregard":6108,"uals":6109,"ìĦ¸ê³Ħ":6110,"ened":6111,"ĠSystem":6112,"Ġoperations":6113,"Ġartist":6114,"ĠìĹŃìŀĦ":6115,"ë¦¬ë¡ľ":6116,"ĠCarolina":6117,"Ġë³´íĨµ":6118,"amily":6119,"All":6120,"ĬìĿĢ":6121,"elled":6122,"Ġì»´íĵ¨íĦ°":6123,"ì²´ë¥¼":6124,"Ġfourth":6125,"Ġì¶Ķìłķ":6126,"Ġì°¾ìķĦ":6127,"Ġíļ¨ê³¼":6128,"Ġìµľì¢ħ":6129,"Ġscience":6130,"ĠAccording":6131,"ĠëĲĺê³ł":6132,"ĠìĹĨìĿ´":6133,"ĠSa":6134,"Ġterrit":6135,"ĠLand":6136,"ĠValley":6137,"ìĦŃ":6138,"Ġminor":6139,"alled":6140,"Ġmeas":6141,"Ġ1941":6142,"ĠëĤĻ":6143,"ĠAre":6144,"ĠBob":6145,"Ġ38":6146,"ĠÎ":6147,"ĠFound":6148,"ĠFCìĿĺ":6149,"ĠìĺĪìĪł":6150,"ĠHot":6151,"Ġë°¤":6152,"íĺĪ":6153,"Ġever":6154,"ĠBus":6155,"íİľ":6156,"ĠìĤ¬ìĥģ":6157,"ìķĦìĭľìķĦ":6158,"mond":6159,"Ġbattle":6160,"ĠíļįëĵĿ":6161,"oir":6162,"alc":6163,"íĻĶêµŃìĿĺ":6164,"1970":6165,"ĠìĺģíĻĶìĿ´ëĭ¤":6166,"ìĿ´ê¸°ëıĦ":6167,"Ġìŀīê¸Ģëŀľëĵľ":6168,"ru":6169,"ëĿ¼ìĿĺ":6170,"Ġbehind":6171,"Ġë°©íĸ¥":6172,"Ġallowed":6173,"Ġadditional":6174,"iÄĩ":6175,"ĠGovernment":6176,"Te":6177,"éĽ":6178,"inary":6179,"ĺë¦¬":6180,"imb":6181,"ëľ":6182,"ê¸°íĥĢ":6183,"ĠìĬ¹ê°ķ":6184,"ìľĪ":6185,"add":6186,"hire":6187,"net":6188,"Ġgrand":6189,"Ġnewsp":6190,"ums":6191,"Other":6192,"ĠEc":6193,"ĠBBC":6194,"unior":6195,"ecess":6196,"Ġëįķ":6197,"Ġ1949":6198,"Ġball":6199,"ìĺĪìĪł":6200,"Ġowned":6201,"Ġbreak":6202,"shire":6203,"Col":6204,"ê²Ĳ":6205,"Ġbeginning":6206,"Ġdestroy":6207,"ĠFort":6208,"ĠSer":6209,"iety":6210,"ê´Ģë¦¬":6211,"Ġexcept":6212,"Ġmagazine":6213,"Ġë¹ĦêµĲ":6214,"ĠAwards":6215,"íļĮë¥¼":6216,"Ġ1954":6217,"ë¦ŃíĦ°":6218,"Ġneg":6219,"Ġunit":6220,"Ġ?":6221,"Ġê³µíķŃ":6222,"ĠParliament":6223,"Ġìļ°ë¦¬":6224,"Ġì§Ģë°°":6225,"ìľĦë¡ľ":6226,"Person":6227,"ĠíķĺìĿ´":6228,"Ġìī":6229,"Ġcapital":6230,"ĠYoung":6231,"Ġbur":6232,"Ġdefeated":6233,"gent":6234,"ìķ¤":6235,"1986":6236,"Ġcollect":6237,"ĠBrazil":6238,"Ġstudio":6239,"Ġmovement":6240,"Ġ36":6241,"Â°":6242,"íķĻìłģ":6243,"Ġ1947":6244,"Ġë¶Ħìķ¼":6245,"ĠSo":6246,"ĠSpain":6247,"Ġended":6248,"Ġíĳľì¤Ģ":6249,"ìľµ":6250,"Ġdefeat":6251,"Ġmeans":6252,"isions":6253,"ìĭľì½Ķ":6254,"ìłķìĿ´":6255,"Ġreading":6256,"ìļ°ìĬ¹":6257,"Ġsummer":6258,"Ġê·ľëª¨":6259,"Ġë©ĶìĿ´":6260,"echan":6261,"ìĸ´ê°Ģ":6262,"Ġë¨¼":6263,"ricket":6264,"Ġë¯¸êµŃìĿ¸":6265,"ìĭľì¦Į":6266,"ĠJoseph":6267,"íĨ¨ë¦Ń":6268,"Ġ1957":6269,"Ġëī´ìļķ":6270,"ĠLong":6271,"ĠëĮĢì²´":6272,"ëŀ«":6273,"ĠBook":6274,"ëĭ¤ê³ł":6275,"people":6276,"ora":6277,"het":6278,"ĠPac":6279,"Ġëª¨ìĸĳ":6280,"Ġtoo":6281,"Ġ90":6282,"Ġdivision":6283,"ĠëıĻë¬¼":6284,"ìĭľëĮĢ":6285,"ĠHaw":6286,"ii":6287,"Ġìłķëĭ¹":6288,"andid":6289,"ĠìŀĪëĭ¤ëĬĶ":6290,"ê¾¸":6291,"ë©Ķëĭ¬":6292,"æĸĩ":6293,"ĠìĹ¬ê°Ŀ":6294,"ĠNavy":6295,"ĠìŀĪì§Ģë§Į":6296,"ulf":6297,"action":6298,"Ġden":6299,"ĠíĿĶ":6300,"Ġremov":6301,"bury":6302,"íĺĳíļĮ":6303,"ĠìľĪ":6304,"æµ":6305,"Ġfif":6306,"bon":6307,"ĠìĿ´ëģĮ":6308,"íķĺìĺĢìľ¼ëĤĺ":6309,"atriate":6310,"Ġbase":6311,"ĠDou":6312,"Ġstructure":6313,"MA":6314,"ĠíĽĦë°ĺ":6315,"Ġsoon":6316,"Ġhockey":6317,"aled":6318,"Ġquest":6319,"ì§ĢíĦ¸":6320,"ìľ¼ë©´":6321,"asy":6322,"attal":6323,"ìĿĺë¥¼":6324,"ë²łë¥´":6325,"æĻ":6326,"Ġseasons":6327,"ĠPo":6328,"lying":6329,"ĠìŀĲê¸°":6330,"Ðµ":6331,"êµŃê°Ģ":6332,"Ġcome":6333,"íĺ¸ë¥¼":6334,"Ġceleb":6335,"ao":6336,"ëıĦìĹĲ":6337,"Ġë§Īë¥´":6338,"ä¸Ń":6339,"ĠMost":6340,"Ġ1942":6341,"Ġwhom":6342,"ëĮĢìĥģ":6343,"Ġespecially":6344,"ëĤĺê°Ģ":6345,"ë©ĶìĿ´":6346,"Ġdu":6347,"Ġself":6348,"ëħĦìĿĺ":6349,"ĠDef":6350,"Ġ1943":6351,"~)":6352,"ĠìĬ¤íİĺìĿ¸":6353,"Ġdegree":6354,"Ġcommercial":6355,"ĠíĶĦë¡ľìłĿ":6356,"Ġleader":6357,"ĠOx":6358,"ĠíĿĳ":6359,"irit":6360,"Ġ1952":6361,"Ġaccording":6362,"Ġë°ĸ":6363,"Ġben":6364,"ê²½ìłľ":6365,"atform":6366,"areer":6367,"ĠDev":6368,"Ġindustry":6369,"Ġlittle":6370,"ĠSun":6371,"ìĭľì¼°ëĭ¤":6372,"Ġëª½":6373,"Mar":6374,"pped":6375,"ĠSub":6376,"ĠìĿ´ìĥģìĿĺ":6377,"ìĤ¬íĤ¤":6378,"Ġactive":6379,"ĠìķĦìĭľìķĦ":6380,"ĠëĮĢíķĺìĹ¬":6381,"Ġkeep":6382,"79":6383,"ĠLine":6384,"US":6385,"Ġsurround":6386,"Ġlook":6387,"ĠRos":6388,"Ġnames":6389,"ãĥ¼":6390,"Ġcomplet":6391,"ancial":6392,"Ġprem":6393,"ĠTro":6394,"Ġnomin":6395,"rang":6396,"Ġindependent":6397,"Ġliving":6398,"ĠRoute":6399,"anda":6400,"CD":6401,"Ġë³´ëĤ´":6402,"Ġì§Ģì§Ģ":6403,"Ġattended":6404,"ĠMin":6405,"uffer":6406,"ĠTri":6407,"ĠFr":6408,"Ġë°©ìĺģ":6409,"ĠHel":6410,"ìłķìĹĲ":6411,"Ġsometimes":6412,"Ġlocation":6413,"1984":6414,"ëĮĢìłĦ":6415,"Ġë¶Ħë¦¬":6416,"Ġtraditional":6417,"Ġcollection":6418,"Ġshot":6419,"Ġnatural":6420,"ĠScotland":6421,"ê²łëĭ¤":6422,"Ġobserv":6423,"win":6424,"ĠPak":6425,"Ġwriting":6426,"Ġcertain":6427,"rief":6428,"ĠìŀĶ":6429,"Ġì¡°ìĤ¬":6430,"Films":6431,"Ġì¶ľíĮĲ":6432,"Ġìĥģëĭ¹":6433,"¶¤":6434,"alle":6435,"Ġê°ľëħĲ":6436,"Ġì¡°ì§Ģ":6437,"Ġstandard":6438,"ĠìĦłë°ľ":6439,"ĠWeb":6440,"Ġì£¼ìĿ¸":6441,"1985":6442,"Ġcentre":6443,"Ġphil":6444,"ëĿ¼ëıĦ":6445,"Ġuses":6446,"Ġìĸ¸ê¸ī":6447,"awa":6448,"Ġ1953":6449,"ĠTime":6450,"Ġcomplex":6451,"ìĽĮëĵľ":6452,"Ġfood":6453,"ĠëŁ°":6454,"Ġthus":6455,"88":6456,"ëĿ¼ìļ´ëĵľ":6457,"Ġorganization":6458,"ĠìľłëĭĪ":6459,"Ġinsp":6460,"Ġwood":6461,"adel":6462,"Ġlet":6463,"ko":6464,"Ġtowards":6465,"Ġpay":6466,"ìĿ¸ë¯¼ê³µíĻĶêµŃ":6467,"ìĽ¨ìĿ´":6468,"ì¡°ìĿĺ":6469,"ĠìĿ´ìłģ":6470,"ìķĦìĿĺ":6471,"ĠBul":6472,"íŀĮ":6473,"Ġschol":6474,"Ġorganiz":6475,"Ġê¸°ì¤Ģìľ¼ë¡ľ":6476,"ë¶Ģë¥´íģ¬":6477,"irt":6478,"ìĽĥ":6479,"ĠëªħìĿĺ":6480,"ĠNY":6481,"ĠìĪĺìĥģìŀĲ":6482,"êµ°ìĹĲ":6483,"arr":6484,"uty":6485,"arent":6486,"ĠSol":6487,"ë¯¼ì£¼ì£¼ìĿĺ":6488,"ĠFred":6489,"å¿":6490,"ĠìĹ¬ê¸°":6491,"ĠìĤ¬ì§Ħ":6492,"Ġge":6493,"ken":6494,"Ġìĭ¤íĮ¨":6495,"ë°°ìļ°":6496,")Â·":6497,"ì§ĢìĽĲ":6498,"arden":6499,"ĠBC":6500,"ĠOver":6501,"Ġstudent":6502,"Ġscient":6503,"Ġíķ´ìĻ¸":6504,"mark":6505,"ibility":6506,"Ġëĸ¨ìĸ´":6507,"ĠGra":6508,"ĠíĢ":6509,"ê³¼ëĬĶ":6510,"ë¥´íĪ¬":6511,"ĠEngine":6512,"ĠMah":6513,"ĠëĦĵ":6514,"ali":6515,"Ġrequired":6516,"ĠêµĲíĻ©":6517,"Ġgenerally":6518,"retary":6519,"Ġcontains":6520,"êµĲíļĮ":6521,"ì¢ħìĿĺ":6522,"ready":6523,"êµŃìłľ":6524,"ĠAlthough":6525,"ìĹŃëĮĢ":6526,"ĠìŀĲìĭłìĿ´":6527,"Ġacadem":6528,"Ġì£¼ìĹ°":6529,"ĠíĹ¬":6530,"ìĤ¬ìĿ´íĬ¸":6531,"Ġìĸ´ëĬĲ":6532,"Ġbox":6533,"Ġë°ĺìĿĳ":6534,"ĠêµŃìłľê³µíķŃ":6535,"oral":6536,"osing":6537,"1983":6538,"ĠíĶĦë¡ľëĵĢ":6539,"Ġê·¸ë¥¼":6540,"ë¦¿":6541,"Ġdisp":6542,"ĠBroad":6543,"ĠStep":6544,"Ġlisted":6545,"ë±":6546,"ĠBlue":6547,"ìĿ´ì§Ģë§Į":6548,"Ġë¥ĺ":6549,"ĠëķĮë¬¸ìĿ´ëĭ¤":6550,"Ġfuture":6551,"Ġë°Ľìķĺ":6552,"Ġmove":6553,"Ġcanc":6554,"ëĭĪìĬ¤":6555,"Ġì¤ĳìĭ¬ìľ¼ë¡ľ":6556,"Ġê°Ģê¹Į":6557,"ĠLord":6558,"Ġspent":6559,"éĸ":6560,"CC":6561,"ĠSte":6562,"Ġë¡Ŀ":6563,"ĠBoard":6564,"Ġearlier":6565,"igg":6566,"ĠìĿµ":6567,"ë©¸":6568,"Ġhighest":6569,"Ġscreen":6570,"Ġ1939":6571,"59":6572,"ìĸ´ìĿĺ":6573,"ìĽ¨ëį´":6574,"Ġtrain":6575,"56":6576,"ĠCommittee":6577,"ĠDis":6578,"Ġë²ĦìłĦ":6579,"SP":6580,"ols":6581,"ëıĻìķĪ":6582,"ĠìĿ´ìĻĢ":6583,"wan":6584,"Ġmer":6585,"Ġpersonal":6586,"íļĮìĤ¬":6587,"ections":6588,"))":6589,"gar":6590,"íĥĳ":6591,"iant":6592,"Ġdeterm":6593,"state":6594,"oston":6595,"itors":6596,"ih":6597,"king":6598,"íĸĪëĭ¤ê³ł":6599,"ë²ĦíĬ¸":6600,"ĠThat":6601,"Ġdraw":6602,"57":6603,"rown":6604,"Ġappearance":6605,"Ġtaking":6606,"ĠìĿ´ê²ĥìĿĢ":6607,"Ġapproximately":6608,"ĠìĦ¸íı¬":6609,"Ð½":6610,"ĠTeam":6611,"ĠSouthern":6612,"Ġmission":6613,"Ġindic":6614,"éģĵ":6615,"Ġìĺ¤ëĬĺ":6616,"Ġlived":6617,"Ġê´ĳì£¼":6618,"OR":6619,"Å¡":6620,"ĠGar":6621,"ë¸":6622,"Ġì¢ħë£Į":6623,"Ġabs":6624,"Ġê´´":6625,"Ġrelated":6626,"HL":6627,"Ġìĭľë¯¼":6628,"Ġtext":6629,"ĠTheatre":6630,"ìĬ¤ì¼Ģ":6631,"ĠìºĲë¦ŃíĦ°":6632,"ìĦ±ê³¼":6633,"Ġë°Ķíĥķ":6634,"Ġëĥ":6635,"Ġelev":6636,"ify":6637,"Ġnews":6638,"ë¬´ë¥¼":6639,"Ġattract":6640,"Ġfamous":6641,"burgh":6642,"Ġmention":6643,"Ġindividual":6644,"Ġinvestig":6645,"ìĽĮíģ¬":6646,"ĠìĹĲëĦĪ":6647,"Ġìķ¼ë§Ī":6648,"ĠHa":6649,"ì²´ê°Ģ":6650,"ansas":6651,"SBS":6652,"ĠLee":6653,"abb":6654,"aring":6655,"Ġopening":6656,"Ġsoft":6657,"¿Ī":6658,"ĠMiddle":6659,"Ġë³ĢíĻĶ":6660,"ĠGirl":6661,"ĠìķĦì¹´":6662,"ĠAlb":6663,"ìĦłìĪĺ":6664,"ĠCross":6665,"Ã£":6666,"ĠìĿ´ëķĮ":6667,"Ġinterview":6668,"ĠNight":6669,"ëłµ":6670,"íĺĦìĿĺ":6671,"Ġrad":6672,"Se":6673,"ĠGood":6674,"ampion":6675,"ĠCamb":6676,"Ġìĺ¬ëĿ¼":6677,"ĠJud":6678,"ë¬´ëĿ¼":6679,"ĠëĤĺìĿ´":6680,"ìĽĢìĿĦ":6681,"æł":6682,"Ġforest":6683,"íĨłë¦¬":6684,"ĠìĿ´ë¥´":6685,"Ġfootballer":6686,"Ġran":6687,"Ġì¢ĭìĿĢ":6688,"Ġconcern":6689,"ìĿ´ì¹ĺ":6690,"ëĭ¨ìĿĦ":6691,"Ġlove":6692,"Ġarm":6693,"oe":6694,"Ġë°Ľê³ł":6695,"ë¬¸íķĻ":6696,"velopment":6697,"íĻĢ":6698,"adron":6699,"house":6700,"rying":6701,"ĠOhio":6702,"Ġsusp":6703,"vention":6704,"Ġë§¨":6705,"ĠRailway":6706,"Ġadop":6707,"ĠMatt":6708,"Ġrunning":6709,"Ġë°´ëĵľ":6710,"íĶĦë¦¬":6711,"Ġê³µíĻĶêµŃ":6712,"Ġ1951":6713,"=#":6714,"ĠMP":6715,"Ġmunicipal":6716,"ĠìłĦìŀĲ":6717,"IT":6718,"Ġê°Ģë¦¬":6719,"Ġì´ĪëĮĢ":6720,"ja":6721,"Ġì¢ĭìķĦ":6722,"yan":6723,"rich":6724,"ĠìĬ¤íħĮ":6725,"irm":6726,"ëıĦìļ°":6727,"ĠìĦľë¹ĦìĬ¤":6728,"åŃ¸":6729,"ĠGen":6730,"ĠBow":6731,"ĠSports":6732,"Ġvictory":6733,"ìĨįëıĦë¡ľ":6734,"Ġword":6735,"ìĨĶ":6736,"Ġarmy":6737,"ĠìĺĪìłķ":6738,"aine":6739,"67":6740,"ê¸°ìĻĢ":6741,"ĠìĨĮìľł":6742,"Ġë¶Īê°Ģ":6743,"ĠNot":6744,"ìŀĲë¦¬":6745,"Ġmoney":6746,"ë¹Ļ":6747,"ĠStr":6748,"Ã§":6749,"allery":6750,"Ġappears":6751,"ĠêµĲíļĮ":6752,"ysis":6753,"Ġremains":6754,"ĠìĺĽ":6755,"iled":6756,"arriage":6757,"ĠëĶĶìŀĲìĿ¸":6758,"ĠTem":6759,"Ġpractice":6760,"ĠJewish":6761,"Ġpen":6762,"Ġê°ľìĭľ":6763,"Ġ33":6764,"Ġcomplete":6765,"ny":6766,"Ġequip":6767,"Ġwoman":6768,"51":6769,"Ġë¶Ģì¡±":6770,"ë¸Ĳ":6771,"Ġíĥľìĸĳ":6772,"Ġì¡°ê±´":6773,"ĠëıĪ":6774,"Ġprograms":6775,"background":6776,"Ġprior":6777,"Ġissues":6778,"ë¯¼ì£¼ëĭ¹":6779,"Ġíıīê·ł":6780,"ĠRussia":6781,"Ġtracks":6782,"otion":6783,"ìłľëĬĶ":6784,"ĠTop":6785,"ĠBritain":6786,"ĠOpen":6787,"acher":6788,"umber":6789,"ìĿ´íĥĪë¦¬ìķĦ":6790,"1982":6791,"ĠJones":6792,"ĠConn":6793,"ds":6794,"ias":6795,"ĠSat":6796,"ĮĦ":6797,"ìŀīê¸Ģëŀľëĵľ":6798,"ĠìĺģêµŃìĿĺ":6799,"Ġì§ķ":6800,"Ġjob":6801,"ĠProfess":6802,"Ġreligious":6803,"92":6804,"aters":6805,"ĠSar":6806,"Ġì¢ħë¥ĺ":6807,"Ġoperated":6808,"Ġê²°ìĬ¹":6809,"ê±¸":6810,"omm":6811,"Ġassociated":6812,"ublican":6813,"ĠëĦ£":6814,"Ġnumerous":6815,"ë¡ľìĿĺ":6816,"ê¼":6817,"ìĥģìĿ´":6818,"Ġsat":6819,"AM":6820,"ĠìĤ¼ìĦ±":6821,"Ġsuffer":6822,"ĠëĬĺ":6823,"ĠìŀħíķĻ":6824,"åŃĲ":6825,"ĠTim":6826,"ĠColumbia":6827,"íĸĪëĬĶëį°":6828,"IV":6829,"Ġëĭ¤ì¹´":6830,"Ġexhib":6831,"íĬ¸ëĬĶ":6832,"itation":6833,"ë¡±":6834,"Ġíķ©ë³ĳ":6835,"ìĭľíĤ¨":6836,"Ġë³´ìĿ¸ëĭ¤":6837,"ĠìĬ¤íĬľ":6838,"Aust":6839,"ê°ľìĽĶ":6840,"uan":6841,"ĠCam":6842,"ëŁ¬ëĤĺ":6843,"ĠìĮį":6844,"Ġdon":6845,"Ġdiffic":6846,"Ġactors":6847,".(":6848,"ìĽĲìĹĲ":6849,"Ġê·¸ë¦¼":6850,"FM":6851,"ira":6852,"ĠíĻķìŀ¥":6853,"ìĿ¼ìĿĦ":6854,"Ġê³§":6855,"ĠMcC":6856,"1981":6857,"åĮ":6858,"Ġbridge":6859,"Ġpain":6860,"ela":6861,"ĠìĿ´íķ´":6862,"Ġnoted":6863,"íķĻëħĦ":6864,"íķĳ":6865,"sk":6866,"1979":6867,"va":6868,"êµ¬ìĹŃ":6869,"Ġëķħ":6870,"96":6871,"ìĤ°ìĹħ":6872,"ĠìļĶë¦¬":6873,"ìĿ´ëŀĢ":6874,"ĠìķĦíĤ¤":6875,"Ġtournament":6876,"osoph":6877,"standing":6878,"é«":6879,"SC":6880,"press":6881,"Ġmonth":6882,"Ġpurp":6883,"ĠUSA":6884,"ĠInf":6885,"ĠBank":6886,"Ñģ":6887,"Ġmurder":6888,"Ġtrade":6889,"Ġlimited":6890,"stein":6891,"Ġëį´":6892,"Ġinstr":6893,"ìĦ±ìĹĲ":6894,"Ġbaseball":6895,"ë¬¼ê´Ģ":6896,"Ġwestern":6897,"Ġsom":6898,"Ġven":6899,"ĠíĿĲ":6900,"ears":6901,"Ġì¹Ń":6902,"Ġprof":6903,"illy":6904,"53":6905,"ëĤľëĭ¤":6906,"rac":6907,"ëıĪ":6908,"ĠìľłìĤ¬":6909,"Ġchanges":6910,"Ġcandid":6911,"Ġë§ĮíĻĶ":6912,"ìĬ¤ìĹĲ":6913,"ĠCivil":6914,"ĠìĬ¹ë¦¬":6915,"Ġaltern":6916,"Ġìĸ¸ë¡ł":6917,"inois":6918,"Ġmostly":6919,"Ġsubject":6920,"ping":6921,"ĠOtt":6922,"emorial":6923,"Ġdate":6924,"ĠìŀĲëıĻì°¨":6925,"Ġë³¸ìĦł":6926,"Ġprob":6927,"ì¹ĺê°Ģ":6928,"ication":6929,"ĠMat":6930,"íĸīìłķ":6931,"ĠLab":6932,"ĠJr":6933,"Ġíķĺëĭ¤":6934,"ĠìłĦìĹĲ":6935,"Ġsaf":6936,"ê°Ĳëıħ":6937,"war":6938,"Ġì¹ĺë£Į":6939,"obal":6940,"ĠìĬ¤íĬ¸":6941,"uge":6942,"Ġì¡°ìķ½":6943,"ĠíĺķìĭĿ":6944,"ĠWild":6945,"Ġthought":6946,"Ġcourse":6947,"Ġ300":6948,"ê·¸ëŀĺ":6949,"ĠMid":6950,"Ġë¶ĦìĦĿ":6951,"ective":6952,"ĠWind":6953,"Ġalready":6954,"Ġdecl":6955,"ĠGal":6956,"Ġì§ĢìĨį":6957,"ë·°":6958,"Ġclubs":6959,"ìĦ¯":6960,"52":6961,"ĠìĶ¨":6962,"Ġsequ":6963,"ìĭ¬ìĿĦ":6964,"Ġchief":6965,"Ġfeature":6966,"Ġenvironment":6967,"ë¶Ģê°Ģ":6968,"inem":6969,"å¼":6970,"etts":6971,"ìĤ¬ëĭ¨":6972,"ĠìĹĶì§Ħ":6973,"aka":6974,"Ġìłľíķľ":6975,"Ġord":6976,"ĠBern":6977,"ì¤ĳìķĻ":6978,"ĠëĮĢë¶Ģë¶ĦìĿĺ":6979,"ĠìĤ¬ìĿ´ìĿĺ":6980,"Ġlength":6981,"Ġrecording":6982,"ĠVer":6983,"ìĿĮìķħ":6984,"ĠEdward":6985,"Ġactivities":6986,"bers":6987,"Trans":6988,"Career":6989,"ĠQueen":6990,"ìª½ìĹĲ":6991,"æ°ı":6992,"Ġbecoming":6993,"Ġ1938":6994,"ê³ĦìĿĺ":6995,"ĠëĽ°ìĸ´":6996,"ĠOfficial":6997,"ĠëĳĲê³ł":6998,"ĠìĦłìĪĺê¶Į":6999,"íķĻìĥĿ":7000,"ëŁ´":7001,"edia":7002,"Ġìĭľíĸī":7003,"ë¦¬ê·¸ìĿĺ":7004,"Ġtakes":7005,"ĠAvenue":7006,"ĠìĨĮíĶĦíĬ¸ìĽ¨ìĸ´":7007,"%,":7008,"Ġhot":7009,"Ġhum":7010,"ÑĢ":7011,"ĠShow":7012,"anguages":7013,"ķìĭľì½Ķ":7014,"uis":7015,"ĠêµĲìŀ¥":7016,"Ġapplic":7017,"ë¶Īìĸ´":7018,"97":7019,"Ġëª©íĳľ":7020,"iga":7021,"ĠìĿĺìĽĲ":7022,"54":7023,"ì³¤ëĭ¤":7024,"Ġcases":7025,"ĠElect":7026,"Ġë¸ĮëĿ¼ì§Ī":7027,"onse":7028,"Ġcaused":7029,"íĶĮëłĪìĿ´":7030,"ipl":7031,"ë©´ìĹĲ":7032,"Ġcommand":7033,"Ġemer":7034,"Ġì§Ģì§Ħ":7035,"ìłģìĿĢ":7036,"Ġincreased":7037,"Ġstudies":7038,"ĠResearch":7039,"onic":7040,"Ġíķĺë£¨":7041,"Ġsize":7042,"chen":7043,"ìĭľì¼ľ":7044,"ĠíĻľëıĻìĿĦ":7045,"ĠPrem":7046,"ĠLittle":7047,"aya":7048,"ĠìķĮëłī":7049,"Ġìŀĥ":7050,"eeks":7051,"ĠScottish":7052,"Ġìłķìĭł":7053,"Ġpi":7054,"ĠJul":7055,"Ġcust":7056,"ĠWay":7057,"íľ´":7058,"Ġíľĺ":7059,"ë¥´ìĿĺ":7060,"ëłĩê²Į":7061,"isher":7062,"ìŀĲëĵ¤ìĿĢ":7063,"¨ë¦¬":7064,"Ġstatus":7065,"ocal":7066,"ëĢ":7067,"ĠDutch":7068,"ĠíļĮìĤ¬":7069,"Ġcell":7070,"Ġmultiple":7071,"ĠKent":7072,"ĠPrince":7073,"Ġterms":7074,"inals":7075,"Ġê¸°ìĽĲìłĦ":7076,"ĠHealth":7077,"Ġsu":7078,"ĠLiber":7079,"ĠìĦľìļ¸íĬ¹ë³Ħìĭľ":7080,"Ġ48":7081,"Ġê±¸ì³Ĳ":7082,"ĠSince":7083,"ĠìĽĢ":7084,"ĠAsia":7085,"ìĭľíĤ¤ëĬĶ":7086,"ĠëĿ":7087,"ĠLibrary":7088,"text":7089,"track":7090,"Ġappearances":7091,"ìĦ¸ê°Ģ":7092,"ĠPortug":7093,"mann":7094,"íķĺëıĦë¡Ŀ":7095,"Ġìłķê·ľ":7096,"ĠMore":7097,"Ġanti":7098,"Ġbetter":7099,"ĠJournal":7100,"Ġëĵ±ìĹĲ":7101,"aven":7102,"Ġê°ĢíĨ¨ë¦Ń":7103,"ĠìĹĨìĹĪëĭ¤":7104,"ĠMichigan":7105,"Ġlines":7106,"ëıĦìĭľ":7107,"Ġissue":7108,"Ġdom":7109,"aily":7110,"ĠìŀĪìĸ´ìĦľ":7111,"ayer":7112,"Ġ37":7113,"nam":7114,"Ġë°°ìļ°ìĿ´ëĭ¤":7115,"ìĦ¸ìĿ´":7116,"Ġìłľì¡°":7117,"ĠKe":7118,"Ġded":7119,"Ġlegal":7120,"ĠìĦłìĸ¸":7121,"ĠOxford":7122,":#":7123,"Ġfunction":7124,"Ġens":7125,"Ġgran":7126,"ĠEastern":7127,"Ġë¬¸íķĻ":7128,"ëĶĶìķĦ":7129,"ë§ĪìĿ´":7130,"iance":7131,"Ġgive":7132,"phy":7133,"iger":7134,"ĠìłľíĴĪ":7135,"ĠEnd":7136,"Ġlonger":7137,"Ġretired":7138,"ĠìķĦíĶĦë¦¬ì¹´":7139,"è¨":7140,"ë§Īíģ¬":7141,"ĠíĿ¥":7142,"ĠëĲĺìĹĪê³ł":7143,"Ġmatches":7144,"ares":7145,"éĢ":7146,"íĸĪìĿĦ":7147,"ëŁŃ":7148,"Ġimmedi":7149,"ĠMen":7150,"Ġê²½ìĺģ":7151,"ĠOb":7152,"emporary":7153,"ì°¨ìłĦ":7154,"ĠìĤ¬ìļ©íķĺëĬĶ":7155,"Ġscore":7156,"ĠìĬ¹ê²©":7157,"Ġleaving":7158,"erem":7159,"Ġofficer":7160,"ĠCorps":7161,"íĭ¸":7162,"ta":7163,"Ġë¹ħ":7164,"å¥":7165,"ĠLG":7166,"arents":7167,"ips":7168,"Ġevidence":7169,"ĠLatin":7170,"Ġlack":7171,"range":7172,"ĠBoy":7173,"Ġëªħëł¹":7174,"Ġproperty":7175,"ĠìķĦëĤĺ":7176,"poration":7177,"ĠEarth":7178,"ìĶ©":7179,"plement":7180,"struction":7181,"Ġexc":7182,"ĠíĮĮìĿ´":7183,"urban":7184,"Ġsister":7185,"Music":7186,"isation":7187,"antry":7188,"ĠOk":7189,"ĠCoast":7190,"ĠTw":7191,"æķ":7192,"Ġìµľì´Īë¡ľ":7193,"ĠAdm":7194,"Ġë§ĲíĸĪëĭ¤":7195,"ìłĦìŀĲ":7196,"Ġeditor":7197,"ĠEnter":7198,"Ġreferred":7199,"Ġì°¬":7200,"MS":7201,"íĺ¸ëĬĶ":7202,"Ġmanagement":7203,"inger":7204,"ĠíĹĮë²ķ":7205,"Is":7206,"ì§ĢìĻĢ":7207,"Ġemb":7208,"ĠíĺĪ":7209,"Ġê³µìĤ°":7210,"ima":7211,"ëį¤":7212,"ĠìĿ´ë¦ĦìĿĢ":7213,"ĠHighway":7214,"Ġforced":7215,"ĠìĦłì¶ľ":7216,"Ġíı¬íķ¨íķľ":7217,"ìŀĦìĬ¤":7218,"äºº":7219,"Ġbelow":7220,"United":7221,"ĠChief":7222,"İìĿĢ":7223,"ìĹ°íķ©":7224,"Ġìºł":7225,"Ġbr":7226,"ĠProvince":7227,"ìļ°ë¦¬":7228,"Ä±":7229,"ìĦ¸ëĬĶ":7230,"dis":7231,"Ġplatform":7232,"ĠSpecial":7233,"Ġê·¸ëĵ¤ìĿĺ":7234,"ĠDie":7235,"Ġcolon":7236,"Ġç":7237,"inet":7238,"Ġfederal":7239,"Ġcommission":7240,"Ġê±´ì¶ķë¬¼":7241,"achus":7242,"ĠìŀĲì¹ĺ":7243,"Ġì£¼ë¯¼":7244,"ĠêµŃëıĦ":7245,"ĠíĨµê³¼":7246,"attalion":7247,"ĠìĭĿë¬¼":7248,"Ġë¯¿":7249,"Ġannual":7250,"Ġmajority":7251,"Ġinitially":7252,"arters":7253,"ëį°ìĿ´":7254,"ĠFrancisco":7255,"ĠWomen":7256,"adelph":7257,"Ġunion":7258,"Ġtheory":7259,"ëłĢëĭ¤":7260,"Ġìĭ¤íĹĺ":7261,"1960":7262,"ĠChampionships":7263,"ìłľìŀĳ":7264,"Ġshown":7265,"rect":7266,"ĠëĤ´ëł¤":7267,"Ġfocus":7268,"Ġëª¬":7269,"ìľłëŁ½":7270,"Ġë°ĶëĢ":7271,"ìĨĮê°Ģ":7272,"iy":7273,"ë¦¬ìĹĦ":7274,"onto":7275,"à¸":7276,"Ġtoday":7277,"Ġë¶Īêµ¬":7278,"ĠUnder":7279,"ëĭ¤ìĿ´":7280,"Ġìĸ´ëł¤":7281,"ĠìĿ´ëŁ°":7282,"ĠWall":7283,"ĠMajor":7284,"Ġgoing":7285,"Ġbound":7286,"espite":7287,"ĠTre":7288,"ĠMos":7289,"ĠìĦ¤ê³Ħ":7290,"Ġè":7291,"Ġop":7292,"Ġhere":7293,"ĠAlbert":7294,"êµ¬ë¥¼":7295,"Ġtowns":7296,"Ł³":7297,"Ġì´Īëĵ±íķĻêµĲ":7298,"Ġuniversity":7299,"ì§Ģì»¬":7300,"íĴĢ":7301,"ĠWal":7302,"Ġë¶ģíķľ":7303,"ications":7304,"Ġë¹Ħíĸī":7305,"ĠBet":7306,"ennis":7307,"Ġremain":7308,"tained":7309,"ĠLuc":7310,"ĠIllinois":7311,"Comp":7312,"ault":7313,"chestra":7314,"Ġë²¤":7315,"ê²¼ëĭ¤":7316,"ĠìĤ¬ëĿ¼":7317,"íıīê°Ģ":7318,"ìĿĢíĸī":7319,"ĠBelg":7320,"ntario":7321,"ĠPacific":7322,"Ġcitiz":7323,"åľĭ":7324,"ĠíĻĢ":7325,"ĠìĻľ":7326,"ĠCreek":7327,"Ġlarger":7328,"ì§ľ":7329,"Ġdecision":7330,"ĠëĶĶì§ĢíĦ¸":7331,"Ġlic":7332,"Ġìľłë¡ľ":7333,"Ġíı´ëŀĢëĵľ":7334,"ĠëĮĢì¤ĳ":7335,"Char":7336,"íķľëĭ¤ëĬĶ":7337,"ĠMinn":7338,"ĠìķĦë§Ī":7339,"apers":7340,"Ġê²°íķ©":7341,"adelphia":7342,"ìĺ¹":7343,"ëªħìľ¼ë¡ľ":7344,"uate":7345,"Not":7346,"ĠìĺĪìĦł":7347,"ĠëĦ¤ëįľëŀĢëĵľ":7348,"ĠIslam":7349,"ĠìĨĮë¹Ħ":7350,"ëŁ¬ìĭľìķĦ":7351,"ĠëįĶìļ±":7352,"Ġíķĺì§Ģ":7353,"Ã±":7354,"Ġnine":7355,"Ġbrand":7356,"Ġforeign":7357,"Ġaccount":7358,"Ġë¹Ľ":7359,"Ġdise":7360,"Ġê²ĥìĿ´ëĿ¼ê³ł":7361,"íĺ¸ë¡ľ":7362,"ĠGame":7363,"ĠStan":7364,"Ġbrief":7365,"edd":7366,"Ġselected":7367,"ĠSocial":7368,"Ġëĭ¬ìĦ±":7369,"uries":7370,"1978":7371,"ĠíĶĦëłĪ":7372,"Ġì½Ķë¯¸ëĶĶ":7373,"å·ŀ":7374,"íĺ¹":7375,"Ġêµ°ìĿ¸":7376,"Ġcle":7377,"ĠStation":7378,"Ġdesp":7379,"Ġentered":7380,"ĠìķĦëĤ´":7381,"ê²ĮìŀĦ":7382,"%.":7383,"ë´":7384,"Ġìŀħëĭ¨":7385,"89":7386,"down":7387,"ê·¸ë£¹":7388,"86":7389,"Ġê´Ģíķł":7390,"Ġlaunched":7391,"PS":7392,"Ġëª¨ìĬµìĿĦ":7393,"ëĳĶ":7394,"ĠGeorgia":7395,"Ġroom":7396,"Ġeconomic":7397,"Brit":7398,"Ġunc":7399,"onia":7400,"Ġsenior":7401,"ëŀĲëĭ¤":7402,"Ġpassed":7403,"airman":7404,"oh":7405,"íĤ¤ëĬĶ":7406,"ëĤ¨ìŀĲ":7407,"ìĿ¼ìĹĲëĬĶ":7408,"resp":7409,"Ġserving":7410,"Ġê²¨":7411,"Ġë§º":7412,"ĠWilliams":7413,"Ġice":7414,"Ġë§ĪìĤ¬":7415,"ortun":7416,"Ġê°ľìĹħ":7417,"íķ´ìĿĺ":7418,"ĠSyd":7419,"eld":7420,"ession":7421,"íģ¬ëĿ¼ìĿ´":7422,"Ġì±ĦëĦĲ":7423,"Ġ34":7424,"ĠWater":7425,"Ġquick":7426,"Ġìľłíĺķ":7427,"Ġê°ľë´ī":7428,"ĠCentre":7429,"Ġ1936":7430,"ĠSea":7431,"ĠBoston":7432,"ava":7433,"Ġseparate":7434,"ìĿ¸íĬ¸":7435,"Ġmovie":7436,"ackson":7437,"Ġnorm":7438,"íĶ¼ìķĦ":7439,"ì¡°ìĹ°":7440,"ëª¨ë¦¬":7441,"Ġêµ¬ëĭ¨":7442,"Ġconsider":7443,"iring":7444,"ĠìŀĪê²Į":7445,"ĠMu":7446,"National":7447,"Ġê°ķíĻĶ":7448,"Ġsubsequently":7449,"Ġmeaning":7450,"íħĮìĿ¸":7451,"Ġwide":7452,"ĠBh":7453,"ĠìķĮëł¤ì§Ħ":7454,"With":7455,"rance":7456,"Ġforms":7457,"ager":7458,"ĠLi":7459,"ervation":7460,"ried":7461,"unc":7462,"ĠíĬ¹ìĪĺ":7463,"Ġë°ĿíĺĶëĭ¤":7464,"TA":7465,"ê¸°ìĹħ":7466,"ĠBand":7467,"ìĺģìĸ´":7468,"selves":7469,"yt":7470,"hol":7471,"Ġthemselves":7472,"ĠìĿ´ìľłë¡ľ":7473,"Ġstep":7474,"Ġdiscuss":7475,"Ġthreat":7476,"ledge":7477,"Ġoffered":7478,"ëŀŃ":7479,"ì£¼ë¥¼":7480,"Ġëĵ±ìľ¼ë¡ľ":7481,"Ġmach":7482,"Ġassociation":7483,"72":7484,"Ġë²ķë¥ł":7485,"Ġæ":7486,"achusetts":7487,"duce":7488,"Ġì§ĢìĹŃìĿĺ":7489,"riz":7490,"Ġìŀ¥ê´Ģ":7491,"Ġx":7492,"no":7493,"Ġì¤Ģìļ°ìĬ¹":7494,"ëį°ë¯¸":7495,"94":7496,"ĠMax":7497,"ëĲ¨":7498,"ĠìŀĪìĹĪëįĺ":7499,"Ġacquired":7500,"ads":7501,"Ġhistorical":7502,"Ġspl":7503,"itzer":7504,"ëĿ¼ìļ°":7505,"ë¶Ģë¡ľ":7506,"ĠPeople":7507,"æĿ±":7508,"ìĦ¸ë¥¼":7509,"ĠìłľìķĪ":7510,"ĠChild":7511,"ìĨĮìĿĺ":7512,"Ġenergy":7513,"ĠProt":7514,"ube":7515,"ê³µìĤ¬":7516,"íķµ":7517,"Ġparticularly":7518,"Ġfle":7519,"ä¿":7520,"Ġë°©ë¬¸":7521,"ĠUl":7522,"Ġì¢ħíķ©":7523,"language":7524,"Ġrepresented":7525,"ĠEP":7526,"Ġfoot":7527,"Ġbelieved":7528,"ila":7529,"Ġstructures":7530,"itting":7531,"áĨ":7532,"Ġmiddle":7533,"ìĽłëĭ¤":7534,"ĠEll":7535,"Ġê½ĥ":7536,"íĭ°ìķĦ":7537,"Ġìĺģìĸ´":7538,"1973":7539,"ĠDet":7540,"ë§ĮìĿĦ":7541,"ĠKorea":7542,"Ġmerg":7543,"ĠìĹĲìĿ´":7544,"ĠConference":7545,"Ġdra":7546,"ĠíĴĪ":7547,"Ġíİĺë¥´":7548,"ricts":7549,"inent":7550,"ĠìłĲëł¹":7551,"ailed":7552,"Ġhours":7553,"ĠìĭłìĦ¤":7554,"Ġcreate":7555,"ĠIran":7556,"Ġalways":7557,"71":7558,"Ġeastern":7559,"ì¤ĳêµŃ":7560,"ìłģìĿ´":7561,"hew":7562,"Ġê·¸ëħĢëĬĶ":7563,"adian":7564,"Ġmakes":7565,"ĠUnivers":7566,"ĠPolish":7567,"ë¡¬":7568,"Ġê²½íĹĺ":7569,"Ġcouncil":7570,"ĠSund":7571,"Ġlog":7572,"Ġfort":7573,"occer":7574,"Ġíİ¸ìŀħ":7575,"ĠUr":7576,"ĠëªħìĺĪ":7577,"ĠSand":7578,"akers":7579,"Ġê¸°íļį":7580,"ë§ĮìĿ´":7581,"Ġgra":7582,"ĠIf":7583,"íĬ¸ìĽĮíģ¬":7584,"ì§Ģì§Ģ":7585,"Ġancient":7586,"Ġcut":7587,"ĠBab":7588,"atus":7589,"ĠêµŃíļĮ":7590,"mun":7591,"Sports":7592,"From":7593,"ĠPop":7594,"bit":7595,"ëĤĺë¯¸":7596,"74":7597,"ë§ĮìĿĺ":7598,"ĠìĦ±ìŀ¥":7599,"rice":7600,"Ġseat":7601,"62":7602,"ê°ľë°ľ":7603,"Ġepisodes":7604,"thur":7605,"ĠOntario":7606,"ìĦ±ìļ°":7607,"Ġweeks":7608,"--":7609,"sen":7610,"izing":7611,"icks":7612,"ĠMot":7613,"Ġë®¤ì§ģ":7614,"ì»¨":7615,"Ġpil":7616,"Ġess":7617,"Ġpercent":7618,"Ġspecific":7619,"atively":7620,"ĠKar":7621,"Ġmem":7622,"ìĿĺíļĮ":7623,"ê·¸ëĬĶ":7624,"West":7625,"imum":7626,"1974":7627,"ë¥´íĪ¬ê°Ī":7628,"AF":7629,"Ġìľłëŀĺ":7630,"Ġbomb":7631,"Ġver":7632,"ĠCur":7633,"ĠKenn":7634,"ĠRay":7635,"1976":7636,"ĠAssembly":7637,"ĠëĤĺìĺ¨":7638,"ĠSydney":7639,"ronic":7640,"Ġopt":7641,"ìĹ½":7642,"Ġblock":7643,"Ġëī´ìĬ¤":7644,"ëħĦìĿĦ":7645,"ìļĶìĭľ":7646,"Ġpage":7647,"ìĽĲìĹĲìĦľ":7648,"Ġìĭ¤ìłľ":7649,"íĶĪ":7650,"ĠJohnson":7651,"Ġsource":7652,"ìĤ¬ëŀĳ":7653,"Ġinteg":7654,"ìľĦìĿĺ":7655,"heim":7656,"Ġpit":7657,"ĠBa":7658,"Ġarrest":7659,"ë¬¸íĻĶìŀ¬":7660,"cel":7661,"She":7662,"Ġê°ķìĽĲ":7663,"ĠTam":7664,"ĻìĿĢ":7665,"ĠìĿĢíĩ´":7666,"ĠìĦ¼íĦ°":7667,"When":7668,"Ġì¼ĢìĿ´":7669,"fect":7670,"ĠSong":7671,"å®ī":7672,"Ġcommunities":7673,"ĠíķĢ":7674,"ĠìĹ¬íĸī":7675,"ĠArm":7676,"íķ¨ìľ¼ë¡ľìį¨":7677,"Ðº":7678,"Ġlatter":7679,"61":7680,"íĪ":7681,"ĠíĽĦì¿ł":7682,"ĠRam":7683,"ëĭĪìĭľ":7684,"Ġarticle":7685,"een":7686,"ìĤ¬ê±´":7687,"ĠìĽ¹ìĤ¬ìĿ´íĬ¸":7688,"Ġìłĳê·¼":7689,"ellig":7690,"Ġvariety":7691,"ĠìĪĺì¤Ģ":7692,"ĠìŀĲë¦¬":7693,"encies":7694,"1972":7695,"ĠVan":7696,"Ġë¶Īêµ¬íķĺê³ł":7697,"ĠCat":7698,"Ġremaining":7699,"íı¬ëĭĪìķĦ":7700,"hester":7701,"ĠBor":7702,"Ġcomedy":7703,"ĠëĤĺì¹´":7704,"ĠField":7705,"93":7706,"ĠRel":7707,"Ġadministr":7708,"ëĤ´ëĬĶ":7709,"Ġgot":7710,"Ġcities":7711,"Ġlabel":7712,"ĠDVD":7713,"uten":7714,"ë¹ł":7715,"íķĻëł¥":7716,"ì»´":7717,"orning":7718,"ĠArgent":7719,"Ġtroops":7720,"ĠìĹĺë¦¬":7721,"amin":7722,"ĠFM":7723,"ëłĪìĿ´ìħĺ":7724,"ê½ĥ":7725,"Ġpp":7726,"ĠTheir":7727,"abeth":7728,"ì°¨ë¡ľ":7729,"vis":7730,"Ġsea":7731,"nes":7732,"Ġminutes":7733,"ĠPhilipp":7734,"ĠPost":7735,"Ġêµ¬ë¶Ħ":7736,"LA":7737,"zy":7738,"ĠìĦ±ë¦½":7739,"ilies":7740,"Ġhelped":7741,"Ġë©Ģ":7742,"ê°ĢìĿĺ":7743,"Ġchart":7744,"Ġvon":7745,"level":7746,"Ġmedical":7747,"Ġclaimed":7748,"1977":7749,"Ġextended":7750,"teen":7751,"isk":7752,"ĠìĽĢì§ģ":7753,"Ġì¹ł":7754,"ĠFour":7755,"itage":7756,"ĠBerlin":7757,"Ġadj":7758,"Ġcomment":7759,"ĠIS":7760,"Don":7761,"ĠìĨĮê°ľ":7762,"rif":7763,"Ġrequire":7764,"Ġcrew":7765,"Ġfailed":7766,"agement":7767,"Ġpresented":7768,"Ġdro":7769,"Ġhouses":7770,"ĠìĿ¸íĦ°ëĦ·":7771,"Ġì§Ģíķĺì²ł":7772,"ĠEp":7773,"ê¸ĪìĿĦ":7774,"Ġpasseng":7775,"ëĭµ":7776,"Ġcann":7777,"ĠAz":7778,"ĠAirport":7779,"íģ¼":7780,"Ġturned":7781,"ĠìľĦíĹĺ":7782,"ĠFA":7783,"ĠAndrew":7784,"Ġë¬¼ì§Ī":7785,"Ġwords":7786,"Ġ1937":7787,"ĠìŀĲì£¼":7788,"ëĩĮ":7789,"ë¸ĮëĿ¼":7790,"ĠìĥĿìĦ±":7791,"Ġaffili":7792,"ĠLight":7793,"å»":7794,"ĠíĬ¹ìłķ":7795,"2023":7796,"63":7797,"Ġ1914":7798,")'":7799,"ìĻĶ":7800,"ĠMassachusetts":7801,"osaur":7802,"ï¼ī":7803,"ĠCard":7804,"ìŀĲëĵ¤ìĿ´":7805,"Ġdouble":7806,"ables":7807,"ì²´ëĬĶ":7808,"British":7809,"ĺë¦¬íı¬ëĭĪìķĦ":7810,"ĠíĶĦëŀĳìĬ¤ìĿĺ":7811,"Ġnearby":7812,"more":7813,"gu":7814,"ĠìłķíĻķ":7815,"ĠFoundation":7816,"Ġprovides":7817,"Ġíİľ":7818,"Ġê°Ģë¬¸":7819,"ĠìĺĪë¥¼":7820,"mas":7821,"Ġresidents":7822,"yric":7823,"Or":7824,"ë¹Ħë¥¼":7825,"Ġê²ĥìĹĲ":7826,"ì½Ķëĵľ":7827,"ĠëģĮ":7828,"pan":7829,"ìĽĶë¶ĢíĦ°":7830,"Ġdone":7831,"éķĩ":7832,"ìĭľë¡ľ":7833,"Ġheavy":7834,"ĠDirector":7835,"Ġtechnology":7836,"ties":7837,"Ġëĭ¬ëŁ¬":7838,"Ġplays":7839,"ĠMany":7840,"Ġgovern":7841,"Ġobject":7842,"ĠìĿ´ë¦Ħìľ¼ë¡ľ":7843,"vement":7844,"ĠCub":7845,"Ġdistinct":7846,"ëĲĺê¸°":7847,"gypt":7848,"ĠRog":7849,"ĠëĤĺë¨¸":7850,"olis":7851,"Ġcovered":7852,"ĠëįĶë¶Īìĸ´":7853,"åĽ":7854,"ĠëıĻìĥĿ":7855,"ìĹŃìĿĦ":7856,"Ġìµľê·¼":7857,"Ġpersonnel":7858,"ĠRem":7859,"Ġincrease":7860,"ëĭ¥":7861,"ĠMov":7862,"Ġindividuals":7863,"Ġfinally":7864,"ĠìĻĦìłĦíŀĪ":7865,"Man":7866,"Ġê·¸ë¦°":7867,"ĠBridge":7868,"Ġcarried":7869,"Ġê°ĲëıħìĿĺ":7870,"Ġë²Ķì£Ħ":7871,"íĥĢìĿ´":7872,"1968":7873,"Ġtemper":7874,"Ġsupported":7875,"Ġë¬¼ë¦¬":7876,"ìĿ¸ìľ¼ë¡ľ":7877,"Ġê³łëĮĢ":7878,"73":7879,"Ġresponse":7880,"æī":7881,"Ġmuseum":7882,"ĠíĮĮê´´":7883,"Ġë²łíĬ¸ëĤ¨":7884,"Ġvs":7885,"ëıĻìĿĦ":7886,"ç¦":7887,"Ġrecords":7888,"Ġê¹¨":7889,"ĠLater":7890,"yth":7891,"ydro":7892,"ì´ī":7893,"åįĹ":7894,"ë¶Ģë¬¸":7895,"Ġdiss":7896,"Ġdescent":7897,"rupt":7898,"Ġë¶ĢìĹ¬":7899,"peror":7900,"Ġparents":7901,"Ġunivers":7902,"Ġofficers":7903,"85":7904,"ĠCorn":7905,"ëĭĪìĸ´":7906,"ously":7907,"êµ¬ìĹĲ":7908,"Ġsurface":7909,"Ġships":7910,"Members":7911,"Sw":7912,"ìĥģìĹĲ":7913,"ï¼Ī":7914,"rovers":7915,"ĠëŁ°ëįĺ":7916,"Ġcounty":7917,"ishes":7918,"outheast":7919,"aging":7920,"åĬ":7921,"Ġmight":7922,"Ġstarting":7923,"Ġë§¡ìķĺëĭ¤":7924,"Ġë°ľëĭ¬":7925,"Ġoil":7926,"å¤©":7927,"ocese":7928,"ĠJac":7929,"ìĿ¸ì§Ģ":7930,"íıīìĸĳ":7931,"Ġë¶Ģë¥´":7932,"Ġìĵ´":7933,"ĠìķĮê³ł":7934,"ador":7935,"ĠKong":7936,"ba":7937,"ĠBir":7938,"Ġ1935":7939,"ĠíķĺëĤĺìĿĺ":7940,"Ġchem":7941,"ocks":7942,"light":7943,"Ġlegisl":7944,"Ġfinancial":7945,"Ġê·¸ëĵ¤ìĿĢ":7946,"Ġê³ĦìĹ´":7947,"ìłķìĿĢ":7948,"stone":7949,"alm":7950,"ederation":7951,"bre":7952,"Ġê²°ìĦ±":7953,"ë¶ĢìĤ°":7954,"ograp":7955,"ounds":7956,"Ġìĭ¶":7957,"ëıĻìĹĲ":7958,"Ġoverall":7959,"ĠëıħìĿ¼ìĿĺ":7960,"Ġoperation":7961,"ĠLive":7962,"ĠJoe":7963,"ĠìĦłìĪĺë¡ľ":7964,"illed":7965,"ker":7966,"ĠMuslim":7967,"âĪ":7968,"ĠíķĺëĤĺìĿ´ëĭ¤":7969,"ĠìĻ¸êµĲ":7970,"Ġchannel":7971,"Ġvoice":7972,"Ġì¤ĳìĹĲ":7973,"ĠHome":7974,"Ġpsych":7975,"ä¸ī":7976,"Ġlanguages":7977,"ĠÂ£":7978,"ë¯¸ìķ¼":7979,"Ġmechan":7980,"ì°¬ê°Ģì§Ģ":7981,"Ġcollabor":7982,"agn":7983,"imated":7984,"ĠHind":7985,"ĠCE":7986,"Ġrecent":7987,"Ġproblems":7988,"enty":7989,"ãĥ³":7990,"ouri":7991,"Ġìŀĳìļ©":7992,"Ġë°Ķíĥķìľ¼ë¡ľ":7993,"åŁİ":7994,"Ġconsists":7995,"Ġcapac":7996,"Ġassistant":7997,"Ġprevent":7998,"Ġang":7999,"ĠëķĮê¹Įì§Ģ":8000,"omer":8001,"Ġformat":8002,"ë¡ľë§Ī":8003,"ading":8004,"Ġhospital":8005,"Ġë²łìĿ´ìĬ¤":8006,"emet":8007,"ĠìĿ¸êµ¬ëĬĶ":8008,"íĦ°íħĮìĿ¸":8009,"lav":8010,"Ġborder":8011,"ì¼ľ":8012,"Ġ1919":8013,"onomy":8014,"Ġmainly":8015,"Ġneighbor":8016,"Ġmeeting":8017,"Ġtarg":8018,"ĠPubl":8019,"Ġsecondary":8020,"hens":8021,"Further":8022,"rin":8023,"ìĸ´ìĦľ":8024,"ĠHung":8025,"èĩ":8026,"íķĺìĿĺ":8027,"Ġ400":8028,"ê·ľëª¨":8029,"ĠìĪĺìļ©":8030,"oz":8031,"ëĿ¼ëħ¸":8032,"Ġproposed":8033,"arry":8034,"ĠBudd":8035,"éĩĮ":8036,"ĠColl":8037,"ì¹ĺê³ł":8038,"Ġì´ī":8039,"ounts":8040,"Ġfeaturing":8041,"Ġcomputer":8042,"ĠìŀĪëıĦë¡Ŀ":8043,"Ġnearly":8044,"Ġbring":8045,"Ġinters":8046,"Ne":8047,"91":8048,"Be":8049,"ìŀĲë£Į":8050,"Ġshoot":8051,"Ġpeak":8052,"ĠGh":8053,"Ġcharg":8054,"ĠìķĻ":8055,"ĠWilson":8056,"ĠBell":8057,"ensis":8058,"ìĿ´íĽĦ":8059,"ĠìĿĮìķħê°Ģ":8060,"Ġcomposed":8061,"ë²ķìĿĦ":8062,"Ġìłľì£¼":8063,"Ġmarriage":8064,"ĠMike":8065,"span":8066,"Ġê°ľì¹Ń":8067,"1975":8068,"ìĥģìĿĢ":8069,"mission":8070,"Ġ1918":8071,"Ġê±°ëĳĲ":8072,"Ŀê°Ģ":8073,"Ġnuc":8074,"ĠPhiladelphia":8075,"zech":8076,"ê°ĲìĿĦ":8077,"ĠìĹ¬ë¦Ħ":8078,"ĠJeff":8079,"ĠíĶĦë¡ľëĵĢìĦľ":8080,"Ed":8081,"Ġinn":8082,"amples":8083,"osa":8084,"ĠWinter":8085,"stitu":8086,"ĠìķĦì§ģ":8087,"Ġleave":8088,"ĠëĨĢ":8089,"ully":8090,"ì§ĢëıĦ":8091,"Ġbelong":8092,"íĦ°íħĮìĿ¸ë¨¼íĬ¸":8093,"Ġë¹Ħíķ´":8094,"ĠìĤ¬ëŀĮìĿ´":8095,"ëŀį":8096,"Ġdepart":8097,"ëĶĺ":8098,"ĠRepresent":8099,"ìĿ¸ëį°":8100,"Ġê²½ìŁģ":8101,"ĠìķĬìķĦ":8102,"Ġstories":8103,"ĠOs":8104,"ĠìļĶì²Ń":8105,"ĠÅ":8106,"amm":8107,"Ġelements":8108,"una":8109,"Ġê¸°ìŀĲ":8110,"Ġtold":8111,"Ġ*":8112,"Ġdifficult":8113,"ĠPrize":8114,"Ġìłľìĭľ":8115,"Ġë§ĮëĤĺ":8116,"Ġë¯¸ëŀĺ":8117,"ĠAlexander":8118,"aith":8119,"ĠRaj":8120,"formed":8121,"Ġê¸°ìĹ¬":8122,"ĠìĿ´ëĵ¤ìĿĢ":8123,"Ġraised":8124,"Ġchall":8125,"Ġplans":8126,"ĠPakistan":8127,"Ġearned":8128,"åħ¬":8129,"Ġìľ¡ìĥģ":8130,"Ġorganizations":8131,"Ã¸":8132,"ĠìĿĺìĤ¬":8133,"ĠíĻ©ìłľ":8134,"ĠVictoria":8135,"ĠìĪł":8136,"ìĿ¸ê³¼":8137,"ĠRepublican":8138,"íı¼":8139,"ì¿łëĿ¼":8140,"ĠìĿ¸íķľ":8141,"uing":8142,"ĠìĹ¬ê²¨":8143,"ãĢĪ":8144,"ĠJackson":8145,"Ġpolicy":8146,"Ġspeed":8147,"ĠìĪĺë¹Ħ":8148,"OM":8149,"ucky":8150,"Ġnature":8151,"ìĤ°ìĿĦ":8152,"íĶĦëŀĳìĬ¤ìĿĺ":8153,"obile":8154,"ologist":8155,"Ġnumbers":8156,"ĠCorporation":8157,"Ġdespite":8158,"Ġcars":8159,")(":8160,"Ġcat":8161,"ë¦¬ìĸ´":8162,"Ġdead":8163,"ìĭ¸":8164,"Ġë°°ì¹ĺ":8165,"åĭ":8166,"ĠCy":8167,"ortheast":8168,"arp":8169,"69":8170,"Ġagric":8171,"Ġdirectly":8172,"li":8173,"ĠSpe":8174,"á»":8175,"ĠíļĮìŀ¥":8176,"enness":8177,"ĠìŀĳìĤ¬":8178,"Ġë§Īì°¬ê°Ģì§Ģ":8179,"ĠPower":8180,"Ġì¤ĳëĭ¨":8181,"Ġíģ´ëŀĺ":8182,"Ġnewspaper":8183,"íķŃê³µ":8184,"ĠìľĮë¦¬ìĹĦ":8185,"mod":8186,"ĠAtt":8187,"Ġalleg":8188,"1971":8189,"ĠTod":8190,"ĠJes":8191,"ĠThree":8192,"Ġpoor":8193,"ĠViet":8194,"Ġíķ´ìĦĿ":8195,"verse":8196,"Ġcensus":8197,"Ġrenamed":8198,"EN":8199,"ĠGuard":8200,"ais":8201,"ogue":8202,"Austral":8203,"ëªħíķľ":8204,"ìĭĿìĿ´":8205,"é«ĺ":8206,"Ġìĥģíĺ¸":8207,"ç§":8208,"Ġrugby":8209,"ë§İìĿĢ":8210,"Ġconditions":8211,"ED":8212,"Ġweap":8213,"ancy":8214,"ê²½ì°°":8215,"ìĹĪìľ¼ë©°":8216,"ĠPC":8217,"umed":8218,"ĠìĬµ":8219,"ê¸°ìĽĲìłĦ":8220,"ì§ĵ":8221,"Ġstay":8222,"ĠìĺģíĨł":8223,"Ġì¶Ķì§Ħ":8224,"ëĶĶìĸ´":8225,"Ġpick":8226,"íĬ¸ëĿ¼":8227,"Ã¡n":8228,"ĠOffice":8229,"ì£¼ë¡ľ":8230,"wide":8231,"Ġprovince":8232,"Ġê°Ģë¥´":8233,"usband":8234,"Ġíĳľìĭľ":8235,"ĠìłķëıĦë¡ľ":8236,"ĠìĻķêµŃ":8237,"ê³¨ìĿĦ":8238,"ĠFer":8239,"Ġrule":8240,"ĠìłľêµŃìĿĺ":8241,"Ġíķ´ê²°":8242,"Ġworkers":8243,"Ġë³µê·Ģ":8244,"Ġíİ¸ì§ĳ":8245,"Ġquarter":8246,"Ġ1933":8247,"itude":8248,"ìķĦê°Ģ":8249,"ëĵ¤ë¡ľ":8250,"Ġì¡´ìŀ¬íķľëĭ¤":8251,"Ġnovels":8252,"ĠìłľìŀĳëĲľ":8253,"ìľĦê°Ģ":8254,"ĠIslands":8255,"uj":8256,"yer":8257,"bourne":8258,"ìĽĶìĹĲëĬĶ":8259,"Ġstudied":8260,"writer":8261,"Ġê°ķëł¥":8262,"inated":8263,"ìłĲìĿ´":8264,"Ġenough":8265,"ĠPen":8266,"astic":8267,"esota":8268,"ĠëĬĶ":8269,"Ġconcept":8270,"ìĭľìĦ¤":8271,"ET":8272,"Ġbecomes":8273,"Ġfacilities":8274,"Ġkind":8275,"ĠBrig":8276,"ĠíĺĦìŀ¬ìĿĺ":8277,"Ġdeep":8278,"1969":8279,"Ġsoldiers":8280,"ĠLim":8281,"ĠGovernor":8282,"Ġë²ĪìĹŃ":8283,"Ġdyn":8284,"ì§Ģìħĺ":8285,"ules":8286,"Ġëħ¼ëŀĢ":8287,"ĠOlympic":8288,"AP":8289,"ĠUN":8290,"ĠFar":8291,"ĠCharl":8292,"Ġsector":8293,"olitan":8294,"icted":8295,"raq":8296,"Ġì§Ģìĥģ":8297,"Ġê·¸ëŁ°":8298,"¤¾":8299,"ĠProgram":8300,"Ġmusicians":8301,"ë³¸ë¶Ģ":8302,"ĠìĦ±ê²©":8303,"Ġhighway":8304,"Ġìī½":8305,"íĺ¸ìĤ¬":8306,"ĠìĤ¶":8307,"andon":8308,"ìłĦíķľ":8309,"ĠMir":8310,"Ġì¤ĳìļĶ":8311,"Ġê¿Ī":8312,"Ġcorn":8313,"Ġ1934":8314,"Ġë°ľíĸī":8315,"Ġdrama":8316,"etic":8317,"ëŀĦ":8318,"ê°Ħëĭ¤":8319,"ìľ¼ë¯Ģë¡ľ":8320,"ìĨĮëĬĶ":8321,"ĠëĿ¼ìĿ´ë¸Į":8322,"Ġpath":8323,"Dem":8324,"ì¶ķêµ¬":8325,"ĠëĤ¨ìª½":8326,"ëĥ¥":8327,"ëħĦê°Ħ":8328,"Ġinfluence":8329,"Ġinstitut":8330,"eman":8331,"ictional":8332,"ĠSerb":8333,"è»":8334,"inus":8335,"ez":8336,"orporated":8337,"ĠForest":8338,"Ġì²´ê²°":8339,"Ġíģ¬ë¡ľ":8340,"Ġelectric":8341,"Ġprimarily":8342,"Ġìĺ¤ë¥¸":8343,"ĠìĬ¤íĬľëĶĶìĺ¤":8344,"Ġìŀĩ":8345,"Ġsucceed":8346,"íĺķìĿĦ":8347,"Ġcause":8348,"ìĭłìĿĦ":8349,"inistry":8350,"Ġcard":8351,"Ġë©¸":8352,"Ġë¹Ħë°Ģ":8353,"Track":8354,"ë¬¼ìĿĺ":8355,"Ġì£¼ìĿ¸ê³µ":8356,"Ġë¯¸ìĤ¬":8357,"Ġë¸ĶëŀĻ":8358,"rog":8359,"ĠToronto":8360,"Ġonline":8361,"íĬ¸ê°Ģ":8362,"Ġstadium":8363,"ĠLew":8364,"Ġparish":8365,"One":8366,"ĠRegiment":8367,"No":8368,"Ġsociety":8369,"Ġë¶Ħíı¬":8370,"And":8371,"ione":8372,"akh":8373,"Ġíı°":8374,"ĠHead":8375,"Ġë¯¸êµŃìĹĲìĦľ":8376,"estab":8377,"Ġresponsible":8378,"ĠBal":8379,"1950":8380,"Ġinhab":8381,"Ġdomin":8382,"aylor":8383,"Ġdrug":8384,"ë¡ľëĵľ":8385,"Ġê°ľíĺģ":8386,"ìŀī":8387,"Ġexperience":8388,"da":8389,"Ac":8390,"Ġvalue":8391,"Ġ1929":8392,"anth":8393,"ĠAk":8394,"ê´ĢìĿĢ":8395,"ĠìĤ¬ìļ©íķľëĭ¤":8396,"ìĹĨìĿ´":8397,"Ġconfl":8398,"ĠìĭŃ":8399,"ambig":8400,"íĻĶìĿĺ":8401,"íĬ¹ë³ĦìŀĲì¹ĺ":8402,"Ġìĺ¤ëŀĺ":8403,"íĭ°ë¸Į":8404,"orship":8405,"Ġë¥´":8406,"Ġ64":8407,"ĠSupreme":8408,"Ġnecess":8409,"usc":8410,"ieuten":8411,"ighter":8412,"Ġupper":8413,"íķĺë§Ī":8414,"Ġë©ľ":8415,"ĠìŀĳìłĦ":8416,"Ġwhole":8417,"ìĹĪëįĺ":8418,"ĠAut":8419,"ĠJean":8420,"Ġwhether":8421,"Ġprogramming":8422,"ĠìĹ°ìŀ¥":8423,"Ġlikely":8424,"Ġì§ĢìĹŃìĹĲ":8425,"ìĺ¤íĶĦ":8426,"ìĬ¤ìĹĲìĦľ":8427,"ĠìĿĺíķĺìĹ¬":8428,"ĠíķĺëĤĺë¡ľ":8429,"Ġdeliver":8430,"Ġdiscovered":8431,"ìĿ´ê¸°":8432,"ìĭłìĿĺ":8433,"Ġëª»íĸĪëĭ¤":8434,"cles":8435,"Ġì¤ĳíķĻêµĲ":8436,"ĠBad":8437,"íģ´ëŁ½":8438,"Ġconstructed":8439,"Ġmentioned":8440,"ĠíĮ¨ë°°":8441,"Ġê¸°ì´Ī":8442,"ĠEgypt":8443,"ìłĦìŁģ":8444,"ĠìĿĺíļĮ":8445,"ĠMarine":8446,"ĠQueens":8447,"bs":8448,"Ġreason":8449,"Ġì°¨íĬ¸":8450,"å®Ĺ":8451,"rants":8452,"edom":8453,"Ġasked":8454,"ĠRod":8455,"mad":8456,"uv":8457,"ìľĦëĬĶ":8458,"ì½¤":8459,"Ġmanaged":8460,"ĠProject":8461,"ë¡ľë¥¼":8462,"rec":8463,"Ġface":8464,"Ġíķ´êµ°":8465,"ilton":8466,"ê²½ëł¥":8467,"Ġlevels":8468,"worth":8469,"Ġìĺ¤ìĬ¤íĬ¸ëłĪìĿ¼":8470,"ĠìĦłìĪĺìĿ´ëĭ¤":8471,"inson":8472,"lementary":8473,"Ġê³µìŀĳ":8474,"ĠìľĦìĹĲ":8475,"Ġì²ľíĻ©":8476,"Ġ42":8477,"Ġserve":8478,"íĮĮìĿ´":8479,"Ġcricket":8480,"Ġ1928":8481,"ìĥĿíĻľ":8482,"ìĨĮë¦¬":8483,"ìķĦë¥´":8484,"Ġë°ĿíĺĢ":8485,"ĠìĿ´ì£¼":8486,"ĠSimon":8487,"ê¸°íļį":8488,"ĠChap":8489,"Ġì°¨ë¡Ģ":8490,"osh":8491,"Ġmissing":8492,"ĠFair":8493,"Ġsched":8494,"ĠëĤĺë¬´":8495,"ĠíĽĪëł¨":8496,"greg":8497,"Ġcampus":8498,"ĠìĨįíķĺëĬĶ":8499,"utions":8500,"Ġì§§":8501,"erc":8502,"rison":8503,"El":8504,"Ġê°ĢëĬ¥íķĺëĭ¤":8505,"Ġnative":8506,"ĠMedal":8507,"ĠRet":8508,"ĠìĪ¨":8509,"ĠAsh":8510,"Ġë²łë¥´":8511,"enes":8512,"Ġë¶Ģìłķ":8513,"ĠìĬ¤ìĽ¨ëį´":8514,"ĠìłĦë°ĺ":8515,"undred":8516,"ails":8517,"ĠíĿ¡":8518,"83":8519,"Ġsal":8520,"ĠìĬ¤ìĬ¤ë¡ľ":8521,"Ġë¶ĪêµĲ":8522,"êµ¬ëĬĶ":8523,"Ġ1932":8524,"rate":8525,"íĻĶëĲľ":8526,"ìĿ´ìĤ¬":8527,"Ġ1000":8528,"ì£½":8529,"ĠFe":8530,"itter":8531,"Ġclear":8532,"ì§ĢìĹĲìĦľ":8533,"ë¥¼ë¦°":8534,"ìĥģìľ¼ë¡ľ":8535,"ĠìĺģìĹħ":8536,"ç«":8537,"Ġcateg":8538,"Ġëħ¹ìĿĮ":8539,"Ġìĭľê¸°":8540,"Ġappl":8541,"AD":8542,"cean":8543,"ĠLes":8544,"uilding":8545,"ĠHuman":8546,"ĠBeach":8547,"ĠBaseball":8548,"amber":8549,"Ġpaper":8550,"Ġìĺ¤ëĬĺëĤł":8551,"ê°Ģì¡±":8552,"ĠëĤ¨ë¶Ģ":8553,"ĠColor":8554,"Ġì§ĳíķ©":8555,"ĠHarv":8556,"Ġremoved":8557,"get":8558,"Ġdivided":8559,"Ġë°Ķë¥´":8560,"Ġë°ķìĤ¬":8561,"Ġë¶ĢìĿ¸":8562,"ĠíĶ¼ìķĦ":8563,"ĠìłķìĭĿ":8564,"Ġlisting":8565,"Ġê·¸ëĮĢë¡ľ":8566,"ĠìĤ¬ìĿ´íĬ¸":8567,"ĠCa":8568,"ê³ĦìĹĲ":8569,"World":8570,"ĠCop":8571,"Ġheart":8572,"izabeth":8573,"82":8574,"ĠJustice":8575,"ambiguation":8576,"ĠMain":8577,"ĠíĨµìĿ¼":8578,"ì§ģìĿĦ":8579,"Ġmetal":8580,"\"|":8581,"ĠìĤ¬ëŀĮëĵ¤ìĿ´":8582,"TC":8583,"Ġê³¤":8584,"Ġscene":8585,"quarters":8586,"icine":8587,"ocated":8588,"ĠBrother":8589,"ì²´ìľ¡":8590,"ë©Ķëĭ¬ë¦¬ìĬ¤íĬ¸":8591,"Ġìĥģì§ķ":8592,"Ġinitial":8593,"bec":8594,"ëĭ¨ìĹĲ":8595,"ë¿Ĳ":8596,"istance":8597,"Ġincreasing":8598,"Ġê°ĸê³ł":8599,"Ġblood":8600,"ttp":8601,"1964":8602,"Ġíĺĳëł¥":8603,"ĠLo":8604,"å¹³":8605,"ĠìĿ½":8606,"ĠëĦĲë¦¬":8607,"Ġê¸Ģë¡ľ":8608,"Ġtransferred":8609,"Ġproducts":8610,"Ġfunct":8611,"Ġê¸°ë¡ĿíĸĪëĭ¤":8612,"ĠìĿĦ":8613,"Ġê·¼ì²ĺ":8614,"ëĵľê°Ģ":8615,"Ġtitles":8616,"Ġult":8617,"è¦":8618,"ĠVen":8619,"ĠFire":8620,"iest":8621,"Ġì£½ìĿĢ":8622,"1967":8623,"Ġeffects":8624,"Ġregional":8625,"www":8626,"igen":8627,"ë¯¹":8628,"ĠDemocratic":8629,"ĠSteve":8630,"ĠìĤ¬ìļ©íķł":8631,"Ġexpatriate":8632,"Ġhonor":8633,"Ġê²½ìĥģë¶ģëıĦ":8634,"ĠìłĦíĻĺ":8635,"ëĵ¤ëıĦ":8636,"Ġlives":8637,"ĠCambridge":8638,"ĠìķĦë¬´":8639,"Ġcomes":8640,"thing":8641,"Ġë¶Īë¦¬":8642,"Ġê°ľíİ¸":8643,"Ġawards":8644,"Pop":8645,"1945":8646,"ĠBang":8647,"ĠìĭľíĹĺ":8648,"Ġcolor":8649,"ĠDevelopment":8650,"Ġê³¼ìłķìĹĲìĦľ":8651,"ĠìŀĦìĭľ":8652,"ĠSom":8653,"Ġwanted":8654,"ê°Ģë¥¼":8655,"ìĿ´ìĻĢ":8656,"Ġfriends":8657,"Ġprogress":8658,"arrow":8659,"ĠNetwork":8660,"84":8661,"Ġì²ĺë¦¬":8662,"iced":8663,"ĠìĭĿë¯¼":8664,"imal":8665,"Canadian":8666,"Ġíİ¼":8667,"ĠAM":8668,"íĹ¨íĭ°":8669,"ĠíĪ¬íĳľ":8670,"class":8671,"ĠëĩĮ":8672,"ĠKen":8673,"Ġsources":8674,"ëŀĺíĶĦíĬ¸":8675,"Ġìļ°ìĬ¹ìĿĦ":8676,"ĠíļĮìĽĲ":8677,"ìĦłìĿ´":8678,"Ġnotable":8679,"Ġë°ĶëĢĮ":8680,"Ġê´Ģê´ĳ":8681,"Ġëĵ±ë¡Ŀ":8682,"Med":8683,"Ġë¶ģìª½":8684,"ĠëĶ°ë¥¸":8685,"íĨµìĭł":8686,"ĠSant":8687,"respond":8688,"Ġsolo":8689,"ëĤĺëĿ¼ìĿĺ":8690,"ĠAC":8691,"Ġê¶¤":8692,"ä¸Ģ":8693,"ìĿ¼ë°ĺ":8694,"ĠUk":8695,"ĠCommon":8696,"rade":8697,"Ġgreen":8698,"Ġexecutive":8699,"ĠSK":8700,"ìĭľëĬĶ":8701,"Ġautom":8702,"Ġcontinue":8703,"Ġrules":8704,"Ġì§ĢìłķëĲĺìĹĪëĭ¤":8705,"Will":8706,"ë§ĪìĬ¤":8707,"Ġbenef":8708,"ëħķ":8709,"orph":8710,"Ġgun":8711,"Ġ39":8712,"Men":8713,"Ġê°Ģìł¸":8714,"Ġê°ĢëĬ¥íķľ":8715,"Ġìĭľì²Ń":8716,"OV":8717,"ê´ĢìĿĦ":8718,"Ġëĭ¹ìĽĲ":8719,"We":8720,"ĠSev":8721,"Ġalongside":8722,"Nov":8723,"part":8724,"ĠìĿ´ë¡ľ":8725,"yo":8726,"Ġ1931":8727,"Ġchap":8728,"ë²ķìĽĲ":8729,"disambiguation":8730,"íĭĢëŀľëĵľ":8731,"ìłķì¹ĺ":8732,"ëª»":8733,"Ġcontinues":8734,"ilation":8735,"ìĿ¼ëŁ¬":8736,"ĠíĺĦìŀ¬ëĬĶ":8737,"Ġìª½":8738,"ĠëĦ¤íĬ¸ìĽĮíģ¬":8739,"ĠìĦ¸ìĽĮ":8740,"rolled":8741,"Ġë§İëĭ¤":8742,"êµ¬ê°Ģ":8743,"ĠVill":8744,"Ġera":8745,"German":8746,"ĠWork":8747,"ĠíķĦë¦¬":8748,"ĠLady":8749,"pur":8750,"Ġë°Ķëĭ¤":8751,"emetery":8752,"Ġê´Ģëł¨ëĲľ":8753,"ìĿ´ì¦Ī":8754,"Ġthr":8755,"Ġlaws":8756,"ĠFox":8757,"ĠDaniel":8758,"ĠíĨµì¹ĺ":8759,"Ġenem":8760,"wick":8761,"ëĵ¬íķ´":8762,"Ġour":8763,"Ġê³łìĸĳ":8764,"ĠCas":8765,"ì£¼ìĿĺìŀĲ":8766,"1965":8767,"Ġissued":8768,"ieutenant":8769,"ĠPoland":8770,"ìĺ¤ëĬĶ":8771,"Ġê²½ìļ°ê°Ģ":8772,"iform":8773,"ĠëĮĢìĿĳ":8774,"ello":8775,"Ġìĸµ":8776,"Ġcapacity":8777,"Ġë³´ìľł":8778,"ES":8779,"Co":8780,"Pr":8781,"Ġê²½ìĥģëĤ¨ëıĦ":8782,"ëĳĲê³ł":8783,"Ġëĭ¨ìĪľ":8784,"Ġìŀĳê³¡ê°Ģ":8785,"1966":8786,"Polit":8787,"opher":8788,"Ġ1924":8789,")ãĢĭ":8790,"ĠBooks":8791,"ìŀ¥ê³¼":8792,"ulpt":8793,"Ġìĺ¤ìĤ¬ì¹´":8794,"ĠAdd":8795,"ĠHistoric":8796,"ĠRome":8797,"ëĿ¼ìĹĺ":8798,"iot":8799,"ĠìŀŃ":8800,"ĠBoth":8801,"Ġdemon":8802,"Ġadministration":8803,"ë¯¼ì¡±":8804,"ĠëıĻìª½":8805,"æĹ¥":8806,"Ġ49":8807,"ennessee":8808,"ìĸ´ì§Ħëĭ¤":8809,"Ġìĭłë¬¸":8810,"Ġfamilies":8811,"aud":8812,"inity":8813,"Ġ1922":8814,"athan":8815,"Ġê·¸ëħĢìĿĺ":8816,"ifying":8817,"Ġê±°ë¶Ģ":8818,"Ġë¹Ħë¡¯íķľ":8819,"ims":8820,"ë©´ìĿĦ":8821,"Ġ1927":8822,"ĠíĽĦì§Ģ":8823,"æ±":8824,"Ġdisplay":8825,"Ġsn":8826,"Ġsmaller":8827,"87":8828,"Ġhusband":8829,"Ãº":8830,"Ġ75":8831,"ĠìĤ¬ìļ©ëĲľëĭ¤":8832,"ĠRevolution":8833,"put":8834,"ĠìķĬëĭ¤":8835,"ëŁīìĿ´":8836,"ë°ĶëĿ¼":8837,"ë²ķìĿ¸":8838,"tra":8839,"ĠìłľëıĦ":8840,"ìłķì±ħ":8841,"ĠNations":8842,"ëŁ¬ìļ´":8843,"Personal":8844,"Ġyouth":8845,"ĠIndepend":8846,"ìĿ¸ë¯¼ê³µíĻĶêµŃìĿĺ":8847,"Ġìŀ¥ìķł":8848,"Ġarrived":8849,"Ġprote":8850,"Ġletter":8851,"Ġbasis":8852,"Ġability":8853,"oud":8854,"Ġcitizens":8855,"çĻ":8856,"ìķĦíĶĦë¦¬ì¹´":8857,"University":8858,"By":8859,"Ġìĭľíĭ°":8860,"ê³łë¥¼":8861,"ternet":8862,"Ġquestion":8863,"ĠìĿ´ê³³":8864,"Ð¾Ð":8865,"ĠHong":8866,"Ġdestroyed":8867,"ĠìĿ´ìĬ¤":8868,"ìĿ¼ë³´":8869,"Ġofficially":8870,"Ġì¡°ê°ģ":8871,"Ġcultural":8872,"ingham":8873,"Ġì¤ĳê°Ħ":8874,"His":8875,"Ã¼r":8876,"Ġmotor":8877,"ĠìĭľëĮĢìĿĺ":8878,"ĠClark":8879,"ëĨĵ":8880,"íķľëĭ¤ê³ł":8881,"ìĻĢëĬĶ":8882,"ìĦ¸ëĮĢ":8883,"Ġ1921":8884,"hemat":8885,"lyn":8886,"ĠíĪ¬ìĪĺ":8887,"ĠìķĦìĤ¬":8888,"ĠëıĻê³Ħ":8889,"Ġ1910":8890,"ĠëıĦì°©":8891,"èª":8892,"ĠìĽĲìŀĳ":8893,"vin":8894,"ëį°ìĬ¤":8895,"ëĭ¨ì²´":8896,"ĠìłĦíķ´":8897,"Ġê´Ģì¸¡":8898,"åİ":8899,"ĠíĻľìļ©":8900,"Ġversions":8901,"ĠLt":8902,"Ġê¸Īì§Ģ":8903,"Ġbeat":8904,"ãĢĮ":8905,"Ġê°Ģìłķ":8906,"Ġ1900":8907,"Ġì²ŃìĨĮëħĦ":8908,"ĠìĦ¸ìĿ´":8909,"ìĦ¸íı¬":8910,"ĠTechnology":8911,"ÑĤ":8912,"íķĻìĿĦ":8913,"ëıĻìĥĿ":8914,"ĠHockey":8915,"ë¯¸ëĦĲ":8916,"Ġdirection":8917,"Ġpan":8918,"Ġinside":8919,"Ġì§ĢìĹŃìĹĲìĦľ":8920,"ĠDown":8921,"itled":8922,"ìĺ¤ìĬ¤íĬ¸":8923,"ropolitan":8924,"iary":8925,"Ġprofessor":8926,"Ġë¸Ķë£¨":8927,"ìĹ°íĺģ":8928,"!!":8929,"ĠSanta":8930,"ìĭĿìĿĺ":8931,"ressed":8932,"book":8933,"International":8934,"Ġëĭ¤ë¥´":8935,"ìĭľê°Ģ":8936,"Ġgre":8937,"Ġê·¼ê±°":8938,"íĭ°ëĵľ":8939,"ê²½ìĿĦ":8940,"Ġuns":8941,"oto":8942,"Ġê°ģë³¸":8943,"Ġhighly":8944,"Ġdedicated":8945,"ĠëħĦ":8946,"Ġwinner":8947,"ĠíĶĦë¡ľìłĿíĬ¸":8948,"Ġcommonly":8949,"ĠAnth":8950,"ĠConf":8951,"ĠPrim":8952,"FF":8953,"Ġgrowth":8954,"La":8955,"Ġblue":8956,"Ġì¤Ģë¹Ħ":8957,"ĠChris":8958,"etherlands":8959,"GA":8960,"ĠëĤĺëī":8961,"Ġperman":8962,"ĠMedia":8963,"Ġì§ĢëĤľ":8964,"ĠëĵľëŁ¬":8965,"Ġbranch":8966,"1963":8967,"itional":8968,"ìļ°ìĪĺ":8969,"Ġìŀ¬íĮĲ":8970,"ĠKir":8971,"Ġ1923":8972,"perial":8973,"Ġolder":8974,"Ġequipment":8975,"ì§Ģê²Į":8976,"ivity":8977,"ìħĶëĦĲ":8978,"Ġsilver":8979,"Ġliterature":8980,"Ġhosted":8981,"Ġë§ĮìĹĲ":8982,"ë¸Įë¦¬":8983,"ï¼ļ":8984,"ì¡°ìĦłìĿĺ":8985,"Ġintended":8986,"ansion":8987,"ëł¥ìĿĢ":8988,"Ġ1917":8989,"ĠêµŃìĻķ":8990,"ë°Ľìķĺëĭ¤":8991,"According":8992,"ĠìĹĳ":8993,"Ġë¨¼ìłĢ":8994,"Ġtrains":8995,"Ġut":8996,"ĠReview":8997,"ĠDer":8998,"Ġamount":8999,"81":9000,"Ġacademic":9001,"ë©Ķë¦¬":9002,"ĠêµŃë°©":9003,"Ġíĺģëªħ":9004,"enge":9005,"ĠìŀĲëıĻ":9006,"Ġshare":9007,"Ġì»¬":9008,"Ġìĺ¤íĽĦ":9009,"Ġëĵ±ê³¼":9010,"Ġë®¤ì§Ģì»¬":9011,"Ġproduce":9012,"Ġë§Īë¦¬":9013,"Ġsettlement":9014,"ë¬´ìĽĲ":9015,"ĠAD":9016,"Ġdrums":9017,"rie":9018,"gn":9019,"anga":9020,"Ġquickly":9021,"Ġidea":9022,".âĢĿ":9023,"Ġë²ĦìĬ¤":9024,"Ġrow":9025,"ĠĠĠĠĠĠĠĠĠĠĠĠĠĠĠĠ":9026,"Ġ1926":9027,"Ġconver":9028,"ìĤ¬ëł¹":9029,"Ġpra":9030,"ĠìĦľìª½":9031,"ĠPers":9032,"ĠIraq":9033,"Ġsymb":9034,"Ġëĵ¤ìĸ´ê°Ģ":9035,"ĠBishop":9036,"Ġbegins":9037,"ĠìłĦëĭ¬":9038,"ìĭľíĭ°":9039,"Ġcontrovers":9040,"ĠMinnesota":9041,"ĠëĤ¨íİ¸":9042,"éł":9043,"Ġterritory":9044,"Ġ1925":9045,"ë¯¸íĦ°":9046,"aska":9047,"Ġtypes":9048,"ĠStadium":9049,"Ġfifth":9050,"Ġcode":9051,"Ġfell":9052,"ìłĦìĿĺ":9053,"Ġë¯¸ìĥģ":9054,"ĠìĹ°ë§¹":9055,"ĠëĤ¨ìĦ±":9056,"Ġnation":9057,"ä¹¡":9058,"ĠCommunity":9059,"Ġfollows":9060,"Ġìľłëªħíķľ":9061,"yal":9062,"Ġsaying":9063,"ĠìłľìŀĦìĬ¤":9064,"rence":9065,"ì²ľìĭľ":9066,"Ġmaster":9067,"ĠHospital":9068,"ìĤ°ìĭľ":9069,"esh":9070,"ìĺģêµŃìĿĺ":9071,"ĠFederal":9072,"Ġsyn":9073,"ĠSingle":9074,"Ġrat":9075,"ĠAbb":9076,"ĠìĿ¼ìĸ´ëĤĺ":9077,"Ġrap":9078,"kg":9079,"ĠëĤĺë¨¸ì§Ģ":9080,"ĠPremier":9081,"Ġrevealed":9082,"ĠSwiss":9083,"Ġ55":9084,"ecting":9085,"ĠDuke":9086,"Ġstore":9087,"Ġyet":9088,"ìĤ¬ë¬´":9089,"Ġdistricts":9090,"alo":9091,"Ġwalk":9092,"Ġconducted":9093,"ìŀĲìĹĲ":9094,"Ġë§Īì°¬ê°Ģì§Ģë¡ľ":9095,"ëĥĪ":9096,"ĠSil":9097,"Ġê°ĲìĨĮ":9098,"incial":9099,"ĠìĥĿë¬¼":9100,"ĠCirc":9101,"ìĿ¸ê°Ģ":9102,"Ġëĭ¤ëĭĪ":9103,"agh":9104,"ĠStudies":9105,"íİł":9106,"pper":9107,"Ġdark":9108,"ĠBall":9109,"ader":9110,"ĠYour":9111,"ĠRom":9112,"Ġpartn":9113,"Ġcoaches":9114,"aks":9115,"real":9116,"ì¦ĪìĿĺ":9117,"Ġsites":9118,"ĠOrig":9119,"ëĭ¤ë¥¸":9120,"Ġrepe":9121,"íķĻíļĮ":9122,"ëĲĺìĹĪìľ¼ëĤĺ":9123,"ĠMaster":9124,"Ġíķ´ìķĪ":9125,"ĠBaron":9126,"ĠTony":9127,"ĠìķĦìĿ¼ëŀľëĵľ":9128,"ìŀĳìļ©":9129,"ìĹŃìľ¼ë¡ľ":9130,"ëĤ¨ëıĦìĿĺ":9131,"ui":9132,"Ġëį¸":9133,"Ġfiction":9134,"ami":9135,"ĠFame":9136,"ĠìĭľëıĦ":9137,"rical":9138,"Ġ150":9139,"ĠBol":9140,"andy":9141,"ĠíĻįì½©":9142,"Ġimmediately":9143,"ìĭľìĺ¤":9144,"Ġattend":9145,"Ġë²½":9146,"íķĺê¸°ë¡ľ":9147,"present":9148,"ìĸĢ":9149,"Ġë¶Īë¦¬ëĬĶ":9150,"Ġsoftware":9151,"PC":9152,"Ġplanned":9153,"aded":9154,"aga":9155,"ĠíĮĮë¦¬":9156,"ĠAh":9157,"Ġserves":9158,"ĠJon":9159,"ĠìĦľìĭĿ":9160,"ìĿ´ìĹĲ":9161,"ĠìĿ´ìĻ¸":9162,"Ġwinners":9163,"Ġ44":9164,"Ġê°ĦìĿĺ":9165,"Ġlay":9166,"ä¼":9167,"ĠCastle":9168,"izes":9169,"Ġsituated":9170,"Ġtreatment":9171,"Ã¢":9172,"Ġë¦°":9173,"ĠìĤ´ìķĦ":9174,"ëĤĺì¹´":9175,"ĠHy":9176,"Ġbackground":9177,"ëĭ¨ìĿĢ":9178,"Ġmax":9179,"Ġlyric":9180,"Ġì¡¸ìĹħìĭĿ":9181,"''":9182,"ç¤¾":9183,"Ġoperating":9184,"Ġassigned":9185,"ĲìĿĺ":9186,"Ġê²ª":9187,"ĠAnton":9188,"Ġproblem":9189,"Ġpurchased":9190,"Ġbig":9191,"Ġë¬ĺìĤ¬":9192,"water":9193,"Ġsemi":9194,"ĠìĬ¤ìľĦìĬ¤":9195,"con":9196,"ĠSpring":9197,"ĠSher":9198,"Ġdepartment":9199,"ëªĩ":9200,"ixed":9201,"ĠìłĦëĿ¼ëĤ¨ëıĦ":9202,"Ġinterp":9203,"Ġbehav":9204,"Ġë¶ķ":9205,"Ġê²ĥê³¼":9206,"Ġ41":9207,"ĠOrgan":9208,"Ġë¬¸íĻĶìŀ¬":9209,"itzerland":9210,"Ġstrateg":9211,"bro":9212,"Ġtable":9213,"Ġdance":9214,"ĠìĿ¼ìĿĦ":9215,"Ġtypically":9216,"Ġmanagers":9217,"ĠGolden":9218,"Ġcombined":9219,"çī":9220,"ìĦľíĬ¸":9221,"ĠSS":9222,"ĠDar":9223,"Ġë°ĺëŀĢ":9224,"style":9225,"ĠëķĮëĬĶ":9226,"which":9227,"Ġë°ľìĤ¬":9228,"Ġë°©ìĸ´":9229,"ëĿ¼ë¹ĦìķĦ":9230,"mph":9231,"ĠìľłëĮĢ":9232,"Ġinstitutions":9233,"ëłĪìĿ¸":9234,"ĠBarb":9235,"ĠíļĮìĿĺ":9236,"tainment":9237,"vest":9238,"itness":9239,"Ġê¹Ģìĺģ":9240,"Ġvote":9241,"Ġëħ¸ë¥´":9242,"lers":9243,"Ġê¼¬":9244,"ëıħìĿ¼ìĿĺ":9245,"ìºĲëĤĺëĭ¤":9246,"ë´ĩ":9247,"Ġoffers":9248,"ĠìĤ´íķ´":9249,"Ġë¡ľìĬ¤":9250,"Ġsecurity":9251,"former":9252,"Ġstreet":9253,"ê·¹ìŀ¥":9254,"ĠìĻķì¡°":9255,"ression":9256,"aped":9257,"Ġì¡°ìĦ±":9258,"ĠOp":9259,"oli":9260,"ĠSenate":9261,"ĠTennessee":9262,"ething":9263,"pass":9264,"weg":9265,"ĠHay":9266,"Ġë¹ĦìĬ·íķľ":9267,"OC":9268,"resh":9269,"osophy":9270,"èŃ":9271,"Ġhol":9272,"Ġcounter":9273,"Ġmountain":9274,"ĠìĹĲëĵľ":9275,"Ġreach":9276,"anna":9277,"ĠìĿ´ëĵ¬íķ´":9278,"Ġë¶ģë¶Ģ":9279,"Ġì£Ħ":9280,"Ġë°ĶëŀĮ":9281,"Ġwithd":9282,"Ġì¹´ë¥¼":9283,"oration":9284,"å·Ŀ":9285,"ori":9286,"ĠElizabeth":9287,"Ġleaders":9288,"íĥĲ":9289,"portation":9290,"ĠíıīíĻĶ":9291,"ĠFamily":9292,"Ġë³´ëĭ¤":9293,"ëĭ¤ìļ´":9294,"Ġpromoted":9295,"Ġìļ°ìĪĺ":9296,"ë¹Ľ":9297,"ĠíķĦìļĶíķľ":9298,"ĠíĮĮê²¬":9299,"Ġì²´íı¬":9300,"Ġdisease":9301,"Ġphysical":9302,"ounded":9303,"osis":9304,"Ġelections":9305,"oln":9306,"Ġengineer":9307,"Ġresident":9308,"Ġimplement":9309,"ĠSecretary":9310,"åł":9311,"ìģ":9312,"Ġparties":9313,"ëĭ¨ìĿ´":9314,"awn":9315,"bed":9316,"Ġswim":9317,"Ġì§Ģëªħ":9318,"Ġwa":9319,"Ġê·¹ìŀ¥":9320,"Ġë¶ĢìŀĦ":9321,"ĠGer":9322,"odies":9323,"ĠìĥģëĮĢë¡ľ":9324,"ìĪŃ":9325,"Ġìĭľìŀĳíķľ":9326,"uction":9327,"Ġmodels":9328,"ĠAff":9329,"ìĬµëĭĪëĭ¤":9330,"Ġfeel":9331,"Ġëĭ¹ìĦł":9332,"ĠëıĻë§¹":9333,"ĠìĿ¸ìĪĺ":9334,"Ġstra":9335,"ëĨĢ":9336,"ĠíĥĢìĿ´íĭĢ":9337,"elligence":9338,"Ġfish":9339,"ĠEst":9340,"usion":9341,"En":9342,"ëĭĲ":9343,"Ġplants":9344,"ĠFollowing":9345,"endment":9346,"ĠWars":9347,"Ġgrew":9348,"ĠìµľìĨĮ":9349,"Ġì¼Ħ":9350,"ĠëĤ´ê°ģ":9351,"Ġcharge":9352,"ĠDNA":9353,"Ġíĳľê¸°":9354,"Ġì¦Ĳ":9355,"ë³´ëĵľ":9356,"Notable":9357,"Ġíĺľ":9358,"íĽĦìĿĺ":9359,"achel":9360,"ĠìĿ¸ìĭĿ":9361,"Ġillust":9362,"Ġì°°":9363,"Ġprojects":9364,"æĶ":9365,"Ġë¬¸ìĦľ":9366,"Ġê²ĥìĿ´ìĹĪëĭ¤":9367,"áĦ":9368,"êµ°ê³¼":9369,"eather":9370,"Ġë²łìĬ¤íĬ¸":9371,"ë§ĪíĬ¸":9372,"ëĳĳ":9373,"lem":9374,"acement":9375,"ĠìĬ¤ì½Ķ":9376,"Ġasp":9377,"Ġê·Ģì¡±":9378,"ëŁīìĿĦ":9379,"íĸĪëĭ¤ëĬĶ":9380,"ĠNaz":9381,"Ġëįĺ":9382,"ì¡Įê³ł":9383,"Ġboy":9384,"ĠìľłëıĦ":9385,"ĠìĹŃëĮĢ":9386,"orf":9387,"Ġë¶Ģëª¨":9388,"1962":9389,"ĠLy":9390,"Par":9391,"ĠDream":9392,"Ġë°Ķê¾¸":9393,"ĠTaylor":9394,"Ġê·ľìłķ":9395,"ë¡ľê·¸":9396,"room":9397,"kin":9398,"BN":9399,"íı¬ë¥´":9400,"ographic":9401,"åħĥ":9402,"ĠBrook":9403,"çļ":9404,"Ġvan":9405,"ìļ°ëĬĶ":9406,"Ġopportun":9407,"ĠìĬ¤íĶ¼":9408,"Ġscholars":9409,"Ġpoliticians":9410,"æĿĳ":9411,"ĠNetherlands":9412,"EP":9413,"īìĿĢ":9414,"Ġstreng":9415,"Ġthink":9416,"Ġíķ´ì²´":9417,"ĠStephen":9418,"ĠìĦłìĥĿ":9419,"Ġì£¼ëıĦ":9420,"æĸ°":9421,"iders":9422,"ĠëĤ´ë¶Ģ":9423,"iated":9424,"íķĺëĤĺ":9425,"ĠEs":9426,"Ġgenus":9427,"ĠAthlet":9428,"ĠArthur":9429,"Ġì´Į":9430,"Ġ1912":9431,"Ġamb":9432,"ĠArea":9433,"Ġsport":9434,"restling":9435,"ibliography":9436,"Ġlif":9437,"ĠìłĦëŀµ":9438,"Ġactivity":9439,"stic":9440,"inner":9441,"Ġ43":9442,"kish":9443,"ova":9444,"ĠKel":9445,"Ġìłľê±°":9446,"uls":9447,"ĠìĿ´ìĬ¹":9448,"zo":9449,"Ġêµ¬ìĦ±ëĲĺìĸ´":9450,"olved":9451,"ì²łëıĦìĿĺ":9452,"Ġneeded":9453,"ì¤Ģëĭ¤":9454,"onsin":9455,"ĠAsian":9456,"Ġrecover":9457,"Ġìļ¸ìĤ°":9458,"ĠLev":9459,"ĠGreg":9460,"Ġconcent":9461,"Ġíĺķíĥľë¡ľ":9462,"ĠKorean":9463,"aki":9464,"ĠìŀĪìĹĪê³ł":9465,"isted":9466,"orge":9467,"Ġtal":9468,"ìĿ¸ëıĦ":9469,"Ġprominent":9470,"ĠEarl":9471,"ÅĤ":9472,"ìŀĲìľł":9473,"ĠìĿ´ëĵ¤":9474,"Ġrecon":9475,"Ġprin":9476,"cluding":9477,"ëĲĺê¸°ëıĦ":9478,"Ġowner":9479,"ĠìľłìĿ¼íķľ":9480,"ìĤ¬ìļ°":9481,"Ġì¶ĺ":9482,"ogs":9483,"ĠìĻĦìĦ±":9484,"Ġ51":9485,"TS":9486,"Ġëª©ìłģìľ¼ë¡ľ":9487,"æĺİ":9488,"Ġë¡¯":9489,"ĠDespite":9490,"íķ¨ìĿĦ":9491,"Ġgas":9492,"ìĹĲë¥´":9493,"ìĸ´ëĤĺ":9494,"ĠìķĪìłķ":9495,"ìĪĺë¡Ŀ":9496,"ê·¸ëŁ¬ëĤĺ":9497,"isconsin":9498,"íĶ¼ìĨĮ":9499,"Ġê°Ĵ":9500,"ging":9501,"åī":9502,"eller":9503,"ëĤ¸ëĭ¤":9504,"ĠBat":9505,"Ġarms":9506,"Ġpresence":9507,"ĠJews":9508,"Ġmixed":9509,"ë¦¬íŀĪ":9510,"ëĮĢíķĻìĽĲ":9511,"ìķĦë²Ħì§Ģ":9512,"Ġë¯¸ëĵľ":9513,"lah":9514,"Ġwins":9515,"Ġhor":9516,"aceae":9517,"Ġpiano":9518,"ĠSus":9519,"Ġpeace":9520,"æħ":9521,"Ġrare":9522,"cest":9523,"Ġì£¼ìĿĺ":9524,"ĠHal":9525,"ĠNorway":9526,"ĠId":9527,"sey":9528,"ĠAlso":9529,"íħį":9530,"íĮĮíĬ¸":9531,"ĠÄ":9532,"ĠPolice":9533,"Ġsens":9534,"ìĹ°ëĮĢ":9535,"Ġwidely":9536,"Ġindustrial":9537,"ĠìķĪìłĦ":9538,"ĠìŀĪìľ¼ëĤĺ":9539,"ĠJunior":9540,"ĠëģĿìĹĲ":9541,"ê³µìĹħ":9542,"ìĨĮìĪĺ":9543,"Ġtraffic":9544,"ë¡ľëĤĺ":9545,"ĠKim":9546,"ĠBu":9547,"Ġgiving":9548,"Ġadopted":9549,"¤¼":9550,"ĠìĤ¬ìļ©íķĺìĹ¬":9551,"rizona":9552,"Ġfavor":9553,"ĠìłģìĿ´":9554,"ĠìľĦíķ´ìĦľ":9555,"ĠâĨĶ":9556,"Ġê°ķíķľ":9557,"ĠWalk":9558,"ĠBattalion":9559,"ĠSquadron":9560,"Ġpotential":9561,"Ġportion":9562,"ĠëıĻë£Į":9563,"Ġhop":9564,"Ġprobably":9565,"Ġordered":9566,"Ġdigital":9567,"ì£¼êµĲ":9568,"Ġcorrespond":9569,"Ġanalysis":9570,"Ġagreed":9571,"æĽ¸":9572,"Ġpurs":9573,"ĠëĤ©":9574,"ening":9575,"Ġprec":9576,"Ġdistance":9577,"ìĨĮìĹĲ":9578,"ĠBec":9579,"íģ¬ëĿ¼ìĿ´ëĤĺ":9580,"ĠIndust":9581,"Ġmoving":9582,"Ġlies":9583,"Ġë©ķìĭľì½Ķ":9584,"ĠCountry":9585,"íģ¬ìĿĺ":9586,"ĠìĪĺë§İìĿĢ":9587,"Ġë³´ì¡´":9588,"ĠConc":9589,"ĠëĵĢ":9590,"ìĭľë¥¼":9591,"ë¡ľê°Ģ":9592,"ëĮĢêµ¬":9593,"Fran":9594,"Ġrespectively":9595,"ìĬ¬ëŀĮ":9596,"äºĭ":9597,"ĠìŀĪê¸°":9598,"Ġactually":9599,"VP":9600,"enna":9601,"ĠëĦĪë¬´":9602,"ĠíĺķìĤ¬":9603,"ĠIv":9604,"ĠSwitzerland":9605,"Ġunknown":9606,"ĠPrime":9607,"You":9608,"Ġrecently":9609,"Ġìľłë¦¬":9610,"ĠìĥĪë¡ľ":9611,"Ġ1908":9612,"South":9613,"uther":9614,"Ġê°ĢëĬĶ":9615,"Ġìĺ¤ìĬ¤íĬ¸ë¦¬ìķĦ":9616,"Gu":9617,"Ġê¾¸":9618,"oting":9619,"ìĨĮíĶĦíĬ¸":9620,"ĠTal":9621,"Ġë¿":9622,"ëıħìĿ¼":9623,"Ġcomposer":9624,"Ġspirit":9625,"Ġìĩ":9626,"ĠMountain":9627,"ĠSciences":9628,"Ġlargely":9629,"ëĺĲíķľ":9630,"DP":9631,"Ġenter":9632,"Television":9633,"IM":9634,"ĠFree":9635,"Ġë³´ëıĦ":9636,"ĠìĹĶíĦ°íħĮìĿ¸ë¨¼íĬ¸":9637,"ĠíĬĢ":9638,"ĠëĵĿìłĲ":9639,"Ġcoming":9640,"Ġvocal":9641,"Ġsuffered":9642,"Ġê¸°ìĤ¬":9643,"Ġtherefore":9644,"Ġëª»íķľ":9645,"etting":9646,"ĠíĮĢìĿĺ":9647,"ìłľê°ķ":9648,"Ġinstrument":9649,"ĠìħĢ":9650,"pson":9651,"Ġê³µë¦½":9652,"asty":9653,"Ġ47":9654,"ë¹Ħëĵľ":9655,"Ġê³µê¸ī":9656,"ĠAlf":9657,"èģ":9658,"ì¡¸ìĹħ":9659,"ë§ĪìĿĦ":9660,"å½":9661,"Olymp":9662,"ibly":9663,"Ġìµľê³łìĿĺ":9664,"IP":9665,"ê³¼ìĹĲ":9666,"ìĭĿìĿĢ":9667,"Ġsexual":9668,"ê³łëł¤":9669,"ãĢģ":9670,"ĠUs":9671,"Ġleaves":9672,"ĠìķĮëłīìĤ°":9673,"ervative":9674,"ĠìĿ´ë¦ĦìĿ´":9675,"Ġemployed":9676,"ĠMemorial":9677,"Ġtells":9678,"Ġì¤ĳêµŃìĿĺ":9679,"èĢ":9680,"ĠMissouri":9681,"Ġexpanded":9682,"ĠMarc":9683,"Ġscope":9684,"Ġtarget":9685,"Ġgraduated":9686,"Ġdistribution":9687,"ë©ĶëĿ¼":9688,"Ġbad":9689,"acc":9690,"ëł¤ê³ł":9691,"Ġdemonstr":9692,"Ġê·¼ë¬´":9693,"ê´Ħ":9694,"omot":9695,"æŃ£":9696,"Ġgives":9697,"Ġì´¬ìĺģíķľ":9698,"Ġ120":9699,"ika":9700,"Ġê¸°ìŀ¬":9701,"Ġíķ©ë¥ĺ":9702,"Ġêµ´":9703,"Ġsays":9704,"ĠLewis":9705,"ë§ĮìĹĲ":9706,"Ġsplit":9707,"Ġflight":9708,"iral":9709,"è³":9710,"ĠDam":9711,"Ġë¸Įëŀľëĵľ":9712,"Ġìłľëª©":9713,"Ġì²ľë¬¸":9714,"ĠGreece":9715,"ĠAnother":9716,"ighth":9717,"1961":9718,"ĠìĿĺíķĺë©´":9719,"ĠTok":9720,"ĠHart":9721,"íķĻìĿĺ":9722,"HE":9723,"Ġpet":9724,"under":9725,"vN":9726,"also":9727,"ì¹ĺìĿĺ":9728,"Year":9729,"BM":9730,"Ġëĵ£":9731,"Ġìĸ´ë¦°ìĿ´":9732,"Ġìħ°":9733,"aph":9734,"Ġíı¬ë¥´íĪ¬ê°Ī":9735,"ë°±ì§Ī":9736,"ĠìķĦì¹¨":9737,"Ġforward":9738,"Ġê´Ģì°°":9739,"Ġroles":9740,"Ġagreement":9741,"Ġëĭ¤ë£¨":9742,"Ġfast":9743,"íĶĦê°Ģ":9744,"ĠIV":9745,"Ġì¤Ģê³µ":9746,"emic":9747,"ĠëĸłëĤĺ":9748,"ĠBusiness":9749,"ĠëĮĢíķ´ìĦľ":9750,"ĠCzech":9751,"aret":9752,"Ġíı¬ì§Ģìħĺ":9753,"ëıĦë¥´":9754,"Ġì¡°ìĦłë¯¼ì£¼ì£¼ìĿĺ":9755,"ë¯¸ìĸ´":9756,"Ġsurrounding":9757,"Ġurban":9758,"Ġretire":9759,"Ġìĭłê²½":9760,"ĠForm":9761,"Ġetc":9762,"Ġgraph":9763,"Ġcaptured":9764,"ì»·":9765,"ì¡°ì§ģ":9766,"ëĦ¤ìĭľìķĦ":9767,"íķĺëĭ¤ê°Ģ":9768,"Ġê°Ģìŀħ":9769,"ĠPit":9770,"Ġathlet":9771,"ĠWat":9772,"Ġë§ĪìĿ´íģ´":9773,"Ġfigure":9774,"Ġefforts":9775,"aro":9776,"Ġethn":9777,"Ġtheatre":9778,"Art":9779,"Ġpict":9780,"Ġë²Ĺ":9781,"ë¶ķ":9782,"ĠMarsh":9783,"Ġprep":9784,"Ġcerem":9785,"Ġformerly":9786,"ĠEntertainment":9787,"Ġdial":9788,"ĠìĦ±ìłģ":9789,"ĠíķŃìĥģ":9790,"Ġcoin":9791,"ĠíķľêµŃìĿĺ":9792,"Ġì§ĢëĥĪëĭ¤":9793,"ĠìĹ°ì¶ľ":9794,"Ġcompared":9795,"ancing":9796,"oster":9797,"ëıĦì¿Ħ":9798,"weight":9799,"Ġì§ĢìĹŃìĿĦ":9800,"Ġvehicles":9801,"ìĦ±êµ°":9802,"Ab":9803,"Ġimmig":9804,"Ġìłľê¸°":9805,"ìŀĳíĴĪ":9806,"ĠìĻ¼":9807,"ĠTrust":9808,"ĠHoly":9809,"May":9810,"Ġê±´ê°ķ":9811,"ë¡Ńê²Į":9812,"Hz":9813,"æ³ķ":9814,"ê°ĻìĿĢ":9815,"ĠIndiana":9816,"é»":9817,"ĠTurkey":9818,"ĠìĥĮ":9819,"ito":9820,"Ġfirm":9821,"Ġpal":9822,"UK":9823,"Ġscoring":9824,"ĠSweden":9825,"ĠSav":9826,"onents":9827,"Ġ52":9828,"Ġchampion":9829,"Ġclassical":9830,"ìłĲìľ¼ë¡ľ":9831,"ĠìķĦëĭĪëĭ¤":9832,"aug":9833,"ois":9834,"Ġì§Ģìłģ":9835,"ê´ĢìĿ´":9836,"Ġsearch":9837,"ĠStory":9838,"ê³µìĿĺ":9839,"ĠíĻįë³´":9840,"ëıĦìĻĢ":9841,"Ġroll":9842,"yes":9843,"ë°ĸ":9844,"ĠDJ":9845,"Ġconstitu":9846,"Äį":9847,"ĠBrian":9848,"ĠRoss":9849,"Ġê²ĮìĿ´":9850,"Ġestate":9851,"ìĺĢìľ¼ë©°":9852,"ĠHan":9853,"AL":9854,"ĠSound":9855,"ĠìĨĮëħĢ":9856,"Ġsecret":9857,"Ġexec":9858,"ë¦¬íĬ¸":9859,"Ġë§ĪìĿ´íģ¬ë¡ľ":9860,"Ġarts":9861,"ĠSF":9862,"ĠKansas":9863,"|}":9864,"ĠëĤ®ìĿĢ":9865,"ĠëĤ³":9866,"ëł¥ìĿĺ":9867,"estic":9868,"Ġshop":9869,"ĠìłĦìĭľ":9870,"ĠìŀĳìĦ±":9871,"Ġnewly":9872,"Ġtemple":9873,"ĠAP":9874,"ĠìĪĺëĬĶ":9875,"Ġë³´ìĪĺ":9876,"ë°Ķë¥´":9877,"ĠHeart":9878,"Ġëĭ¤ë§Į":9879,"¥íĦ°":9880,"êµŃìĿ´":9881,"gg":9882,"ìłĲìĹĲìĦľ":9883,"Ġclasses":9884,"ĠëĮĦ":9885,"Ġlake":9886,"ìŀīê¸ĢëŀľëĵľìĿĺ":9887,"ĠìķĦì¹´ëį°ë¯¸":9888,"ĠìĻĦê³µ":9889,"Ġtrue":9890,"Ġengineering":9891,"Ġmiles":9892,"ëħ¸ëıĻ":9893,"Ġconcert":9894,"osen":9895,"ĠíĤ¹":9896,"Ġë´Ħ":9897,"Ġtaught":9898,"Ġhundred":9899,"Ġhab":9900,"ĠìĿĺë¯¸íķľëĭ¤":9901,"Ġtree":9902,"ĠìĿ´ì§ĳ":9903,"ĠWW":9904,"ìķĺê³ł":9905,"Back":9906,"ĠìĦľë¹Ħ":9907,"ĠMelbourne":9908,"ìłľê°ķìłĲ":9909,"ĠëıĻìĿ¼":9910,"Ġjoint":9911,"ĠWisconsin":9912,"Ġadapt":9913,"ĠëĤĺíĥĢëĤĺ":9914,"iques":9915,"ĠRegion":9916,"ĠFinal":9917,"ìĬ´":9918,"Ġ46":9919,"çĶ°":9920,"ìłĦë¬¸":9921,"ê²½ìĥģ":9922,"ì¼Ħ":9923,"Ġìłķë¶ĢëĬĶ":9924,"ĠìĻĶëĭ¤":9925,"ìŀĲìĿ´ëĭ¤":9926,"ĠUt":9927,"Ġabandon":9928,"ĠHo":9929,"CS":9930,"Ġê¸°ê³Ħ":9931,"sex":9932,"ĠMoon":9933,"Ġêµ°ì£¼":9934,"Ġë§¹":9935,"1959":9936,"è²":9937,"\"(":9938,"ooth":9939,"ë¶Ģìŀ¥":9940,"æł¡":9941,"ĠHard":9942,"ìĸ´ì¡Įëĭ¤":9943,"Ġquality":9944,"Ġgranted":9945,"unch":9946,"onym":9947,"ĠAFC":9948,"ĠêµĲì²´":9949,"ëĦ¬":9950,"ëĭ¹ìĿĢ":9951,"Ġaccepted":9952,"ìĹĲìĿ´":9953,"ìĮ":9954,"Ġresulted":9955,"aints":9956,"UN":9957,"ĠìĭłìĿ¸":9958,"Ġgoes":9959,"grad":9960,"Ġcells":9961,"ĠStand":9962,"ĠProfessor":9963,"Ġì¤ĳìĹĲìĦľ":9964,"mes":9965,"Ġsuit":9966,"1940":9967,"aling":9968,"ìĭ±íĦ´":9969,"Ġresulting":9970,"har":9971,"Ġì¶ľìĭłìĿĺ":9972,"ĠëıĻë¶Ģ":9973,"ĠBack":9974,"Ġìĺ¤ë¥´":9975,"íĺķìĿĺ":9976,"ĠLind":9977,"Ġreduced":9978,"ĠPass":9979,"ante":9980,"è«":9981,"Ġhousehold":9982,"Ġmedalists":9983,"ĠìŀĪì§Ģ":9984,"Ġestimated":9985,"Ġë³´ìĿ´":9986,"ì¼ĢìĿ´":9987,"Ġcannot":9988,"ìŀĲìĿ´":9989,"elle":9990,"Biography":9991,"life":9992,"iate":9993,"ĠíĹĪìļ©":9994,"ĠEngineering":9995,"urd":9996,"Ġê²½ìļ°ìĹĲëĬĶ":9997,"Ġë¶Ģë¥¸ëĭ¤":9998,"Ġê´Ģê³Ħë¥¼":9999,"Ġsil":10000,"incoln":10001,"Ġracing":10002,"ëĶ°":10003,"Ġdeclared":10004,"Ġê²½ê³Ħ":10005,"ë¥ľ":10006,"Ġheav":10007,"íĤ¤ìķĦ":10008,"Ġìĺ¤ë¦¬":10009,"urches":10010,"ĠRang":10011,"Ġattention":10012,"ĠBi":10013,"ĠJer":10014,"Disc":10015,"ĠMilitary":10016,"Ġë§ĲìĿĦ":10017,"bums":10018,"Ġapproach":10019,"ê´Ģê³Ħ":10020,"ìĨĮë¡ľ":10021,"ĠìĹ¬ìłĦíŀĪ":10022,"ji":10023,"ê¶ĮìĿĺ":10024,"Ġairport":10025,"ëĭĪìķĦìĿĺ":10026,"Ġ1915":10027,"urrent":10028,"Ġcontemporary":10029,"ĠìķĪìĹĲ":10030,"ĠCaptain":10031,"ë£©":10032,"onent":10033,"Australian":10034,"ĠíĮĮìĿ¼":10035,"Ã£o":10036,"ç¶":10037,"Ġspons":10038,"Ġë³´ì»¬":10039,"Ġsubs":10040,"Ġêµ¬ì¶ķ":10041,"ìĤ°ìĿĺ":10042,"Ġwild":10043,"Ġpack":10044,"Ġtrial":10045,"ìĽĶê¹Įì§Ģ":10046,"ãĢİ":10047,"Ġmess":10048,"ìłģìĿ´ê³ł":10049,"Ġfloor":10050,"pool":10051,"ĠColorado":10052,"mitted":10053,"Ġcam":10054,"ĠNH":10055,"Ġsculpt":10056,"Ġ(,":10057,"Ġfounder":10058,"Ã©e":10059,"Ġconnected":10060,"ĠëĤĺì¤ĳìĹĲ":10061,"anchester":10062,"ë©Ķëĭ¬ìĿĦ":10063,"ĠMaria":10064,"Ġtitled":10065,"ĠìłĦìĦ¤":10066,"ĠPhilip":10067,"Ġvillages":10068,"Death":10069,"ãĢĭ()":10070,"ëįĶìĬ¤":10071,"ĠNFL":10072,"Ġ65":10073,"1958":10074,"íķĺìĺĢëĬĶëį°":10075,"Ġcrime":10076,"works":10077,"Ġdesignated":10078,"çľ":10079,"Ġì¸ł":10080,"Ġsales":10081,"ìķĪìĿĦ":10082,"Ġê¸°ìĸµ":10083,"Ġpositive":10084,"Rail":10085,"iminal":10086,"Ġstone":10087,"Ġfellow":10088,"ìľłë¥ĺ":10089,"Ġìĭ¤íĸī":10090,"íŀĪë¡ľ":10091,"ĠíĺĳíļĮ":10092,"Ġstars":10093,"ĠMarg":10094,"iling":10095,"è¥":10096,"ê³±":10097,"Ġrob":10098,"ĠìĿĺê²¬":10099,"ì²©":10100,"ĠëĮĢë¥Ļ":10101,"ĠSwedish":10102,"Ġê°Ŀ":10103,"BT":10104,"Ġinjury":10105,"lahoma":10106,"ì¹ĺë¡ľ":10107,"çĲ":10108,"Ġflag":10109,"Ġê²½ê¸°ë¥¼":10110,"Ġspring":10111,"ĠArmen":10112,"ìĺĢê³ł":10113,"roup":10114,"Ġbott":10115,"íĤ¤ìĬ¤íĥĦ":10116,"Ġcolumn":10117,"Ġrestaur":10118,"ĠColon":10119,"anes":10120,"aron":10121,"ester":10122,"ĠìĿĢíĸī":10123,"Ġê²ĥëıĦ":10124,"Ġ1913":10125,"ìĻķìĿĺ":10126,"Ġgained":10127,"Ġattacks":10128,"1956":10129,"Ġtalk":10130,"Ġrecognized":10131,"ivals":10132,"ns":10133,"1955":10134,"Ġê²ĢìĤ¬":10135,"ĠDun":10136,"Ġì¶©ëıĮ":10137,"AA":10138,"1957":10139,"OL":10140,"ĠSab":10141,"Ġperformances":10142,"ĠDesign":10143,"ì¿¨":10144,"Ġëĭ¨ê³Ħ":10145,"ĠDavis":10146,"ĠìľłëĤĺìĿ´":10147,"ĠAdminist":10148,"Ġhap":10149,"ĠìķĦìļ°":10150,"erick":10151,"see":10152,"Ġë¬¸ìłľë¥¼":10153,"ĠíĥĢì¹´":10154,"ĠìĿ¸ë¯¼":10155,"ĠSpace":10156,"ĠRegulations":10157,"íĦ°ë¦¬":10158,"ĠëĮĢíķ´ìĦľëĬĶ":10159,"ìĥĿë¬¼":10160,"Ġgovernor":10161,"Ġelim":10162,"anton":10163,"Ġì§ģíĽĦ":10164,"ĠëĨįìĹħ":10165,"ĠRad":10166,"Ńī":10167,"è¶":10168,"aver":10169,"iller":10170,"Ġ1911":10171,"pet":10172,"ä¾":10173,"ĠìĦľë¶Ģ":10174,"ĠëĦ¤ìĿ´":10175,"ìĹĩ":10176,"Bas":10177,"ĠìĤ¬ìĿ´ìĹĲìĦľ":10178,"ìŀĲíĤ¤":10179,"law":10180,"Ġtwice":10181,"ĠBrad":10182,"ĠTemple":10183,"uous":10184,"æ¨":10185,"Ġir":10186,"Ġë±":10187,"Ġìĸ¼êµ´":10188,"ĠìĹħë¬´":10189,"íĶĦëŀĳìĬ¤":10190,"ĠìĨĮëħĦ":10191,"owa":10192,"ĠìŀĲì²´":10193,"ìĿĺìĽĲ":10194,"ë®":10195,"Ġprincipal":10196,"Ġìĸ¼ë§Ī":10197,"ĠSix":10198,"ĠDark":10199,"ĠìĤ¬íķŃ":10200,"ì£¼ìĹĲìĦľ":10201,"Ġê³ĦìĬ¹":10202,"Ġbatt":10203,"ĠìľĪëıĦìļ°":10204,"ĠSu":10205,"agan":10206,"Ġì§ĳì¤ĳ":10207,"RE":10208,"ĠPolit":10209,"illery":10210,"uese":10211,"Ġoccurred":10212,"ĠìĿ¼ìĸ´ëĤľ":10213,"ìľ¼ë©´ìĦľ":10214,"ĠìĤ¬ëł¹":10215,"ateur":10216,"regon":10217,"adesh":10218,"Ġwall":10219,"Ġallows":10220,"Ġë¡¯ëį°":10221,"ĠDiv":10222,"Dav":10223,"rell":10224,"Ġkept":10225,"ëĭĽ":10226,"ëı¼":10227,"Ġmarked":10228,"à¤":10229,"Ġìī¬":10230,"aste":10231,"Ġoldest":10232,"rum":10233,"ìķ¤ìł¤":10234,"leep":10235,"Ġpressure":10236,"Ġfacility":10237,"Ġcarri":10238,"ĠKal":10239,"Ġslow":10240,"íĻĶìĹĲ":10241,"Ġê³µíı¬":10242,"ĠìĥģìĹħ":10243,"íĹ¬":10244,"Ġpattern":10245,"Ġcandidate":10246,"ĠTest":10247,"ĠLeon":10248,"Ġreference":10249,"ìłľêµŃ":10250,"weet":10251,"åĳ":10252,"ĠNA":10253,";\"|":10254,"ëĲĺìĹĪëįĺ":10255,"æľ¬":10256,"ĠìłĦì²ł":10257,"Ġreports":10258,"Ġgreater":10259,"íħĮë¥´":10260,"aria":10261,"ĠìĹ°íĺģ":10262,"ĠCommand":10263,"æº":10264,"Ġ1916":10265,"ĠMun":10266,"ĠëĦĺìĸ´":10267,"roit":10268,"Ġspread":10269,"ë¶ĦìĹĲ":10270,"orney":10271,"Japan":10272,"Ġì°¸ìĹ¬íķĺìĺĢëĭ¤":10273,"ĠìĺģìĹŃ":10274,"Ġdamage":10275,"êµ¬ì¡°":10276,"Ġë°ĺë©´":10277,"ĠPlan":10278,"Ġìłķì°©":10279,"é¦":10280,"Ġthous":10281,"Ġë§Įëĵ¤ìĹĪëĭ¤":10282,"ĠGil":10283,"Ġfestival":10284,"ĠDisc":10285,"My":10286,"Ġë¬´ìĹŃ":10287,"Ġëħ¸ëł¥":10288,"Ġì¸¡ìłķ":10289,"Ġì±ħìŀĦ":10290,"Ġë¹¼":10291,"ĠChannel":10292,"rett":10293,"Ġhands":10294,"ĠìĿ¸ê·¼":10295,"Ġì¢ħì¢ħ":10296,"ĠìķĦë¦Ħ":10297,"'.":10298,"Ġthings":10299,"ìĥģê³¼":10300,"Ġslight":10301,"eding":10302,"ĠVietnam":10303,"claim":10304,"Ġsac":10305,"Ġknowledge":10306,"sch":10307,"Ġdisestab":10308,"Ġìĺ¨ëĿ¼ìĿ¸":10309,"ëĮĢìĻĢ":10310,"ìĦłìĿĢ":10311,"Ġweight":10312,"Euro":10313,"Ġformation":10314,"enny":10315,"Geography":10316,"ĠHou":10317,"ëĲĲ":10318,"ĠíĻĶíķĻ":10319,"Ġidentified":10320,"ë¶ĦìĿĦ":10321,"1948":10322,"OP":10323,"Ġofficials":10324,"300":10325,"BI":10326,"ê°Ģë¡ľ":10327,"Ġëª»íķĺê³ł":10328,"Ġteacher":10329,"Ġstrugg":10330,"Ġë³´ìĹ¬ì£¼":10331,"ĠìĤ¬ìļ©ëĲĺëĬĶ":10332,"ĠíĥľíĴį":10333,"kes":10334,"uting":10335,"ĠìĦ¤ìłķ":10336,"umes":10337,"Ġsquad":10338,"Ġserious":10339,"êµ¬ì¹ĺ":10340,"ë±ħ":10341,"Ġê³ĦìĤ°":10342,"Ġëŀĺ":10343,"Christ":10344,"je":10345,"ĠBalt":10346,"olished":10347,"ĠíĨµìĭł":10348,"Ġìłķì¹ĺìłģ":10349,"Ġregist":10350,"cont":10351,"ĠBon":10352,"Ġjournalist":10353,"ĠMic":10354,"Ġíı¬ìľłë¥ĺ":10355,"met":10356,"Ġgod":10357,"ĠFle":10358,"Ġhousing":10359,"ĠEconom":10360,"Ġë¯¸ìķ¼":10361,"Olympic":10362,"hr":10363,"ëĮĢìĤ¬":10364,"Ġdraft":10365,"erto":10366,"Ġì¦īìľĦ":10367,"eline":10368,"Ġìı":10369,"lov":10370,"ordon":10371,"ĠHor":10372,"Res":10373,"Ġacting":10374,"ĠChristmas":10375,"ìłĦìĿ´":10376,"ë³µì§Ģ":10377,"ĠMalays":10378,"urer":10379,"Ġê°ľìłķ":10380,"Ġ1907":10381,"Sources":10382,"Ġcreation":10383,"ĠëĤ¨ë¶ģ":10384,"ĠíĬ¸ë¦¬":10385,"åĲĽ":10386,"western":10387,"Ġê°ģì¢ħ":10388,"Act":10389,"chers":10390,"iants":10391,"ĠJesus":10392,"iat":10393,"Ġfair":10394,"ĠìĤ¬ëŀĮìĿĢ":10395,"wegian":10396,"åĸ":10397,"outs":10398,"Ġê±°ë¦¬":10399,"Ġë¡ľë²ĦíĬ¸":10400,"åĴ":10401,"ìĭľìŀ¥":10402,"ĠWeek":10403,"ĠëłĪì½Ķëĵľ":10404,"ë©ľ":10405,"1954":10406,"ê°Ķ":10407,"ìľłíĤ¤":10408,"ìĭľíĤ¤ê³ł":10409,"eral":10410,"Ġnortheast":10411,"ĠìłĬìĿĢ":10412,"êµĲëıĦ":10413,"ordin":10414,"lywood":10415,"Ġhall":10416,"íĶĦëĬĶ":10417,"ĠìĺĨ":10418,"ĠRoy":10419,"Ġpositions":10420,"Ġminister":10421,"Ġhar":10422,"ĠMunicip":10423,"ê°ĢíĥĢ":10424,"ĠìłĦìļ©":10425,"Ġê°ĲìĹ¼":10426,"ëŁīìĿĢ":10427,"ĠBos":10428,"ì½ĶìĿĺ":10429,"ĠHu":10430,"íĢ´":10431,"Ġê°ľìĦł":10432,"MP":10433,"Ġrac":10434,"Ġfully":10435,"ashion":10436,"Ġfaculty":10437,"ë¶ĢìĿ¸":10438,"Ġcombat":10439,"Ġconflict":10440,"Def":10441,"ĠKhan":10442,"Ġê°Ģê¹Įìļ´":10443,"Ġclaims":10444,"iny":10445,"ĠDor":10446,"irmed":10447,"Ġtheme":10448,"wing":10449,"Ġproviding":10450,"Ġrecomm":10451,"ĠDoctor":10452,"Ġë§Īìĵ°":10453,"Ġmap":10454,"ĠëĮĢíķĻìĽĲ":10455,"ĠTownship":10456,"ĠëĮĢìĤ¬":10457,"ĠíĶ½":10458,"ĠArizona":10459,"ĠìķŀëĳĲê³ł":10460,"Ġanimals":10461,"æĥ":10462,"Ġcondition":10463,"Ġbacking":10464,"ĠLike":10465,"Ġvari":10466,"ĦëĬĶ":10467,"eces":10468,"ĠFrancis":10469,"Ġreform":10470,"æĪĲ":10471,"oes":10472,"Ġë°ľíĳľíĸĪëĭ¤":10473,"mouth":10474,"ĠCra":10475,"ĠSem":10476,"ĠëĤĺëĪĦ":10477,"Ġëª¨ë¦¬":10478,"Ġlabor":10479,"Ġregions":10480,"Ġìłķìĥģ":10481,"ê³µìĽĲ":10482,"Ġnotes":10483,"ĠMiller":10484,"Ġsuppl":10485,"General":10486,"ì¤":10487,"Ġcontent":10488,"Ġcontact":10489,"ĠTurn":10490,"unte":10491,"Ġcontest":10492,"Ġcastle":10493,"Ġì¡°ìłķ":10494,"William":10495,"Ġë¬¸ìłľê°Ģ":10496,"Ġallowing":10497,"Ġë°ĳ":10498,"íķ´ì¡Įëĭ¤":10499,"ĠAT":10500,"Ġencour":10501,"ĠAtlantic":10502,"ëĤĺìĻĢ":10503,"ega":10504,"Ġì¦Ŀê±°":10505,"ĠRoll":10506,"ĠìĦ¸ë¥´":10507,"ì²ľêµ°":10508,"apore":10509,"Ġranked":10510,"íķ´ë¥¼":10511,"ìĽł":10512,"ĠWho":10513,"Ġ1906":10514,"Ġlett":10515,"Ġmaintain":10516,"ÃĹ":10517,"asters":10518,"Ġvolume":10519,"Ġparticipated":10520,"ëľ¨":10521,"ëŀ«íı¼":10522,"Ġsuggested":10523,"ä¸Ĭ":10524,"Ġëªĩëªĩ":10525,"Ġadministrative":10526,"ĠModern":10527,"pa":10528,"Ġmom":10529,"Ġì²Ļ":10530,"ëŁīìĿĺ":10531,"Ġêº":10532,"ìļ´ìĦľ":10533,"Ġaccident":10534,"ĠChampions":10535,"ĠìłĦìĤ¬":10536,"ĠìľĦìĿĺ":10537,"Ġì§ĳëĭ¨":10538,"Ġíķĺê¸°":10539,"ìĤ¬ì§Ħ":10540,"ĠìľłìłĦ":10541,"Ġlosing":10542,"Ġìŀ¥ê¸°":10543,"ĠTelevision":10544,"Ġëĥī":10545,"vo":10546,"Ġnet":10547,"Ġsimply":10548,"ogy":10549,"æ¥":10550,"ĠìĪĺìĽĲ":10551,"Ġcompletely":10552,"Ġì£¼ë§Ĳ":10553,"¼Ī":10554,"Ġreviews":10555,"Ġwing":10556,"ĠìĭľìŀĳíķĺìĺĢëĭ¤":10557,"ĠPict":10558,"ublin":10559,"ĠìĤ¬ìĭ¤ìĿĦ":10560,"Ġê·¸ëłĪìĿ´":10561,"Ġbron":10562,"å¤ª":10563,"Ġì£¼ëª©":10564,"å£":10565,"Ġìłľìłķ":10566,"Ġê°ķì¡°":10567,"ì¶Ķìĸ´":10568,"ĠìĦłê±°êµ¬":10569,"Ġneighborhood":10570,"ownt":10571,"ìħ°":10572,"Ġarchitecture":10573,"Ġìĺ¤ìĬ¤":10574,"ìĿ´ë¡ľ":10575,"Ġopera":10576,"ÃŃa":10577,"ifications":10578,"Ġtele":10579,"ĠWolf":10580,"íĶĦëłĪ":10581,"Ġìĺ¤ìĬ¤íĬ¸ëłĪìĿ¼ë¦¬ìķĦ":10582,"ibb":10583,"ĠíĨµìĤ°":10584,"ĠìłľìĻ¸íķľ":10585,"zen":10586,"ĠíĻķëĮĢ":10587,"Digital":10588,"ĠBoys":10589,"wealth":10590,"Ġì£½ìĿĮ":10591,"ê°Ģìĭľ":10592,"ìķĦë©Ķë¦¬ì¹´":10593,"Ġ1905":10594,"Ġsettled":10595,"hedral":10596,"Qu":10597,"anning":10598,"Ġìį¼":10599,"Ġê°Ħì£¼":10600,"\"),":10601,"Ġreceive":10602,"Ġrural":10603,"Ġeas":10604,"ĠëĴ·":10605,"Ġë¯¼ê°Ħ":10606,"ç¸":10607,"é¾":10608,"econd":10609,"Ġfelt":10610,"Ġyounger":10611,"ML":10612,"Ġìĭľìŀ¥":10613,"Ġfighting":10614,"Ġcouple":10615,"Ġple":10616,"Ġhy":10617,"ĠNow":10618,"ë¥´íĥĢ":10619,"ìĿ¼ìĿĢ":10620,"Ġìĺ¬ëŀĲëĭ¤":10621,"ãģĦ":10622,"ĠBarn":10623,"Ġmut":10624,"ìĿ¸ì²ľ":10625,"ĠMS":10626,"Ġì£¼ìĹ°ìľ¼ë¡ľ":10627,"ĠWrit":10628,"Ġdocumentary":10629,"ĠStat":10630,"Ġends":10631,"irus":10632,"¾Į":10633,"Ġpurpose":10634,"ĠìłĦì°¨":10635,"Ġëļ":10636,"ĠOrchestra":10637,"Ġgrowing":10638,"Ġëŀľ":10639,"ban":10640,"French":10641,"Ġimpact":10642,"ĠRen":10643,"ĠìĬ¹ê°ķìŀ¥":10644,"ĠVi":10645,"Ġì²´ê³Ħ":10646,"ician":10647,"ikh":10648,"æµ·":10649,"Ġê²¨ìļ¸":10650,"ëĤ´ê³ł":10651,"ĠKentucky":10652,"ĠìĤ¬íļĮìłģ":10653,"Ġì¢ħëª©":10654,"ìķ¨":10655,"íķĺìĹĲ":10656,"ìĦ±ìľ¼ë¡ľ":10657,"Ġwear":10658,"tr":10659,"ĠDC":10660,"ĠBurn":10661,"Ġvess":10662,"ìĬĪíĥĢ":10663,"ëŁ¬ë¦¬":10664,"ĠMas":10665,"Ġë§ĮëĵľëĬĶ":10666,"Ġentry":10667,"ĠëĴ¤ìĹĲ":10668,"ĠTen":10669,"Ġhero":10670,"from":10671,"Ġë¶ĦìŁģ":10672,"ë©Ķë¦¬ì¹¸":10673,"ĠëłĪëĵľ":10674,"Ġlyrics":10675,"Ġauthority":10676,"ĠëĳĶ":10677,"ìĭľìĬ¤":10678,"ìĿ¸ëĵ¤ìĿ´":10679,"joy":10680,"iva":10681,"ĠPier":10682,"miss":10683,"å³":10684,"Ġexperiment":10685,"ê°ľë¥¼":10686,"Ġleadership":10687,"Ġsevent":10688,"Ġce":10689,"Ġdefin":10690,"oured":10691,"cluded":10692,"ìĭ¤ìĿĦ":10693,"Ġfolk":10694,"ĠStock":10695,"Ġorganized":10696,"Ġpoll":10697,"ê³łìĨįëıĦë¡ľ":10698,"Songs":10699,"ìĨĮìĦ¤":10700,"Ġìłķë¦¬":10701,"ì§Ģë¦¬":10702,"Ġvehicle":10703,"Ġunique":10704,"Ġimage":10705,"Ġexpansion":10706,"ĠìĮĵ":10707,"Cont":10708,"hips":10709,"ç¾©":10710,"wich":10711,"ĠíĸīìĤ¬":10712,"ĠìĿ´ëŀĺ":10713,"Ġìĺ¤íĶĪ":10714,"íĺ¸ê°Ģ":10715,"Ġacid":10716,"acts":10717,"ĠHamp":10718,"ĠìłľìĿ´":10719,"íĥĢë¡ľ":10720,"Ġ54":10721,"ĠìĪĺê°Ģ":10722,"Ġì¶©ì²ŃëĤ¨ëıĦ":10723,"Ġcaptain":10724,"Ġ59":10725,"'(":10726,"ìĹĲê²ĮëĬĶ":10727,"Ġë²łëĦ¤":10728,"Ġextra":10729,"ĠëĮĢíļĮìĹĲìĦľ":10730,"Ġìĭ¤ìłľë¡ľ":10731,"Ġox":10732,"Ġì½©":10733,"ĠFederation":10734,"1946":10735,"Ġfans":10736,"Ġíķ¨ìĪĺ":10737,"inally":10738,"Ġplayoff":10739,"evin":10740,"ìľĦìĽĲìŀ¥":10741,"Î±":10742,"ĠìķĮìķĦ":10743,"Ġì¶ľë°ľ":10744,"Ġ;":10745,"Ġtried":10746,"Ġcritical":10747,"ĠìĿ´ìĬ¬ëŀĮ":10748,"lan":10749,"ĠëĿ¼ìĿ¸":10750,"ĠRepresentatives":10751,"DA":10752,"ĠMaryland":10753,"uled":10754,"ĠìŀĲìĿ´":10755,"ĠìĿ´ìĭľ":10756,"erved":10757,"Ġcharts":10758,"ĠìĿ´ëłĩê²Į":10759,"ëĵ±ìŀ¥":10760,"ectic":10761,"ë¶ģëıĦìĿĺ":10762,"Ġbrothers":10763,"Ġdoub":10764,"ĠInfantry":10765,"ĠìķĦë©Ķë¦¬ì¹´":10766,"1952":10767,"III":10768,"inth":10769,"Ġê°¤":10770,"ĠìĭľìĿ¸":10771,"Ġë§Īë²ķ":10772,"ĠAud":10773,"ĠMinistry":10774,"ê¸°ê³ł":10775,"ĠìĨĶë¡ľ":10776,"ì¤ĳêµŃìĿĺ":10777,"rast":10778,"ĠìĿ´ìĬ¤ëĿ¼ìĹĺ":10779,"Ġexpected":10780,"ĠíķĺëĬĺ":10781,"Ġsumm":10782,"ë¹Ħê°Ģ":10783,"Ġtim":10784,"ĠëĳĺëŁ¬":10785,"ĠìļĶì½Ķ":10786,"ĠMexican":10787,"ë§ĪìĿĺ":10788,"Ġmill":10789,"Ġì±ĶíĶ¼ìĸ¸ìĬ¤":10790,"Dec":10791,"Ġoccasion":10792,"ourney":10793,"êµĲìĿĺ":10794,"ĠìĤ¬ë¡Ģ":10795,"ĠManchester":10796,"ĠìľłìĹĶ":10797,"Ġcontain":10798,"Ġpaid":10799,"âĨ":10800,"ĠStone":10801,"Ġê¸°ëĬ¥ìĿĦ":10802,"Video":10803,"Ġìłķë¶ĢìĿĺ":10804,"ĠëĮĢíĳľìłģìĿ¸":10805,"íŀĺ":10806,"éĿ¢":10807,"ĠìĿ¸ìĤ¬":10808,"INE":10809,"uildings":10810,"oen":10811,"Ġsets":10812,"Ġdefined":10813,"Ġê´ĳê³ł":10814,"ĠíĻĪëŁ°":10815,"éķ·":10816,"ĠëĨįêµ¬":10817,"ìķĦìĿ¼ëŀľëĵľ":10818,"ìŀĲëıĻì°¨":10819,"Ġ1909":10820,"ëħĦê³¼":10821,"ĠìĿ¸ëĶĶ":10822,"Ġexisting":10823,"ĠíĥĦìĥĿ":10824,"ĠìĪĺë¦½":10825,"Ġarrang":10826,"ì¼Ī":10827,"ì¡°ìĤ¬":10828,"Ġsuggest":10829,"Ġë¬¼ë¡ł":10830,"ĠSon":10831,"1949":10832,"istry":10833,"éļ":10834,"Å«":10835,"ëŀĲ":10836,"Ġliteracy":10837,"å¹´":10838,"RC":10839,"Ġadvert":10840,"keep":10841,"ìĿĮë°ĺ":10842,"ĠPoint":10843,"MI":10844,"ëł´":10845,"ĠCroat":10846,"Ġexchange":10847,"Ġsupply":10848,"Sup":10849,"ìĭłìĿ´":10850,"Ġë¡¤":10851,"ë¥ĺìĿĺ":10852,"Ġaddress":10853,"æĢ":10854,"ë³ĳìĽĲ":10855,"ìĬ¤íĮĮ":10856,"ĠIr":10857,"iÃ³n":10858,"ulate":10859,"Bibliography":10860,"ĠLabor":10861,"ĠHand":10862,"Ġìĺ®ê²¨":10863,"ĠRon":10864,"ĠìĿ´ìļ©íķĺìĹ¬":10865,"Ġë§Īë¦¬ìķĦ":10866,"ê¾":10867,"ìłģìľ¼ë¡ľëĬĶ":10868,"Ġeducated":10869,"ĠEmperor":10870,"Ġchairman":10871,"Ġsafety":10872,"ĠBillboard":10873,"ĠShort":10874,"ç´":10875,"Ġportray":10876,"'m":10877,"æ¼":10878,"ê¸°ëħĲ":10879,"æŀ":10880,"isa":10881,"ĠìĪĺìłķ":10882,"ĠìĨĮìŀ¥":10883,"onder":10884,"Ġauthorities":10885,"ìĺ¬ë¦¼íĶ½":10886,"ĠìĬ¤íĥ":10887,"ëī´ìļķ":10888,"ëĵ¤ëª©":10889,"agu":10890,"íķľêµŃìĸ´":10891,"SI":10892,"ĠMach":10893,"ĠLincoln":10894,"elsh":10895,"ĠTrib":10896,"Ġhistoric":10897,"ĠManagement":10898,"Football":10899,"Ġpolitics":10900,"ĠìĿ¼ìĿ´":10901,"Ġë¶ķê´´":10902,"ëħĦëĮĢìĹĲ":10903,"Ġë¶Īë¦°ëĭ¤":10904,"Ġvalley":10905,"ĠFord":10906,"ëĿ¼íģ¬":10907,"è¥¿":10908,"Ġheadquarters":10909,"ĠTa":10910,"Ġlibrary":10911,"Ġëª½ê³¨":10912,"Ġsides":10913,"ìĿ¸êµ¬":10914,"ìŀĲëĵ¤ìĿĺ":10915,"ĠEric":10916,"Ġtrust":10917,"Hon":10918,"Ĩį":10919,"Ġcart":10920,"ãĢĢ":10921,"Ġgirls":10922,"Ġrom":10923,"can":10924,"ë¹ĦëĶĶìĺ¤":10925,"ĠAustria":10926,"Ġagent":10927,"ëłĽ":10928,"Ġë§Īëĵľë¦¬":10929,"Ġinhabit":10930,"ĠNic":10931,"ëĲĺìŀĲ":10932,"íĤ¨ëĭ¤":10933,"inch":10934,"ĠRose":10935,"Ġflow":10936,"orders":10937,"Ġê¹Ģìłķ":10938,"»ê²Į":10939,"ĠHur":10940,"ìĦĿìĿĦ":10941,"ĠOregon":10942,"Ġstream":10943,"ĠìĦ¸ì¢ħ":10944,"Ġeffort":10945,"Ġìĭľê°ģ":10946,"ì¹ĺìĽĲ":10947,"ĠíķĻìĤ¬":10948,"ĠPu":10949,"ì¹´ìĿ´ëıĦ":10950,"Ġtower":10951,"Ġmicro":10952,"everal":10953,"Ġfrequently":10954,"Ġê³łëĵ±":10955,"ĠBrigade":10956,"Ġê¹Ĭ":10957,"ĠPrin":10958,"ê¶ĮìĿ´":10959,"bell":10960,"box":10961,"aming":10962,"Ġrelatively":10963,"Ġmorning":10964,"Ġroyal":10965,"ĠHonor":10966,"OT":10967,"ĠSoc":10968,"ĠìĪĺìĺģ":10969,"Ġmusician":10970,"ë¦¬ê¸°":10971,"inder":10972,"ĠAge":10973,"ogen":10974,"Ġfinish":10975,"ĠGall":10976,"ieval":10977,"ĠSunday":10978,"Ġapart":10979,"Ġíĥĳìŀ¬":10980,"Awards":10981,"Ġpair":10982,"ĠServices":10983,"Ġëģ¼":10984,"Ġcancer":10985,"Ġshowed":10986,"Ġì£¼ìĹĪëĭ¤":10987,"iversary":10988,"Ġë°ķë¬¼ê´Ģ":10989,"ĠHamilton":10990,"ĠìŀĲìĭłìĿĦ":10991,"ĠíĮĲëĭ¨":10992,"ì§Ģë§Ī":10993,"íĻľëıĻ":10994,"ĠPhilippines":10995,"Ġê³µìľł":10996,"ìĹ°êµ¬ìĨĮ":10997,"Ġëĸ¨ìĸ´ì§Ħ":10998,"cow":10999,"Ġê·¸ëłĩ":11000,"ë¡ľìĦľìĿĺ":11001,"Ġê²ĢìĿĢ":11002,"ĠìķĦëĤĺìļ´ìĦľ":11003,"imens":11004,"êµŃìĿĢ":11005,"North":11006,"ëĵ¯":11007,"ĠìĬ¤ë¯¸":11008,"Ġonto":11009,"1953":11010,"ĠìłĦì£¼":11011,"Ġê³µê³µ":11012,"jan":11013,"Ġê±´ëĦĪ":11014,"Ġburied":11015,"iful":11016,"Ġë¯¸ëĶĶìĸ´":11017,"Ġsynt":11018,"ĠìłĢíķŃ":11019,"Ġprint":11020,"Ġvisit":11021,"êµŃë¯¼íķĻêµĲ":11022,"dale":11023,"ĠìĦŃ":11024,"ga":11025,"Ġbought":11026,"ĠìĭłëĿ¼":11027,"Ġbeaut":11028,"organ":11029,"ĠOklahoma":11030,"1930":11031,"Ġmachine":11032,"Ġnuclear":11033,"di":11034,"atab":11035,"iplom":11036,"nce":11037,"ê³¼ë¥¼":11038,"ëªħìĿ´ëĭ¤":11039,"ĠMC":11040,"Ġlaunch":11041,"Ġjur":11042,"ĠSC":11043,"ĠëĤĺëĵ¤ëª©":11044,"Ġtrees":11045,"ê´Ģìľ¼ë¡ľ":11046,"åºľ":11047,"ĠNev":11048,"ĠMedical":11049,"Ġìłķë³´ë¥¼":11050,"Ġseem":11051,"Ġë²łë¥¼ë¦°":11052,"Ġstock":11053,"ĠìĪ²":11054,"Ġaired":11055,"antasy":11056,"ttps":11057,"unter":11058,"Ġoccupied":11059,"ĠLtd":11060,"ìĦ¸ìĹĲ":11061,"ë¡łìĿĦ":11062,"Ġsucceeded":11063,"éĦ":11064,"ìĬ¤íģ¬ë°Ķ":11065,"glas":11066,"ì§Ĳ":11067,"Ġë§Īëł¨":11068,"Ġguest":11069,"ĠAuthor":11070,"Ġê·ł":11071,"è»į":11072,"ëĿ¼ìĿ´ìĸ¸":11073,"å¾·":11074,"appy":11075,"Ġtwenty":11076,"ĠSR":11077,"ìĸ´ëıĦ":11078,"ë§Īë¥´":11079,"Ġdriver":11080,"ĠQueensland":11081,"achers":11082,"Ġmeant":11083,"Ġì£¼ëĬĶ":11084,"ĠNBA":11085,"ĠìĬ¤íĭ°":11086,"ëĭ¹ìĿ´":11087,"gment":11088,"Treat":11089,"ĠInformation":11090,"Ġë¶Ģê·¼":11091,"Ġê¸°íĽĦ":11092,"ials":11093,"Ġê³łìłķ":11094,"Ġëĭ¨ë°±ì§Ī":11095,"Ġì±ĶíĶ¼ìĸ¸ìĭŃ":11096,"apolis":11097,"Ġpasses":11098,"ĠíĶ¼ìķĦëħ¸":11099,"Since":11100,"ìĶ¬":11101,"Ġë°©ìĭĿìľ¼ë¡ľ":11102,"DS":11103,"Ġcalc":11104,"ĠDa":11105,"Ġraces":11106,"ĠHarry":11107,"ĠìĿ¼ë°ĺìłģìĿ¸":11108,"ĠìľĦíĺĳ":11109,"ë¡ľëıĦ":11110,"Ġvenues":11111,"ë©´ìĿĺ":11112,"ëłĪìĿ´ëĵľ":11113,"ĠìľłìĿ¼":11114,"ĠHoward":11115,"ê°Ģê°Ģ":11116,"Ġspect":11117,"ì¦ĪíĤ¤":11118,"Ġì¶©ë¶Ħ":11119,"Ġspot":11120,"ë²Ħê·¸":11121,"ĠëıĦìĦľê´Ģ":11122,"ĠìĤ¬ë§ĿíķĺìĺĢëĭ¤":11123,"Ġattempts":11124,"aby":11125,"å¯º":11126,"ques":11127,"Ġsituation":11128,"ĠìĺģíĻĶë°°ìļ°":11129,"ìĹ°ìĨį":11130,"ëł¥ìľ¼ë¡ľ":11131,"Ġ53":11132,"Ġê³³ìĹĲ":11133,"Phil":11134,"ëĩ":11135,"rÃ©":11136,"ĠOd":11137,"ëĭĪëĬĶ":11138,"To":11139,"Ġrain":11140,"Ġhorse":11141,"Ġvotes":11142,"ĠAmericans":11143,"ĠíĻķë³´":11144,"ĠìŀĪìĹĪì§Ģë§Į":11145,"ëłĲ":11146,"Ġë¹Ħìļ©":11147,"ĠReal":11148,"Ġcompl":11149,"ĠìĤ´ìĿ¸":11150,"olas":11151,"ĠNap":11152,"ìĦľìļ¸íĬ¹ë³Ħìĭľ":11153,"éŁ":11154,"Ġìĺ¹":11155,"uccess":11156,"Ġhydro":11157,"irty":11158,"ĠNick":11159,"ĠABC":11160,"ĠLeb":11161,"ĠAnderson":11162,"ĠìľĦìĽĲíļĮ":11163,"ĠìĹĲëĦĪì§Ģ":11164,"Ġìļ°íģ¬ëĿ¼ìĿ´ëĤĺ":11165,"ĠFront":11166,"ryst":11167,"ĠZh":11168,"Ġì±ĦíĥĿ":11169,"ë²ĪìĿĺ":11170,"Ġconverted":11171,"Sing":11172,"ëĭ¤ìĿĮ":11173,"ek":11174,"ĠArgentina":11175,"ë¥´íĤ¤":11176,"ĠìĦłê³ł":11177,"ĠAcc":11178,"ĠëĭĪìĭľ":11179,"Ġapplied":11180,"ht":11181,"íĮĮìĿĺ":11182,"aly":11183,"Ġë¬´ê¸°":11184,"Ġíİ¸ê³¡":11185,"iley":11186,"Reg":11187,"Ġfinds":11188,"Ġìµľìļ°ìĪĺ":11189,"Ġmulti":11190,"Ġseats":11191,"Ġë¶ĪëŁ¬":11192,"ĠìĿ´íĽĦìĹĲ":11193,"Ġcenturies":11194,"Ġì¢Ģ":11195,"Dr":11196,"MC":11197,"Ġìŀ¥êµ°":11198,"ĠìĽĲìŀĲ":11199,"Ġ1904":11200,"ĠMagazine":11201,"Ġholds":11202,"ĠRecord":11203,"ecticut":11204,"ĠGi":11205,"ĠìĻ¸ìĹĲëıĦ":11206,"ê¾¼":11207,"ĠíĿ°":11208,"1939":11209,"Ġloan":11210,"Ġë§Įëĵ¤ìĸ´ì§Ħ":11211,"enh":11212,"ĠëĬĲëĤ":11213,"Ġfigures":11214,"ë¡ľë¡ľ":11215,"ĠKey":11216,"1947":11217,"odox":11218,"ĠForces":11219,"çĦ":11220,"ĠIC":11221,"Ġteaching":11222,"Ġtouch":11223,"ĠìľĦì¹ĺíķ´":11224,"Ġreject":11225,"Ġmeasure":11226,"íĥĢì¹´":11227,"ìĻľ":11228,"Ġê¸°ë¡ĿìĿĦ":11229,"Ġsimple":11230,"ë³´ëĭ¤ëĬĶ":11231,"Ġsubsequent":11232,"Ġfeet":11233,"íĺ¸ìĿĺ":11234,"ìĦľë¡ľ":11235,"ĠíĹĿê°Ģ":11236,"Ġmemory":11237,"Ġìī½ê²Į":11238,"ê¹Įì§ĢìĿĺ":11239,"ë¹Ħìĭľ":11240,"£ł":11241,"Ġsons":11242,"uly":11243,"Ġdropped":11244,"Ġring":11245,"Ġlot":11246,"ĠAdvent":11247,"ĠRegional":11248,"Ġsay":11249,"Ġmig":11250,"íİĺë¥´":11251,"inema":11252,"ĠìĭľëĤĺ":11253,"Ġë¬´ìŀ¥":11254,"ĠíĶĮëŀ«íı¼":11255,"ĠTurkish":11256,"adow":11257,"Some":11258,"Ġpromotion":11259,"rome":11260,"ĠCP":11261,"ĠDead":11262,"Ġinspired":11263,"ĠëĤ´ìĹĲìĦľ":11264,"ĠAllen":11265,"Ġrapid":11266,"elve":11267,"ghan":11268,"Ġë½":11269,"Ġproceed":11270,"ì¢ħíķ©":11271,"ĠTs":11272,"ĠEth":11273,"ë¬¼ìĿ´":11274,"Ġcontaining":11275,"Ġrefused":11276,"ĠCre":11277,"Ġalternative":11278,"?\"":11279,"DF":11280,"Ġsurn":11281,"ĠAbd":11282,"stream":11283,"ĠSP":11284,"ì£¼ìĹĲ":11285,"åħī":11286,"Ġê°ķëł¥íķľ":11287,"fr":11288,"ê¹¨":11289,"Ġmaterials":11290,"ĠìĦ±ìĿ¸":11291,"áĨŀ":11292,"ĠìĪĺìŀħ":11293,"ĠíĨµíķľ":11294,"Ġdaily":11295,"ìŀĲê¸°":11296,"ĠAlan":11297,"Ġreturning":11298,"ĠìĿ´ë²Ī":11299,"ìĬ¤íı¬ì¸ł":11300,"ĠìĬ¤íİĺìħľ":11301,"Ġarrested":11302,"ĠEach":11303,"ë¹Ħì¹ĺ":11304,"1944":11305,"Ġmis":11306,"ĠìĭľëĤ´":11307,"eption":11308,"êµ¬ëł¤":11309,"Ġbronze":11310,"sky":11311,"ĠìĪ«":11312,"ë¶ĢìĻĢ":11313,"ĠìĤ¬ìŀ¥":11314,"oles":11315,"ĠìĹĲíĶ¼ìĨĮ":11316,"íķľíİ¸":11317,"ĠDave":11318,"ĠBou":11319,"íĶĦìĿĺ":11320,"ĠWhit":11321,"ented":11322,"Ġexam":11323,"ë¦¬ëħ¸":11324,"Ġì£¼ìĭĿ":11325,"Ġìĸ´ëĸ»ê²Į":11326,"Ġmind":11327,"ëĲĺìĹĪì§Ģë§Į":11328,"Ġìłģê·¹":11329,"Ġcab":11330,"agar":11331,"Ġsingers":11332,"Ġending":11333,"ë¬¸ìĹĲ":11334,"ĠTai":11335,"ìĹ°ë§¹":11336,"ĠìĤ¬ëŀĮëĵ¤ìĿĢ":11337,"leges":11338,"Ġcustom":11339,"Ġeffective":11340,"ĠìĿĺë£Į":11341,"Ġarticles":11342,"raine":11343,"ipe":11344,"Ġyour":11345,"Ġbal":11346,"Ġì·¨ê¸ī":11347,"Ġsomething":11348,"ìŀł":11349,"rees":11350,"Ġalt":11351,"å§":11352,"ĠíĥĪëĿ½":11353,"related":11354,"1941":11355,"íķĺëĭ¤ê³ł":11356,"SR":11357,"ĠCemetery":11358,"Ġê³Ħìķ½ìĿĦ":11359,"ski":11360,"ĠíĨµíķĺìĹ¬":11361,"Ġchosen":11362,"lines":11363,"Ġìŀ¬ì§ģ":11364,"ìłĢìļ°":11365,"Ġdrive":11366,"Ġnecessary":11367,"ëĪ":11368,"Ġë°ĽìķĦëĵ¤":11369,"night":11370,"Ġë¬´ëłµ":11371,"uties":11372,"ë¦¬ì¼Ģ":11373,"oven":11374,"ê²½ìĿĺ":11375,"Ġ56":11376,"ĠCost":11377,"ĠSky":11378,"Ġsoutheast":11379,"orter":11380,"iti":11381,"Ġê²Ĳ":11382,"Ġflood":11383,"ĠJam":11384,"Ġê·¸ê²ĥìĿĢ":11385,"Ġìķ¡ìħĺ":11386,"Ġë¯¸ëĵľíķĦ":11387,"Ġenemy":11388,"ëıĦìĦľê´Ģ":11389,"ĠBron":11390,"æ´ŀ":11391,"ë¦¬ëĤĺ":11392,"ëĮĢìĤ¬ê´Ģ":11393,"fe":11394,"ìŀĲìĹĲê²Į":11395,"ĠíıŃë°ľ":11396,"EL":11397,"allel":11398,"å´":11399,"ĠDu":11400,"ĠQuebec":11401,"ĠBeng":11402,"Ġnominated":11403,"Ġcal":11404,"Ġìļķ":11405,"redited":11406,"ìĿ´íĥĪë¦¬ìķĦìĿĺ":11407,"Ġcommander":11408,"ìĭľìĬ¤íħľ":11409,"burn":11410,"ĠíĮĿ":11411,"ê²°ìĬ¹":11412,"illing":11413,"ymn":11414,"ĠìķĦë¥´íĹ¨íĭ°":11415,"Ġëĭ¤ìĦ¯":11416,"Ġreact":11417,"urance":11418,"ĠíĨ°":11419,"Ġíİł":11420,"TBC":11421,"Ġpages":11422,"Ġhyp":11423,"Ġê·¸ê³³":11424,"ĠBuddh":11425,"ê´ĳìĹŃìĭľìĿĺ":11426,"ìĿĺìĿĺ":11427,"Ġì¹¨ê³µ":11428,"ĠBah":11429,"íķĺëł¤ëĬĶ":11430,"While":11431,"Sm":11432,"Ġcert":11433,"íĸīìĿĦ":11434,"wise":11435,"ĠReb":11436,"kh":11437,"Ġwinter":11438,"Ġparliament":11439,"Ġhappen":11440,"Ġearth":11441,"Ġë¬¸ìŀĲ":11442,"Ġ1890":11443,"zer":11444,"íį¼ìĬ¤":11445,"ĠFriend":11446,"ĠíļĮë³µ":11447,"rat":11448,"Ġvert":11449,"ĠWalter":11450,"ĠIndones":11451,"Ġë¯¸ëĵľíķĦëįĶ":11452,"Ġpowerful":11453,"Ġnob":11454,"iki":11455,"Ġnormal":11456,"ache":11457,"ìĿ¸ëĵ¤ìĿĢ":11458,"Ġê²½íĸ¥":11459,"Ġexclus":11460,"OW":11461,"ĠBan":11462,"Ġconvers":11463,"èĹ":11464,"Ġëį´ë§Īíģ¬":11465,"owntown":11466,"ĠíŀĪëį°":11467,"ĠìłĢìŀ¥":11468,"Ġíĺ¸íħĶ":11469,"ĠìĿ¸íĦ°ë·°":11470,"ì¡Įìľ¼ë©°":11471,"Ġsquare":11472,"ê¿":11473,"Ġextensive":11474,"ĠSilver":11475,"ëł¥ê³¼":11476,"Ġresc":11477,"ĠLow":11478,"Ġrh":11479,"éĻ¢":11480,"EA":11481,"ĠìķłíĶĮ":11482,"ĠíŀĺìĿĦ":11483,"oslav":11484,"ìĺģêµŃ":11485,"ĠComics":11486,"Ġ(),":11487,"Ġburn":11488,"Ġderived":11489,"Former":11490,"Ġharm":11491,"agues":11492,"Ġactions":11493,"prise":11494,"iang":11495,"ĠìľłíĬľ":11496,"Ġê¸Īìľµ":11497,"Ġconference":11498,"Ð»":11499,"Ġyellow":11500,"1942":11501,"ĠìĿ´ìłĦìĹĲ":11502,"Ġaudience":11503,"ĠìĤ¬ëĬĶ":11504,"ì¢ħìĿ´":11505,"posed":11506,"ifically":11507,"ographer":11508,"ĠìĹĨìĸ´":11509,"ëĦ¤ìĬ¤":11510,"éĤ":11511,"ista":11512,"ëĭ¹íķľ":11513,"Ġìĺģìĥģ":11514,"ĠLast":11515,"Ġë³´ë©´":11516,"Ġunderst":11517,"Ġnarrow":11518,"Ġrang":11519,"Ġproperties":11520,"rav":11521,"Ġë³¸ëŀĺ":11522,"Ġadvanced":11523,"ĠGard":11524,"ìłľìĹĲ":11525,"Ġattempted":11526,"Ġê¸°ì¡´ìĿĺ":11527,"die":11528,"Ġunable":11529,"ĠSel":11530,"1951":11531,"bar":11532,"ĠëģĬ":11533,"Ġapparent":11534,"Ġcoal":11535,"ĠMand":11536,"ĠLegisl":11537,"ĠìķĬìĿĦ":11538,"Ġì´Ŀë¦¬":11539,"Ġpublication":11540,"ĠìĿ´ëŀĢ":11541,"åľ°":11542,"Ġretirement":11543,"ĠKat":11544,"Ġpartner":11545,"Ġìĺ¬íķ´ìĿĺ":11546,"ëĿ¼ê³łëıĦ":11547,"ë¶ĢìĹĲìĦľ":11548,"ĠSin":11549,"ë²łë¥´íģ¬":11550,"Ġdistingu":11551,"Ġsignal":11552,"Ġrefers":11553,"Ġìµľëĭ¤":11554,"Ġê³µê²©ìĿĦ":11555,"Ġletters":11556,"Mon":11557,"eway":11558,"Ġmethods":11559,"ìķ¤ìł¤ëłĪìĬ¤":11560,"ìļ°ëĵľ":11561,"rine":11562,"ĠOffic":11563,"íİĻ":11564,"Ġìŀ¬ìłķ":11565,"ĠAdam":11566,"ĠìĿ¸ê°Ģ":11567,"ĠDublin":11568,"ëĮĢìĹĲìĦľ":11569,"Ġê¹Į":11570,"olec":11571,"season":11572,"ĠíĨµê³Ħ":11573,"Ġì´Īë°ĺ":11574,"ĠKer":11575,"íĮ¬":11576,"ĠìľłëĤĺìĿ´íĭ°ëĵľ":11577,"Ġfemales":11578,"lets":11579,"Ġcomic":11580,"ĠCape":11581,"Ġhistorian":11582,"ĠDiego":11583,"Ġsum":11584,"School":11585,"car":11586,"Ġlocations":11587,"Ġë¿Ĳë§Į":11588,"ê²ĮìĿ´":11589,"Ġbroke":11590,"Best":11591,"Following":11592,"ëĿ¼ëĶĶìĺ¤":11593,"allas":11594,"ĠJane":11595,"Ġsense":11596,"ì£¼ê°Ģ":11597,"hat":11598,"Ġìĺ¤íĨł":11599,"orus":11600,"å®¶":11601,"ìĿ¸ìĹĲ":11602,"ĠRugby":11603,"ĠElementary":11604,"ĠíŀĲ":11605,"Ġvirt":11606,"ëĭ¹ìĿĦ":11607,"Ġì»µ":11608,"ä¸ĸ":11609,"ĠSingapore":11610,"Ġê°ľìĹħíķľ":11611,"ĠTit":11612,"LC":11613,"Ġìĭľê¸°ìĹĲ":11614,"ĠHills":11615,"Ġê·¸ëł¤":11616,"ì¡°íķ©":11617,"Per":11618,"ĠìłĦìĹŃ":11619,"ĠGuide":11620,"ĠHouston":11621,"Ġbow":11622,"Ġliber":11623,"ĠWell":11624,"ìī":11625,"Ġweapons":11626,"ì§Ģê¸°":11627,"riev":11628,"Ant":11629,"Ġjudge":11630,"ser":11631,"Ġguard":11632,"itable":11633,"Ġperforming":11634,"Ġíĥľìĸ´ëĤľ":11635,"åĮĹ":11636,"Ġchalleng":11637,"Ġëĵ±ìŀ¥íķĺëĬĶ":11638,"ĠST":11639,"ãĢī,":11640,"Ġapproved":11641,"ĠDick":11642,"David":11643,"ĠAdv":11644,"ë°ĽìĿĢ":11645,"tery":11646,"Ġpermanent":11647,"!\"":11648,"ĠLiter":11649,"ĠìłĦíĪ¬ìĹĲìĦľ":11650,"Ġíħį":11651,"iamond":11652,"ë¨¸ìĬ¤":11653,"ĠConnecticut":11654,"Ġìŀ¥ì°©":11655,"áº":11656,"ëĲĺìĹĪëĬĶëį°":11657,"íį¼ëĵľ":11658,"Ġíĺķìłľ":11659,"ĠSn":11660,"aved":11661,"Ġê³łìļ©":11662,"Ġreligion":11663,"Ġì¡°íķ©":11664,"ĠSchools":11665,"Ġì£¼ìŀ¥íĸĪëĭ¤":11666,"Ġethnic":11667,"ĠRegister":11668,"Ġë¹¨":11669,"Ġeconomy":11670,"Ġfunctions":11671,"ë°ĸìĹĲ":11672,"ĠChildren":11673,"ĠSecurity":11674,"ĠìĤ¬ëŀĮìĿĺ":11675,"Ġprotection":11676,"ëħ¸ìĬ¤":11677,"fficient":11678,"fort":11679,"structure":11680,"Ġfields":11681,"ĠDomin":11682,"ìĭłë¬¸":11683,"phas":11684,"Ġë°ĽëĬĶ":11685,"ĠíĶĮë¡ľ":11686,"ĠìĤ¬íļĮì£¼ìĿĺ":11687,"ĠëŁ¬ë¸Į":11688,"tsburgh":11689,"åİŁ":11690,"Ġcalls":11691,"hammad":11692,"ĠGram":11693,"ìĬ¤íĮħ":11694,"Ġimpl":11695,"Ġachieved":11696,"ĠStew":11697,"ĠëĤĺëĬĶ":11698,"æĦ":11699,"ĠíķĦë¦¬íķĢ":11700,"Ġbul":11701,"Ġcycl":11702,"åĿ":11703,"ìĺ¤ë¦¬":11704,"fall":11705,"Ð¹":11706,"ĠíĬ¸ë¡ľ":11707,"çĶŁ":11708,"ĠëĤĺìĺ¤ëĬĶ":11709,"Ġmerged":11710,"ìĦ¸ê¸°ìĹĲ":11711,"ĠJacob":11712,"Ġadult":11713,"Ġscript":11714,"jo":11715,"Ġski":11716,"otic":11717,"ĠVis":11718,"ĠPatrick":11719,"Ġdeploy":11720,"Ġëª©ìłģ":11721,"ocation":11722,"Ġimpr":11723,"Ġlands":11724,"ĠíķĢëŀĢëĵľ":11725,"ìķ¼êµ¬":11726,"ÅŁ":11727,"ĠChile":11728,"Ġë§Īíģ¬":11729,"Ġcommittee":11730,"Ġaim":11731,"ĠBeat":11732,"íĥĢì§Ģ":11733,"Ġpowers":11734,"ĠLouisiana":11735,"hing":11736,"Ġì§Ĳ":11737,"iments":11738,"ë©´ìĹĲìĦľ":11739,"ĠPortuguese":11740,"cha":11741,"Official":11742,"ĠìķĦìĿ´ëıĮ":11743,"ĠSquare":11744,"angel":11745,"ê¸°ë¡Ŀ":11746,"ĠìĦľìļ¸ëĮĢíķĻêµĲ":11747,"ì°¨ë¥¼":11748,"ë¨¹":11749,"ĠìĭľìŀĳëĲĺìĹĪëĭ¤":11750,"Ġë°ĸìĹĲ":11751,"Ġresources":11752,"bra":11753,"ĠìĤ¬ìļ©íķľ":11754,"Ġrot":11755,".'":11756,"esign":11757,"ĠForeign":11758,"ĠMit":11759,"íķĺìĭľ":11760,"ĠìĹ¬ê¸°ìĦľ":11761,"Ġê¸¸ìĿ´":11762,"ĠTy":11763,"Ġincident":11764,"ëĤĻ":11765,"anger":11766,"Ġstraight":11767,"Ġcreating":11768,"êµŃìĿĦ":11769,"Ġë³Ģíĺ¸ìĤ¬":11770,"ì§ĪìĿĦ":11771,"ĠOak":11772,"Ġattacked":11773,"íĻĪ":11774,"Ġ01":11775,"Ġbey":11776,"East":11777,"Ġê·¸ëŀĺìĦľ":11778,"ìĮį":11779,"Jan":11780,"Ġê´Ģìĭ¬ìĿĦ":11781,"ë¶ĦìĿĺ":11782,"Ġpassing":11783,"ĠGallery":11784,"ìķĪìłĦ":11785,"ìļ°ì£¼ìĹ°":11786,"Ġhomes":11787,"Ġactresses":11788,"Ass":11789,"Ġê´Ģë£Į":11790,"êµ¬ë¡ľ":11791,"ëł¨ìĿĺ":11792,"ĠMoscow":11793,"Ġstarring":11794,"éĻ½":11795,"ĠBowl":11796,"ĠìĪĺì¶ľ":11797,"Ġrisk":11798,"uilt":11799,"ĠëĭĪì½ľ":11800,"Ġcompeted":11801,"ĠLas":11802,"place":11803,"ĠLu":11804,"ç¥ŀ":11805,"ĠDeath":11806,"ĠíĻķìłķ":11807,"ê°Ĵ":11808,"ĠìłĦê°ľ":11809,"Ġbegin":11810,"ivate":11811,"ëĤ©":11812,"ìłĲìĹĲ":11813,"Ġfuel":11814,"êµĲìĪĺ":11815,"ĠVers":11816,"ëŀĺê³¤":11817,"Ġcopies":11818,"ĠìĿ¸íķĺìĹ¬":11819,"abama":11820,"Ġentitled":11821,"Ġìĩł":11822,"aux":11823,"Ġhotel":11824,"ãĨį":11825,"ê³łê¸°":11826,"ĠExpress":11827,"Ste":11828,"Ġíĥľíıīìĸĳ":11829,"èĪ":11830,"ëĭĪìĿĺ":11831,"ï½":11832,"ĠìĿ´ë£¨ìĸ´ìł¸":11833,"thodox":11834,"Ġconfirmed":11835,"acent":11836,"ìĹħìĿĦ":11837,"ĠìĥĿíĻľìĿĦ":11838,"Ġscientific":11839,"ĠLat":11840,"ĠìŀĲë³¸":11841,"ĠíĪ¬ìŀĲ":11842,"ëĳĺ":11843,"ìĬ¤íı¬":11844,"ĠíĤ¬":11845,"ĠëĮĢê·ľëª¨":11846,"Public":11847,"Ġcompar":11848,"Ġì°½ìĦ¤":11849,"ìķĹ":11850,"FI":11851,"iami":11852,"ì¡°ë¥¼":11853,"Ġìºĺë¦¬íı¬ëĭĪìķĦ":11854,"Ġopposition":11855,"CAA":11856,"Ġìĺ¬ë¦¬":11857,"Ġcho":11858,"Ġrecordings":11859,"hard":11860,"ĠKings":11861,"Ġêµ¬ìĦ±ëĲľ":11862,"ìĿ¼ë¡ľ":11863,"Ġì½Ķëĵľ":11864,"ëĭĪìĭľë¦¬ì¦Ī":11865,"ì£¼ëħĦ":11866,"ê³Ħíļį":11867,"æŃ¦":11868,"ê³łëĵ±":11869,"ĠKl":11870,"Ġinhabitants":11871,"Ġë³´ìĿ´ëĬĶ":11872,"adi":11873,"Ġacts":11874,"ĠPhill":11875,"ĠíĬ¸ëŀĻ":11876,"ĠRa":11877,"Ġdefend":11878,"ĠëĲĺìĹĪìľ¼ë©°":11879,"ĠìķĦë¯¸":11880,"Ġíķľìłķ":11881,"Ġbeyond":11882,"íĥĢë§Ī":11883,"ìĸ´ìĻĢ":11884,"ĠìĤ¬ìļ´ëĵľ":11885,"ĠëĭĮ":11886,"ĠìķĶìĤ´":11887,"ìļ©ìľ¼ë¡ľ":11888,"ë¹ĦìĿĺ":11889,"Ġeducational":11890,"isters":11891,"po":11892,"rane":11893,"ëĦ¤ìĿ´":11894,"Ġ1901":11895,"Ġbasic":11896,"Ġrival":11897,"Ġprepar":11898,"ê°ĢìĿ´ëĭ¤":11899,"ĠGarden":11900,"Ġvent":11901,"ĠPot":11902,"Ġsetting":11903,"ardo":11904,"ĠêµĲíĨł":11905,"ĠMember":11906,"Ġemig":11907,"ĠGordon":11908,"Ġì¶ľìŀ¥":11909,"ĠAnthony":11910,"Ġcompris":11911,"Ġë¶Īê°ĢëĬ¥":11912,"ìĿ¸ìłĳ":11913,"Ġopposed":11914,"unnel":11915,"Ġì§Ģë¦¬":11916,"Ġshared":11917,"Ġpros":11918,"porter":11919,"Ġroads":11920,"Cast":11921,"don":11922,"ĠWhat":11923,"ĠëıĻìĿ¼íķľ":11924,"æ¬":11925,"Ġcompilation":11926,"Ġapplication":11927,"orage":11928,"Ġlearning":11929,"Ġì§ģìĽĲ":11930,"Car":11931,"ĠëĮĢíĺķ":11932,"ìĦłìĹĲ":11933,"Ġë¹Ħìľ¨":11934,"agen":11935,"Ġë©ĶìĿ´ìłĢ":11936,"ĠAR":11937,"ê´Ģëł¨":11938,"Ġì°¸ìłĦ":11939,"ropri":11940,"ëĮĢìŀ¥":11941,"Ġenjoy":11942,"Elect":11943,"Pol":11944,"Rober":11945,"clop":11946,"Ġì½ĺìĦľíĬ¸":11947,"Ġcorner":11948,"leveland":11949,"íĻĶëĬĶ":11950,"Har":11951,"ĠìĿ´ë¯¼":11952,"Ġê²½ê¸°ìŀ¥":11953,"Ġë§Įìķ½":11954,"uma":11955,"ĠMicro":11956,"íĸĪê¸°":11957,"ì¹´ê³ł":11958,"1936":11959,"ĠëĨĴìĿ´":11960,"ìĽ°":11961,"Ġbusinesses":11962,"Life":11963,"riff":11964,"1943":11965,"ĠAffairs":11966,"Ġfought":11967,"ĠìĬ¤íģ¬":11968,"Ġìŀĺëª»":11969,"ĠëıĦìĽĢ":11970,"ĠíĶĦëŀĢ":11971,"bach":11972,"friend":11973,"ĠPhys":11974,"Ġobtained":11975,"ĠtvN":11976,"ê³¼ëĮĢíķĻ":11977,"ëĭĪë²ĦìĬ¤":11978,"Ġcorrect":11979,"Ġì¤ĳíĻĶìĿ¸ë¯¼ê³µíĻĶêµŃ":11980,"mit":11981,"ìķ½ìĿĦ":11982,"ìĿ´ëĿ¼ê³łëıĦ":11983,"ìŀ¬íĮĲ":11984,"Ġcontrast":11985,"Ġultimately":11986,"ĠìĿ¼ìĽĲ":11987,"ëĭ¨ìľ¼ë¡ľ":11988,"ĠìĿ´íĥĪë¦¬ìķĦìĿĺ":11989,"orro":11990,"Ġcovers":11991,"ĠìĬ¹ë¦¬ë¥¼":11992,"Ġconsum":11993,"Ġ95":11994,"Ġsurvey":11995,"ĠDance":11996,"è§":11997,"\").":11998,"ëıĻìĿĺ":11999,"Ġsixth":12000,"ĠìŀĲë¦¬ë¥¼":12001,"enez":12002,"ĠKa":12003,"ĠIslamic":12004,"ĠImp":12005,"Ġshortly":12006,"Ġmatter":12007,"elli":12008,"Ġattrib":12009,"Ġprofile":12010,"Ġvo":12011,"ĠNich":12012,"iner":12013,"hann":12014,"star":12015,"ì§ĪìĿĺ":12016,"imore":12017,"ĠìĤ¬ìļ©ëĲĺìĹĪëĭ¤":12018,"ĠìľłíĤ¤":12019,"ĠDetroit":12020,"Ġê³µêµ°":12021,"gor":12022,"éĥ¡":12023,"where":12024,"ĠëĤŃ":12025,"íĮ©":12026,"Rep":12027,"ĠìĪĺíķĻ":12028,"Ġescape":12029,"ĠSri":12030,"ĠGirls":12031,"Ġvac":12032,"ìĭľìĻĢ":12033,"ĠìĪĺìĹ¬":12034,"ë¹ĦëĬĶ":12035,"ĠLabour":12036,"Ġpiece":12037,"ìĸ´ìĬ¤":12038,"ĠToday":12039,"Ġpun":12040,"Ġê°Ģê²©":12041,"ho":12042,"ĠëłĮ":12043,"lined":12044,"ĠìķĦëŀį":12045,"ë©´ìĿ´":12046,"ĠMem":12047,"Ġham":12048,"Ġì°½ë¦½":12049,"Ġagricultural":12050,"ì²´ìĹĲ":12051,"êµŃìľł":12052,"Ġinstruct":12053,"Ġíķĺëĵľ":12054,"ridges":12055,"lease":12056,"agg":12057,"Ġ1896":12058,"ĠíĺĲìĿĺ":12059,"Ġcritics":12060,"risis":12061,"ĠëĮĢìĥģìľ¼ë¡ľ":12062,"oyd":12063,"ìĥģìĹĲìĦľ":12064,"ĠíĹ¤ìĿ´":12065,"Part":12066,"Ġíı¬ì§ĢìħĺìĿĢ":12067,"400":12068,"ĠìĤ¬ëŀĮìĿĦ":12069,"æľĿ":12070,"ëĵľëĿ¼":12071,"ti":12072,"Ec":12073,"ë¤Ħ":12074,"Ġindependence":12075,"ourses":12076,"ì¡°ëĬĶ":12077,"Ġê²½ìļ°ëıĦ":12078,"ĠTig":12079,"ĠBroadcast":12080,"Sch":12081,"igation":12082,"ê³¼ìłķ":12083,"ĠëĴ¤ë¥¼":12084,"Ġreflect":12085,"ìĤ°ë¦¬":12086,"ì¡±ìĿĺ":12087,"íħĲì¸ł":12088,"ĠëĿ¼íĭ´":12089,"Education":12090,"Ġconstant":12091,"Ġ250":12092,"íĻĺê²½":12093,"stitutional":12094,"Ġyards":12095,"Ġìŀ¥ì¹ĺ":12096,"Ġtemperature":12097,"come":12098,"Ġ1889":12099,"ëł¥ìĹĲ":12100,"ĠíķĺìŀĲ":12101,"ippi":12102,"Ġslightly":12103,"Mich":12104,"ëıĻìľ¼ë¡ľ":12105,"arks":12106,"ĠëĭĽ":12107,"Ġë³µìŀ¡":12108,"ĠCab":12109,"ĠStudios":12110,"Ġheavily":12111,"Ġê¹ĢìĦ±":12112,"íļĮìŀ¥":12113,"ë£¸":12114,"ĠNa":12115,"ì§Īëŀľëĵľ":12116,"Ġvisited":12117,"ìĦľìĿĺ":12118,"ĠìĿ¼ì¢ħ":12119,"ĠLyn":12120,"Ġê³łíĸ¥":12121,"omy":12122,"ĠëıĦìĽĢìĿĦ":12123,"ĠìĹĲìĸ´":12124,"ë²łìĿ´ìĬ¤":12125,"ivalent":12126,"active":12127,"ĠíĨłë¡ł":12128,"ë°ĺëıĦ":12129,"ĠDouglas":12130,"ĠIl":12131,"HS":12132,"Ġë¬»":12133,"Ġê°ľìĭł":12134,"ĠSenior":12135,"ĠíĮĲê²°":12136,"ĠHD":12137,"ĠKarl":12138,"ìłĦìĿĢ":12139,"Ġë°ķìłķ":12140,"enz":12141,"Ital":12142,"boards":12143,"ĠMoore":12144,"ĠKam":12145,"Ġëĵ±ìĹĲìĦľ":12146,"ëļ":12147,"Ġë§Įì¡±":12148,"ĠíĽ¨":12149,"spec":12150,"dam":12151,"ici":12152,"ĠìĦĿìĤ¬":12153,"Ãł":12154,"Ġtry":12155,"Ġìĺ¤ìłĦ":12156,"ìķĺìľ¼ë©°":12157,"isms":12158,"Ġ1902":12159,"ĠìľĦì¹ĺíķĺê³ł":12160,"vey":12161,"leased":12162,"Ġ1903":12163,"Ġneeds":12164,"Ġ58":12165,"Ġrear":12166,"ĠOnly":12167,"Ġtechnical":12168,"ples":12169,"ĠSingh":12170,"Ġheight":12171,"nold":12172,"ĠKë¦¬ê·¸":12173,"ê³µíĻĶêµŃ":12174,"ĠCEO":12175,"ëĬĦ":12176,"ĠAmong":12177,"íķľêµŃìĿĺ":12178,"yst":12179,"ĠìĿ¸ê¸°":12180,"ë¯¸ìĿĺ":12181,"ìĸ´ëĵ¤":12182,"First":12183,"1920":12184,"Ġ1895":12185,"Ġëĭµ":12186,"ensity":12187,"ëıħë¦½":12188,"ë¦¬íĭ°":12189,"íĨ±":12190,"ĠDur":12191,"ĠCommonwealth":12192,"ĠìłĦëĿ¼ë¶ģëıĦ":12193,"ĠìłĲì°¨":12194,"Ġì¦Ŀëªħ":12195,"ĠëŀŃ":12196,"íĺķìĿ´":12197,"Ġconnection":12198,"ĠNik":12199,"ĠíĥĢê³ł":12200,"Ġ600":12201,"íĿ¡":12202,"ãĤ¹":12203,"Ġkilling":12204,"Ġì²ŃëħĦ":12205,"Major":12206,"ìłĦëĿ¼":12207,"ĠìĿĮìĭĿ":12208,"ordan":12209,"Ġrough":12210,"Ġconsisted":12211,"ĠíĽ¨ìĶ¬":12212,"ë°ĽìķĦ":12213,"ëĿ¼ëĵľ":12214,"osm":12215,"ëıĻë¬¼":12216,"ĠWorks":12217,"Ġheard":12218,"íĥĢë¥´":12219,"Plot":12220,"Ġì¤ĳë°ĺ":12221,"Ġfounding":12222,"ê´ĢìĿĺ":12223,"çµ":12224,"ĠLog":12225,"Ġì²¨":12226,"Ġhabit":12227,"scape":12228,"«ĵ":12229,"ìĺ¤ìĬ¤":12230,"Ġidentity":12231,"Ġshall":12232,"Ġëĵ¯":12233,"ĠHans":12234,"è¡Į":12235,"Ġê³¼ìłķìĿĦ":12236,"ĠRoberts":12237,"âĹ":12238,"ì²´ë¡ľ":12239,"ultan":12240,"ĠColomb":12241,"Ġìļ©ìĸ´":12242,"othing":12243,"ographics":12244,"ĠEag":12245,"Europe":12246,"ĠìĬ¤íĨł":12247,"Although":12248,"Äĥ":12249,"ë¯¸ìĪł":12250,"Ġë°ĺë³µ":12251,"Ġë°ľìĥĿíķľ":12252,"Ġë§¤ëħĦ":12253,"Ġê°ĢëĬ¥ìĦ±ìĿ´":12254,"ĠPublishing":12255,"ìĬ¬ë§ģ":12256,"High":12257,"ĠPope":12258,"ĠìĿ¸ê°ĦìĿĺ":12259,"ĠCour":12260,"ãĤ¤":12261,"ì¤Ħê±°ë¦¬":12262,"ĠBuilding":12263,"Ġê°Ģë¡ľ":12264,"Ġì°¸ìĦĿ":12265,"ë¯¸ëĭĪ":12266,"Leg":12267,"ĠCall":12268,"ĠíĺĦìĭ¤":12269,"ĠìĹł":12270,"Ġì§ĵ":12271,"gal":12272,"apted":12273,"ifer":12274,"ĠìłľìŀĳìĹĲ":12275,"ìºĲëĤĺëĭ¤ìĿĺ":12276,"Born":12277,"issance":12278,"Ġavoid":12279,"Ġclimate":12280,"Ġrecip":12281,"ê¸°ê°Ħ":12282,"ĠAfghan":12283,"ĠIsraeli":12284,"Ġcas":12285,"Ġbishop":12286,"Ġê¸°ë°ĺìľ¼ë¡ľ":12287,"Ġdoctor":12288,"Af":12289,"Ġspok":12290,"ĠìĨįìĹĲìĦľ":12291,"èĭ":12292,"Ġsteel":12293,"Military":12294,"Ġnick":12295,"íİĺëĿ¼":12296,"Br":12297,"Ġdirectors":12298,"Ġiron":12299,"Ġë®":12300,"ĠEarly":12301,"ĠBrothers":12302,"Ġíķĺê²Į":12303,"ussion":12304,"ë¡ľë°Ķ":12305,"Ġê³łìłĦ":12306,"ê¸°íĽĦ":12307,"ĠìķĦì£¼":12308,"ĠVideo":12309,"ĠìĹ°ìĺĪ":12310,"ÃŁ":12311,"Ġëħ¸ë¶Ģ":12312,"Ġanimal":12313,"fit":12314,"Ġë²łìĿ´ì§ķ":12315,"¥¬":12316,"ëłĺ":12317,"udget":12318,"Ġë°©ìĨ¡êµŃ":12319,"%),":12320,"ì§ĢìĤ¬":12321,"Ġê¸°ìŀ¬ëĲľ":12322,"ãħ":12323,"Ġauth":12324,"Ġplanning":12325,"ìĿ´ìĹĪê³ł":12326,"ussian":12327,"Ġconsecutive":12328,"ĠìŀĲê²©":12329,"Ġëį®":12330,"ìĭ¬ìĿ´":12331,"top":12332,"ĠStra":12333,"ë¦¬ì¦ĺ":12334,"idden":12335,"bound":12336,"ĠëŁ¬ìĭľìķĦìĿĺ":12337,"çķ":12338,"ëĶĶìħĺ":12339,"Ġìŀłìĭľ":12340,"ĠMatthew":12341,"Ġë³´ìķĪ":12342,"Ġ72":12343,"ĠFall":12344,"Ġ66":12345,"while":12346,"Ġì°¨ì§ĢíĸĪëĭ¤":12347,"Gl":12348,"EE":12349,"ĠìĿ´ìŀ¬":12350,"inter":12351,"ni":12352,"Ġì¡°ê¸Ī":12353,"Ġrespond":12354,"intend":12355,"Ġì§§ìĿĢ":12356,"ĠML":12357,"Ġëħ¸ë²¨":12358,"Ġdecre":12359,"Ġoffices":12360,"RO":12361,"ìĤ°êµ°":12362,"ì§ĦìĿĦ":12363,"Ġselect":12364,"Ġë¶Īê³¼":12365,"Ġì§ĢìĭĿ":12366,"Ġpossess":12367,"Ġorders":12368,"yard":12369,"ê¶":12370,"Ġboys":12371,"Ġë¶Ħíķł":12372,"ĠPortugal":12373,"Exp":12374,"uster":12375,"Ġans":12376,"Ġëĵ±ìĿĢ":12377,"Black":12378,"Cent":12379,"Ġglass":12380,"ë¥ĺë¥¼":12381,"Ġíĥģ":12382,"ëĮ":12383,"erts":12384,"anned":12385,"Ġëĸ¨ìĸ´ìł¸":12386,"Ġëĭ¨ìĿ¼":12387,"Ġmaximum":12388,"oa":12389,"rama":12390,"ĠRoger":12391,"Ġ57":12392,"ìĹĪì§Ģë§Į":12393,"ìķĦíĤ¤":12394,"Ġabandoned":12395,"Ġstarts":12396,"ìĿ´ëįĺ":12397,"ĠLang":12398,"ĠíĶ¼íĦ°":12399,"ĠíĺķíĥľìĿĺ":12400,"uda":12401,"aza":12402,"ĠëĤĺíı´":12403,"ĠStaff":12404,"gency":12405,"ĠGab":12406,"ĠAlabama":12407,"Ġturns":12408,"ìłģìĿ´ëĭ¤":12409,"Ġadvent":12410,"Ġëĭ¥íĦ°":12411,"Ġíķľëĭ¤ê³ł":12412,"Ġpilot":12413,"íĬ¸ëŀĻ":12414,"Ġentrance":12415,"raf":12416,"Ġkil":12417,"ĠRain":12418,"ĠTan":12419,"olo":12420,"ì§Ģêµ¬":12421,"Ġë§Ľ":12422,"ĠNorwegian":12423,"ĠPur":12424,"ê´Ģê´ĳ":12425,"anny":12426,"ĠBefore":12427,"roc":12428,"ìĨĮìĪĺìŀĲ":12429,"íĺĦëĮĢ":12430,"Ġfailure":12431,"Ġdetermined":12432,"icians":12433,"including":12434,"ë²ķìĹĲ":12435,"Ġsynd":12436,"Ġë¨¸ë¦¬":12437,"ĠìĿ´ëģĦëĬĶ":12438,"ì£¼êµ°":12439,"alem":12440,"ĠìķĦìĿ´ìĬ¤":12441,"Ġtoward":12442,"Ġhired":12443,"Ġë³´ì¡°":12444,"Ġíķľëĭ¤ëĬĶ":12445,"Ġfranch":12446,"ĠLin":12447,"ë¬´ë¶Ģ":12448,"ë¦ŃìĬ¤":12449,"Ġíķ´ë°©":12450,"ĠThrough":12451,"ĠìĽĲì¹Ļ":12452,"azines":12453,"ĠëĽ°ìĸ´ëĤľ":12454,"ĠìĥĿì¡´":12455,"ĠìĽĮìĭ±íĦ´":12456,"ĠBerg":12457,"ä¸»":12458,"igenous":12459,"Ġcompetitions":12460,"obe":12461,"íģ¬ëĬĶ":12462,"Railway":12463,"ĠAli":12464,"Ġrenov":12465,"ĠRick":12466,"éĥ¨":12467,"Ġpassenger":12468,"lay":12469,"olt":12470,"ë°ķë¬¼ê´Ģ":12471,"Ġtranslation":12472,"ocked":12473,"ë¬¸ìĿ´":12474,"ì¹´ëĵľ":12475,"ĠThird":12476,"Ġê¶Įíķľ":12477,"ĠTokyo":12478,"NC":12479,"ê³łë¡ľ":12480,"ĠCBS":12481,"ĠìĨĮìĪĺ":12482,"ĠíĶĮëĿ¼":12483,"ìĬ¤ëŁ¬ìļ´":12484,"Ġbands":12485,"ìļ°ëĿ¼":12486,"ĠArk":12487,"Ġplot":12488,"ĠCow":12489,"ropical":12490,"elson":12491,"Ġë¦¬ê·¸ìĿĺ":12492,"ugu":12493,"Star":12494,"1938":12495,"Ġglobal":12496,"ëł¤ëĬĶ":12497,"ĠìłĦíĺĢ":12498,"íĬĢ":12499,"ographical":12500,"Ġbriefly":12501,"IL":12502,"Ġfun":12503,"Ġexistence":12504,"Ġsportspeople":12505,"uration":12506,"íķĺê³łìŀĲ":12507,"point":12508,"Ġë°±ìŀĳ":12509,"ĠìĿ´ìĦ±":12510,"ãĥ¼ãĥ":12511,"ĠAgain":12512,"ĠAst":12513,"ĠìĤ¬ëŀĮëĵ¤":12514,"Ġwrite":12515,"orough":12516,"Ġstatistics":12517,"Ġspeech":12518,"Ġways":12519,"Ġ1898":12520,"antage":12521,"found":12522,"eler":12523,"ÃŃn":12524,"Ġsoccer":12525,"íģ¬ëŀĺíĶĦíĬ¸":12526,"inburgh":12527,"ĠDom":12528,"ìĤ¬ìĹĲìĦľ":12529,"ĠìķĦíĭ°":12530,"Ġíıīìĸĳ":12531,"Ġmunicipalities":12532,"ĠVin":12533,"Ġholding":12534,"set":12535,"uy":12536,"æ·":12537,"ĠTar":12538,"Ġphase":12539,"Ġdefense":12540,"ĠNC":12541,"ĠíĮĮìĽĮ":12542,"ĠLINE":12543,"ìĤ¬ìłĦ":12544,"Ġêµ¬ì¡°ë¥¼":12545,"Ġìłķì°¨":12546,"Ġë¯¼ì£¼ëĭ¹":12547,"Ġhill":12548,"ĠRun":12549,"ìŀĲëĵ¤":12550,"Ġì¹´ëĵľ":12551,"Ġlocomot":12552,"æ°´":12553,"ëĪĦìĬ¤":12554,"Over":12555,"Ġìĺ·":12556,"Ġguns":12557,"íĨłëĭĪ":12558,"Ġinvasion":12559,"Ġì¡±":12560,"oria":12561,"ìĭľíĤ¬":12562,"ë³´íĨµ":12563,"Ġdecades":12564,"Ġnegot":12565,"Ġconce":12566,"ĠVo":12567,"Ġcausing":12568,"ĠìĻĦë£Į":12569,"ĠFarm":12570,"Ġíķ©ìĿĺ":12571,"ĠìĪľìľĦ":12572,"Ġëį°ìĿ´ë¹Ħëĵľ":12573,"ê±´ìĦ¤":12574,"Ġë°ľë§¤ëĲĺìĹĪëĭ¤":12575,"Her":12576,"Paul":12577,"icide":12578,"ĠInternet":12579,"fully":12580,"íķĺëł¤ê³ł":12581,"ĠìĿĺìĥģ":12582,"ë¶Ļ":12583,"ĠDeb":12584,"íĥĢë¥¼":12585,"ĠTel":12586,"Ġstores":12587,"osite":12588,"ĠíĽĦìĨĲ":12589,"Ġchampions":12590,"Ġcarry":12591,"ĠìĽĲìłķ":12592,"Ġpropos":12593,"urday":12594,"ĠOcean":12595,"ì¡°ê°Ģ":12596,"asure":12597,"Ġequal":12598,"Ġìľµ":12599,"Rel":12600,"Ġhour":12601,"ì°į":12602,"Ġëª¨ìĬ¤íģ¬ë°Ķ":12603,"Ġdoing":12604,"ê¹Įì§ĢëĬĶ":12605,"æľ´":12606,"rep":12607,"Ġintroduction":12608,"ĠìĨįìĹĲ":12609,"isd":12610,"ëĴ":12611,"ìĦľìĹĲ":12612,"ê´ĳì£¼":12613,"Ġalleged":12614,"Ġë¶īìĿĢ":12615,"ìĨĮìĹĲìĦľ":12616,"ouver":12617,"Int":12618,"íĸīìľĦ":12619,"ĠëķĮìĹĲëĬĶ":12620,"istol":12621,"Ġmayor":12622,"Ġíķĺë©´ìĦľ":12623,"ëĦĺ":12624,"Ġë¿Į":12625,"Ġdrivers":12626,"Ġìķ½ìĨį":12627,"ĠCrown":12628,"Ã´":12629,"ë¤¼":12630,"ĠDisney":12631,"íĴĪìĿĦ":12632,"ĠìĹĨê³ł":12633,"Ġëĭ¹ìĭľìĿĺ":12634,"issippi":12635,"1937":12636,"ìĿ¼ìĿ´":12637,"Ġì§ĢìĹŃìĿĢ":12638,"Ġprotect":12639,"Ġìĭ¬ê°ģ":12640,"Ġ(;":12641,"atabase":12642,"Ġovers":12643,"Ġëħ¼ìŁģ":12644,"ĠíĶĦë¦¬ë¯¸ìĸ´":12645,"ëĮĢìĭł":12646,"Ġextrem":12647,"irds":12648,"ì£¼ë¯¼":12649,"Ġreasons":12650,"Ġsought":12651,"ìĬ¤ìľĦ":12652,"ìĦłìĹĲìĦľ":12653,"ĠErn":12654,"ĠìĥĿëªħ":12655,"ĠIndependent":12656,"olly":12657,"Ġextension":12658,"ëª¨ëį¸":12659,"èī":12660,"stan":12661,"Ġìļ´ìłĦ":12662,"ìĹĪëĬĶëį°":12663,"Ġcollected":12664,"Ġê³Ħê¸ī":12665,"Ġëª¨íĹĺ":12666,"isf":12667,"Ġanth":12668,"Ġsolid":12669,"ç©":12670,"Ġreceiving":12671,"borough":12672,"ìĤŃ":12673,"éİ":12674,"ë¦¬ìĸ¸":12675,"ĠìĿ´ë£¨ìĸ´ì§Ħ":12676,"igious":12677,"ìĭľíĹĺ":12678,"Ġgeneration":12679,"ĠBecause":12680,"ìĹĲë§Į":12681,"seud":12682,"ĠÃĹ":12683,"âĢ¦":12684,"Ġmaintained":12685,"Ġprogramme":12686,"éŁĵ":12687,"ìĪĺìĻĢ":12688,"Ġì°į":12689,"ĠíĶĮëłĪìĿ´ìĺ¤íĶĦ":12690,"type":12691,"ĠReport":12692,"ĠìĿ¼ìłķ":12693,"oba":12694,"Ġtend":12695,"ucks":12696,"Ġì¸µ":12697,"íķ¨ìĹĲ":12698,"PA":12699,"Ġjazz":12700,"low":12701,"eland":12702,"âĢľ":12703,"Ġíķµìĭ¬":12704,"Ġpriest":12705,"oni":12706,"Ġë¶ĢíĻľ":12707,"Ġëĳ¥":12708,"ĠìĭľëĮĢìĹĲ":12709,"ĠìĹĦë§Ī":12710,"èı":12711,"åŃ¸æł¡":12712,"ëĤ¼":12713,"ê¸°ìķķ":12714,"Ã©t":12715,"ĠSport":12716,"Ġoperate":12717,"Ġstandards":12718,"Ġê³µë¶Ģ":12719,"ĠìĺĪìĥģ":12720,"ĠíĮĢìĿĢ":12721,"ĠëĮĢë¦½":12722,"Ġíģ´ëŀĺìĭĿ":12723,"ĠHom":12724,"ĠRabb":12725,"ĠìŀĲìĤ´":12726,"Ġfaith":12727,"ä»ģ":12728,"Ġcontained":12729,"ĠíĦ¸":12730,"Ġíķ´ìĸĳ":12731,"James":12732,"Ġë³´ëĬĶ":12733,"ĠSpr":12734,"Ġbelieve":12735,"nia":12736,"ìłĲìĿĢ":12737,"ĠìĿ´ê²ĥìĿ´":12738,"UC":12739,"ĠNaval":12740,"Ġscale":12741,"Ġinternal":12742,"Ġroutes":12743,"Ġì½Ķì¹ĺ":12744,"Ġlicens":12745,"uses":12746,"term":12747,"ando":12748,"ugar":12749,"íĽĪìŀ¥":12750,"ìĿ´ìĹĪìľ¼ëĤĺ":12751,"Ġrise":12752,"unting":12753,"inners":12754,"Ġbillion":12755,"Ġìĥĺ":12756,"ĠIowa":12757,"ìºł":12758,"ĠSocorro":12759,"Ġcontributed":12760,"ĠìĹŃìĤ¬ìĥģ":12761,"ëıĻìĿ´":12762,"Orig":12763,"íĬ¸ìĻĢ":12764,"Ġì¤ĳìĿĺ":12765,"ĠHere":12766,"Ġíķ©ê²©":12767,"wen":12768,"ĠíĬ¸ëŀľ":12769,"ëĿ¼ê°Ģ":12770,"ĠHell":12771,"Ġherself":12772,"DC":12773,"Ġreign":12774,"ĠSee":12775,"otte":12776,"ìĿ¸íĦ°":12777,"ĠFac":12778,"forc":12779,"ĠLP":12780,"spe":12781,"ĠëĮĢíĳľíĮĢ":12782,"ĠYears":12783,"ĠNob":12784,"idel":12785,"Ġ88":12786,"itals":12787,"ĠíĨµìłľ":12788,"è©":12789,"ëĦ¨":12790,"Ġgrade":12791,"Ġìļ´ìļ©":12792,"Ġìĭľê°ĦìĿ´":12793,"owned":12794,"Ġdie":12795,"ĠìŀĲìĿ´ìĸ¸":12796,"Ã¥":12797,"haps":12798,"ythm":12799,"Ġë©´ìłģìĿĢ":12800,"íģ´ë¦¬":12801,"anch":12802,"ĠWing":12803,"Ġchurches":12804,"Ġgreatest":12805,"íĪ°":12806,"zi":12807,"ĠìľłëĭĪë²Ħ":12808,"Ġsand":12809,"ĠMix":12810,"Ġemphas":12811,"ĠíĻĭ":12812,"ĠìĿ´ì¤ĳ":12813,"ĠIron":12814,"ĠPap":12815,"ĠHorn":12816,"ĠìĿĮëł¥":12817,"Ġdomestic":12818,"Ġtrying":12819,"ĠëĲĲëĭ¤":12820,"ê²łëĭ¤ê³ł":12821,"Ġê·¸íķ´":12822,"ìĽĲê³¼":12823,"ĠìĤ´ê³ł":12824,"Ġdisapp":12825,"åĴĮ":12826,"ĠëıĦëĭ¬":12827,"ì¦Īì¹´":12828,"dr":12829,"ĠBry":12830,"ìĬ¤íħĮìĿ´ìħĺ":12831,"íķ´ì§Ħ":12832,"ĠëĤĺìĦľ":12833,"ugoslav":12834,"do":12835,"ĠìĸĳìŀĲ":12836,"ĠìĿĺíķ´ìĦľ":12837,"Ġrecognition":12838,"ĠêµŃê²½":12839,"ĠBlues":12840,"Ġinstall":12841,"Ġìļ°ìĦł":12842,"èĻ":12843,"ĠJay":12844,"ĠWelsh":12845,"Ġ1880":12846,"ĠAntonio":12847,"Ġscenes":12848,"Most":12849,"ĠìĽĶíĻĶ":12850,"song":12851,"icts":12852,"Ġì·¨ëĵĿ":12853,"ĠLINEAR":12854,"ìĬ¤ëŁ½":12855,"apes":12856,"Ġ63":12857,"Ġë£¨ìĿ´":12858,"ĠOST":12859,"Ġhits":12860,"ìľłìĿĺ":12861,"Ġê°Īëĵ±":12862,"Ġregarding":12863,"amo":12864,"ĠPear":12865,"ëĭ¹ìĭľ":12866,"Ġsupporting":12867,"Ġê³łêµ¬ëł¤":12868,"Ġstrike":12869,"Ġsuburb":12870,"ĠìĤ¬íĽĦ":12871,"ĠStewart":12872,"rete":12873,"amic":12874,"íħĮëĦ¤":12875,"ĠêµĲì°¨ë¡ľ":12876,"long":12877,"ĠìľĦìĽĲìŀ¥":12878,"Ġë¹ĦëĤľ":12879,"Ġpainting":12880,"ìķĪìĿĺ":12881,"ĠìĿ¸ê¸°ë¥¼":12882,"ĠCollection":12883,"ìĤ°ìĿĢ":12884,"Ġislands":12885,"Ġmel":12886,"ëĬ¬":12887,"Ġë°©ì¶ľ":12888,"íĺķìĿĢ":12889,"ĠìĸĳìĦ±":12890,"Ġshape":12891,"iac":12892,"chell":12893,"Ġax":12894,"ĠìŀĲëħĢ":12895,"Ġì½ĶíĮĮ":12896,"arsh":12897,"íŀĲ":12898,"éĺ":12899,"ĠìľĦë°ĺ":12900,"ĠPlaces":12901,"Ġìłķë³µ":12902,"ĠëĤ´ìĹĲ":12903,"ĠFinn":12904,"ĠìĪĺíĽĪ":12905,"Ġë²¨ê¸°ìĹĲ":12906,"Ġsan":12907,"Ġchoice":12908,"Ġquant":12909,"ĠêµŃë¯¼ìĿĺ":12910,"ĠPalace":12911,"Academ":12912,"Ġë¹ĦêµĲìłģ":12913,"Ġì¡°ìĦłë¯¼ì£¼ì£¼ìĿĺìĿ¸ë¯¼ê³µíĻĶêµŃ":12914,"ĠìĨĲìŀĲ":12915,"ĠTerrit":12916,"rations":12917,"Ġcommissioned":12918,"âĨĴ":12919,"ĠìĦłìĿĺ":12920,"ĠëĤ´ìļ©ìĿĦ":12921,"Ġalone":12922,"ìļ°ì£¼ìĹ°ìĥģ":12923,"ĠLet":12924,"ĠRights":12925,"ĠMcG":12926,"ĠKnight":12927,"ĠíĮĮíĬ¸":12928,"ĠPrimary":12929,"Ġrein":12930,"ĠëĲ¨":12931,"ĠìłģìĿĢ":12932,"ĠInn":12933,"ĠìĤ¬ë§ĿíĸĪëĭ¤":12934,"ìŀĳê³¡":12935,"Ġresistance":12936,"ìķĺëįĺ":12937,"ĠHotel":12938,"Ġê³łìĨį":12939,"Ġì±ĶíĶ¼ìĸ¸ìĬ¤ë¦¬ê·¸":12940,"Ġdecor":12941,"ê·¸ë¦¬":12942,"íĬ¹ë³ĦìŀĲì¹ĺëıĦ":12943,"Background":12944,"Treaties":12945,"ëįĶëĿ¼ëıĦ":12946,"Scott":12947,"ĠíĸīìĦ±":12948,"ĠìĬ¤ì½ĶíĭĢëŀľëĵľ":12949,"ĠëĲĺì§Ģ":12950,"ĠíĥĢìĿ´ê±°":12951,"ĠTamil":12952,"ĠEvery":12953,"achelor":12954,"Ġë¡ľë§¨":12955,"ë¥¨":12956,"ĠíĿ¡ìĪĺ":12957,"Albums":12958,"Ġment":12959,"ĠìĪĺìĤ¬":12960,"astery":12961,"ologies":12962,"ëĦĪìĬ¤":12963,"father":12964,"ì²ĺëĵľ":12965,"Ġê°ĸì¶Ķ":12966,"Ġquite":12967,"ĠíĸĪì§Ģë§Į":12968,"ĠíĪ¬ìŀħ":12969,"ĠVolume":12970,"Reception":12971,"ĠìĤ¬ìĭ¤ìĥģ":12972,"Ġformal":12973,"Ġ1899":12974,"Ġdynasty":12975,"Ã©s":12976,"Ġpieces":12977,"San":12978,"Ġmus":12979,"Ġtranslated":12980,"etry":12981,"Ġdiplom":12982,"ĠWy":12983,"Ġìłľì¶ľ":12984,"ĠSeason":12985,"ĠHollywood":12986,"Ġpatients":12987,"ì°Į":12988,"íĥĢëĬĶ":12989,"ĠëĤĺìĻĢ":12990,"Ġ800":12991,"Ġpolic":12992,"August":12993,"ĠImperial":12994,"ì©":12995,"ologists":12996,"ĠìķĦë²Ħ":12997,"Ġappeal":12998,"Ġpoetry":12999,"ĠìĻ¸ìĹĲ":13000,"ê³µíķĻ":13001,"Ġstrength":13002,"Ġì³":13003,"Ġpup":13004,"ëħģ":13005,"ĠìļĶìĨĮ":13006,"ëĤ¬ìľ¼ë©°":13007,"ĠíĻĶë¬¼":13008,"ĠíĴĭ":13009,"Ġlect":13010,"Ġê±´êµŃ":13011,"ĠLawrence":13012,"ë¡łê°Ģ":13013,"aire":13014,"ĠBilly":13015,"ĠEver":13016,"ĠKennedy":13017,"Ġsale":13018,"BL":13019,"ĠìļĶíķľ":13020,"Tr":13021,"ìĶ¨ëĬĶ":13022,"ë¡ľìļ°":13023,"gow":13024,"ĠìĬ¹ìĿ¸":13025,"Demographics":13026,"ìĭľëĮĢìĿĺ":13027,"Ġaged":13028,"ĠìºĦ":13029,"ĠìłĢì§Ģ":13030,"inking":13031,"Ġenvironmental":13032,"Ġastr":13033,"íĽ":13034,"Ġobserved":13035,"Ġì§ĳíĸī":13036,"ĠNord":13037,"Ġarran":13038,"Ġliterary":13039,"Ġë¦´":13040,"çŁ³":13041,"lad":13042,"Ġì¶ľìŀħ":13043,"íĪ¬ìĬ¤":13044,"Ġbirds":13045,"Ġoccurs":13046,"ì²¼":13047,"ĠìłķëıĦìĿĺ":13048,"Ġreserv":13049,"Ġpull":13050,"Ġreaching":13051,"íĻĶë¡ľ":13052,"ĠìŀĪìĹĪìľ¼ë©°":13053,"ĠLov":13054,"ë®¤ëĭĪ":13055,"çĦ¡":13056,"ëħĦê²½":13057,"æ°¸":13058,"Ġì£¼êµĲ":13059,"ë¦¬ëĭ¤":13060,"Ġmand":13061,"ĠëĿł":13062,"ë¬¸ìĿĺ":13063,"ĠJuan":13064,"emen":13065,"rastructure":13066,"ê²½ìĺģ":13067,"ĠìĤŃ":13068,"Ġentirely":13069,"Ġban":13070,"Ġë¡ľëĵľ":13071,"Ġcrow":13072,"Ġwalls":13073,"Ġêµ¬ì²´":13074,"ĠClin":13075,"Ġì²´ìľ¡":13076,"Ġoccas":13077,"ĠBasketball":13078,"hematics":13079,"ĠAnne":13080,"Ġë³¸ê²©":13081,"Ġíı¬íķ¨ëĲĺìĸ´":13082,"Ġrepresenting":13083,"ê²Ķ":13084,"åĥ":13085,"ë²Īíĺ¸":13086,"Ġìĭ±ìĸ´":13087,"NS":13088,"ĠAle":13089,"pha":13090,"Roman":13091,"ĠBruce":13092,"ëħ¹":13093,"ĠBull":13094,"ĠìĦ¤ì¹ĺëĲĺìĸ´":13095,"ĠìĹ´ëĮĢ":13096,"ĠVar":13097,"ĠHop":13098,"ĠBuck":13099,"1935":13100,"ĠPlayer":13101,"after":13102,"ìħī":13103,"ĠCentury":13104,"ìĭľíĤ¨ëĭ¤":13105,"ê¶ĮìĹĲ":13106,"utation":13107,"ĠìĪŃ":13108,"Ġaid":13109,"åĵ":13110,"ĠCook":13111,"ëłĪìĺ¤":13112,"Ġrequest":13113,"ĠMalaysia":13114,"Ġ85":13115,"Ġdescription":13116,"ĠMPs":13117,"ĠBible":13118,"ĠAS":13119,"Ġchain":13120,"Ġìĺ¤íĶĦ":13121,"Ġadapted":13122,"ĠíĿĺ":13123,"ëŁ¬ìĭľìķĦìĿĺ":13124,"Ġadjacent":13125,"'re":13126,"Ġê³łìĨįëıĦë¡ľ":13127,"ìĭłìĿĢ":13128,"ĠEven":13129,"Ġclosely":13130,"ëĤĺê³ł":13131,"itionally":13132,"ç¸£":13133,"oviÄĩ":13134,"ë°´":13135,"Ġconsult":13136,"ayan":13137,"ĠìĦ¸ìļ´":13138,"UEFA":13139,"Ġê²°ê³¼ë¥¼":13140,"ĠOpera":13141,"ĠCooper":13142,"Ġfashion":13143,"ĠìĻĶ":13144,"ëĭĺìĿĺ":13145,"ë£¬ëĭ¤":13146,"ancouver":13147,"ĠêµŃë¬´":13148,"ìĹĪìľ¼ëĤĺ":13149,"ĠHarris":13150,"ferred":13151,"ê°ľìĿ¸":13152,"Ġê³¨ëĵł":13153,"Ġë¯¸ëĭĪìĭľë¦¬ì¦Ī":13154,"Ġë¦¬ëįĶ":13155,"ìĤ¬ìĬ¤":13156,"ìŀĲëĵ¤ìĿĦ":13157,"exual":13158,"Ġinaug":13159,"Sim":13160,"ĠWhe":13161,"Ġcrossing":13162,"Ġconsisting":13163,"ì¦ĿìĿĦ":13164,"ĠLaure":13165,"Ġchemical":13166,"ĠPrincess":13167,"ĠëĮĢíķŃ":13168,"æľĪ":13169,"vements":13170,"Ġëĭ¨íİ¸":13171,"ĠDefense":13172,"ĠMission":13173,"Inter":13174,"If":13175,"Ġbodies":13176,"ogle":13177,"Ġinvolving":13178,"Ġruled":13179,"rik":13180,"Ġregarded":13181,"Writ":13182,"Ġë³´ê¸ī":13183,"Japanese":13184,"ĠEdinburgh":13185,"æģ":13186,"Ġfram":13187,"hesis":13188,"Ġinstalled":13189,"ĠìĿ´ìłķ":13190,"Ġsymbol":13191,"ĠAmb":13192,"died":13193,"ìľ¼ë¡ľëıĦ":13194,"Ġëħ¸ìĺĪ":13195,"Ġmarg":13196,"Ġdates":13197,"Ġhair":13198,"ëĮĢì¤ĳ":13199,"Ġ99":13200,"Ġappoint":13201,"Rich":13202,"ÑģÐº":13203,"ĠìĦ¸ìĽłëĭ¤":13204,"Ġìłķë¶Ģê°Ģ":13205,"Ġì§Īë³ĳ":13206,"ĠìķĦìĺ¤":13207,"not":13208,"å²":13209,"ĠìĹ°ìŀ¬":13210,"ë¥´íĤ¤ìĺĪ":13211,"Ġexpressed":13212,"ĠPa":13213,"ëĮĢëĮĢ":13214,"ĠSac":13215,"ì§ĦìĿĺ":13216,"Ġvice":13217,"Ġselection":13218,"ĠìŀĦëªħëĲĺìĹĪëĭ¤":13219,"Ġsuccessfully":13220,"ĠWebsite":13221,"ìķĦìĦľ":13222,"ìĬ¨ìĿĢ":13223,"Ġjunior":13224,"Ġexperi":13225,"Ġbehavior":13226,"wall":13227,"Ġanimated":13228,"ĠëıĦìļĶ":13229,"argo":13230,"Ġìĺ¤íŀĪ":13231,"Ġë¬´ìĹĩ":13232,"Ġproved":13233,"ĠKevin":13234,"Ġcommit":13235,"ĠAdministration":13236,"Ġseems":13237,"ĠíĥĪì¶ľ":13238,"ĠHeritage":13239,"èĬ":13240,"Ġped":13241,"RI":13242,"ĠVillage":13243,"bi":13244,"ĠìĽ¨ìĬ¤íĬ¸":13245,"Ġedge":13246,"ë³´ë³ĳ":13247,"ĠíĮĮëĿ¼":13248,"Ġì¶ĶìłķëĲľëĭ¤":13249,"ëĵľëłĪ":13250,"Ġincorporated":13251,"Port":13252,"ìĹŃìĿ´ëĭ¤":13253,"Ġì¶ķêµ¬ëĭ¨":13254,"ìĺ¤ìĬ¤íĬ¸ëłĪìĿ¼":13255,"Ġgar":13256,"Ġì¹´ìĿ´":13257,"ë§Įíģ¼":13258,"ĠTreat":13259,"Spec":13260,"ĠOrthodox":13261,"Ġcriminal":13262,"Ġcauses":13263,"ë°Ģë¦¬":13264,"å°¹":13265,"ĠKT":13266,"ĠMrs":13267,"rons":13268,"ĠShah":13269,"ĠPA":13270,"é¾į":13271,"ailing":13272,"Ġsomew":13273,"oda":13274,"Ġwarn":13275,"ci":13276,"equ":13277,"ĠNorman":13278,"oustic":13279,"ĠProduct":13280,"ĠíĹ¨ë¦¬":13281,"Ġleads":13282,"aked":13283,"1933":13284,"ĠFrederick":13285,"Ġparallel":13286,"1934":13287,"Ġwealth":13288,"Ġtrav":13289,"ĠCher":13290,"umin":13291,"ĠMetropolitan":13292,"ĠëĲĺë©´ìĦľ":13293,"ilk":13294,"Ġestablishment":13295,"million":13296,"ì²¨":13297,"Ġ03":13298,"uri":13299,"ĠRey":13300,"Ġë§Įíģ¼":13301,"Ġbelief":13302,"Ġlimit":13303,"ìĤ¬ëŀĮ":13304,"Ġë¯¸ëĭĪ":13305,"ë¬¼ë¡ľ":13306,"Ġobjects":13307,"ĠëĤĺëīĺ":13308,"emble":13309,"ĠOperation":13310,"avalry":13311,"ĠíĿ¬ë§Ŀ":13312,"Ġìĺ¤ëŀľ":13313,"ĠCF":13314,"Ġê²½ê¸°ìĹĲ":13315,"ĠìĦ¸ê³ĦìĹĲìĦľ":13316,"ìĿ¸ìĿ´ëĭ¤":13317,"ĠLeban":13318,"Histor":13319,"ë¦¬ì§ĢëĦĲ":13320,"ĠíĥĿ":13321,"ĠMountains":13322,"Ġë³´ê±´":13323,"ì¢ħìĿĢ":13324,"ìļ°ê³ł":13325,"Ġpremier":13326,"ìłĦìľ¼ë¡ľ":13327,"ë§Īë£¨":13328,"êµ¬ìĻĢ":13329,"ĠMontreal":13330,"gers":13331,"ĠMcK":13332,"ìĿĮìĹĲëıĦ":13333,"ĠHarvard":13334,"RS":13335,"Ġê°ľêµŃ":13336,"Ġwaters":13337,"ëĿ¼ìĿ´íĦ°":13338,"íķĺëĭ¤ëĬĶ":13339,"ìĬ¤íĬ¸ëĿ¼":13340,"ĠGlobal":13341,"ĠìķĮê²Į":13342,"ĠCH":13343,"opter":13344,"Ġancest":13345,"Ġì¶Ķì¸¡":13346,"é¡":13347,"ĠCare":13348,"Ġgetting":13349,"web":13350,"Robert":13351,"WA":13352,"ĠRap":13353,"Ġë§¡ê³ł":13354,"Ġinfluenced":13355,"Ġëªħëªħ":13356,"ĠHistorical":13357,"ĠìĿ¸ê³µ":13358,"enezuel":13359,"Ġstorm":13360,"ĠìķĪëĤ´":13361,"udi":13362,"eless":13363,"Ġfocused":13364,"Ġprotein":13365,"ĠPittsburgh":13366,"ĠPas":13367,"ĠOri":13368,"Ġmart":13369,"1932":13370,"annels":13371,"ĠMiami":13372,"omas":13373,"ishops":13374,"Ġlawyer":13375,"Ġpossibly":13376,"Buildings":13377,"ä½¿":13378,"Ġprice":13379,"ĠThen":13380,"Ġspecifically":13381,"ĠìłĪëĮĢ":13382,"Ġìį¨":13383,"Ġê±°ëĮĢíķľ":13384,"eget":13385,"Ġë¶ģìĦľ":13386,"ëĭ¹ìĹĲ":13387,"Ġìĸ´ëłµ":13388,"Ġê°ķìłľ":13389,"Ġê±°ìłĪ":13390,"Ġíķ´ëĭ¹íķĺëĬĶ":13391,"Ġìħĭ":13392,"ĠêµŃê°ĢìĿĺ":13393,"Ġrepresentative":13394,"ĠìĿ´ìĿµ":13395,"ĠGlas":13396,"Ġê¸Ģë¡ľë²Į":13397,"å¤«":13398,"Ġ1897":13399,"Ġrooms":13400,"Ġêµ¬ë³Ħ":13401,"ìĸĳìĿĺ":13402,"ĠBuff":13403,"ĠìŀĪìĹĪìľ¼ëĤĺ":13404,"Ġvalues":13405,"ĠCarn":13406,"ê¼¬":13407,"Ġwatch":13408,"ĠìĿ´ìķ¼ê¸°ë¥¼":13409,"Indian":13410,"ë©´ìľ¼ë¡ľ":13411,"Ġê·ĢêµŃ":13412,"ì§Ģë©´ìĦľ":13413,"ĠAbout":13414,"Ġlaid":13415,"iverpool":13416,"ëĦĮ":13417,"éĥ½":13418,"Ġsections":13419,"Ġactual":13420,"íĶ¼ìĬ¤":13421,"Ġworldwide":13422,"rak":13423,"ĠOttoman":13424,"Ġfictional":13425,"ĠSi":13426,"Ġ(~":13427,"ĠìĭłìĦ±":13428,"orig":13429,"Ġlat":13430,"ĠRussell":13431,"Ġtwelve":13432,"odge":13433,"Ġsequence":13434,"icus":13435,"ê°ľíĺģ":13436,"rops":13437,"ĠêµĲìĤ¬":13438,"ìĥīìĿĦ":13439,"ĠMississippi":13440,"ĠìĤ½":13441,"ĠAndre":13442,"Ġê·¸ìĹĲ":13443,"Ġmoment":13444,"Ġë£Į":13445,"Ġsust":13446,"Ġfinishing":13447,"Ġinvestigation":13448,"Ġexact":13449,"ĠRailroad":13450,"ĠPir":13451,"Ġë½ĳ":13452,"Ġimages":13453,"ĠAtlanta":13454,"ĠìĬ¤íĥł":13455,"ĠíĹ¤ë¥´":13456,"ìĹĨëĬĶ":13457,"leton":13458,"Ġëĭ¨ì¸µ":13459,"chant":13460,"Ġcomposers":13461,"Ġbottom":13462,"Ġboat":13463,"Ġtechniques":13464,"ëĮĢìĽĲ":13465,"oom":13466,"ĠëĵľëĿ¼ìĿ´":13467,"ampton":13468,"ĠëłĪìłĦ":13469,"Ġfunding":13470,"Ġì§ĢìĽĲìĿĦ":13471,"ê¶ĮìĿĢ":13472,"ĠëķĮìĹĲ":13473,"Ġê°ľê´Ģ":13474,"ìĪłìĿĦ":13475,"ĠSoul":13476,"ĠìĬ¤íĤ¤":13477,"ĠìĺĪë¹Ħ":13478,"Ġpurposes":13479,"Ġê³µìĤ¬":13480,"Ġrailroad":13481,"ĠìĿĢíķĺ":13482,"Ġlegend":13483,"Ġtheater":13484,"Ġstands":13485,"ĠPed":13486,"Ġ68":13487,"Ġnorthwest":13488,"ĠìķŀìĦľ":13489,"Ġfactory":13490,"orrow":13491,"ì°¨ë¡Ģ":13492,"ĠìĿ´ì§ĳíĬ¸":13493,"Ġìĭľìĥģ":13494,"Ġconqu":13495,"Ġë¶ģëıĻ":13496,"Ġbroken":13497,"Ġreturns":13498,"ìļ´ìĺģ":13499,"ĠíĥĢìŀĦ":13500,"ê³µìĭĿ":13501,"ĠìĿ¼ë³¸ìĹĲìĦľ":13502,"Ġcatal":13503,"Ġê·¸ê²ĥìĿĦ":13504,"entially":13505,"Ġpassengers":13506,"host":13507,"ĠUpper":13508,"Ġê²½ìľł":13509,"Ġì²łíķĻ":13510,"Ġìĸ»ìĹĪëĭ¤":13511,"Ġ76":13512,"Ġ61":13513,"Ġearliest":13514,"Ġê³½":13515,"Ġëıħë¦½ìļ´ëıĻ":13516,"ĠHawai":13517,"Ġfleet":13518,"ĠOur":13519,"Ġedited":13520,"clusion":13521,"Ġìĭľê°ĦìĿĦ":13522,"ĠÃī":13523,"ìŀħëĭĪëĭ¤":13524,"Î¿":13525,"sea":13526,"íķĦëĵľ":13527,"ĠVic":13528,"ê³µë¦½":13529,"ducing":13530,"ĠAustin":13531,"Ġcopy":13532,"Ġmist":13533,"ĠíķĺëĬĶëį°":13534,"Arch":13535,"ogether":13536,"Ġdeveloping":13537,"ĠëĬ¥ëł¥ìĿĦ":13538,"uki":13539,"Populated":13540,"ĠìķĦëĿ¼":13541,"efef":13542,"ĠTrade":13543,"Ġneighbour":13544,"ëĤŃ":13545,"ige":13546,"ĠSymph":13547,"ĠëĤ¨ëıĻ":13548,"Ġimportance":13549,"Ġargued":13550,"ĠMaur":13551,"Ġreaction":13552,"ĠMethod":13553,"ĠEnt":13554,"Ġexped":13555,"atherine":13556,"Ġzone":13557,"Ġê³łë¬¸":13558,"rong":13559,"then":13560,"aman":13561,"feld":13562,"Ġë§Īì¼Ģ":13563,"ĠíĶĦë¦°":13564,"ĠíĬ¹ë³Ħíķľ":13565,"count":13566,"Ġpersons":13567,"ĠíĻķìĭ¤":13568,"Ġtries":13569,"ĠChristopher":13570,"Ġìłľìĸ´":13571,"ìĪĺìĹĲ":13572,"íĬ¹ë³Ħì¶ľìĹ°":13573,"Ġê°Ģë¦¬íĤ¨ëĭ¤":13574,"ĠëıĻìĿĺ":13575,"ì¶ľíĮĲ":13576,"Ġfaced":13577,"ê³½":13578,"Ġdescribes":13579,"ëĪĪ":13580,"ë°¤":13581,"Ġê²ĥì²ĺëŁ¼":13582,"ì¿łìĬ¤":13583,"ë¦¬ê°ĢìĿĺ":13584,"ìĹĲíĬ¸":13585,"osure":13586,"Ġìķ½ê°Ħ":13587,"ĠGrant":13588,"ĠKy":13589,"ĠConstitution":13590,"Ġsubsid":13591,"ìĿĮìĿ´":13592,"Ġentertain":13593,"olid":13594,"Ġ62":13595,"ìķ¼ìĭľ":13596,"ĠVerm":13597,"Ġìľłíĺķë¬¸íĻĶìŀ¬":13598,"Ġnickn":13599,"Play":13600,"Ġsuperv":13601,"ĠìľłíĬľë¸Į":13602,"Ñĥ":13603,"ĠIT":13604,"Ġë¶Ģìĥģ":13605,"ìľłìĤ°":13606,"Ġê°ľë´īíķľ":13607,"onian":13608,"íĥĢìļ´":13609,"ĠíħĮëŁ¬":13610,"eta":13611,"ìļ°ìĿĺ":13612,"Fl":13613,"Ġnarr":13614,"ĠFil":13615,"Ġconcluded":13616,"ĠWa":13617,"Ġaggreg":13618,"Ġhumans":13619,"hop":13620,"Ġfunds":13621,"Ep":13622,"town":13623,"ĠFern":13624,"Ġda":13625,"ĠíĶĦë¡ľìĦ¸":13626,"ĠBelgium":13627,"ĠìļĶìĥĪ":13628,"ĠBox":13629,"ĠBroadway":13630,"ëĵľìĭľ":13631,"Ġgrounds":13632,"Ġeasily":13633,"ĠGib":13634,"Ġì§ĢëıĦìŀĲ":13635,"Ġëĭ¤íģĲ":13636,"ĠDue":13637,"ĠLanc":13638,"Ġíĸīë³µ":13639,"Ġê·¸ëłĪ":13640,"íĶĦëĿ¼":13641,"ĠíĪ¬ìĸ´":13642,"ĠíĸĪê³ł":13643,"ĠìķĮíĮĮ":13644,"Ġê¹Ģì¢ħ":13645,"Ġchampionships":13646,"Ġpartnership":13647,"Ġcombination":13648,"Ġfresh":13649,"ĠPeace":13650,"Ġsurg":13651,"Ġbill":13652,"March":13653,"Ġíı¬ê¸°":13654,"Ġìŀ¥ëĤ¨":13655,"EM":13656,"ĠSax":13657,"ìĦ±íĻĶ":13658,"ĠìĪĺì§ĳ":13659,"ĠëłĪìĺ¤":13660,"ĠDallas":13661,"ĠNHL":13662,"ĠEdition":13663,"Ġë¯¸ìĤ¬ìĿ¼":13664,"ĠëĮĢë¹Ħ":13665,"soft":13666,"ĠìĤ¬ë²ķ":13667,"ĠEvans":13668,"Ġinterpret":13669,"file":13670,"ĠDak":13671,"Ġê°ľìĦ¤":13672,"Ġengaged":13673,"Ġcourses":13674,"ĠGa":13675,"Ġuniform":13676,"ĠíħĮìĿ´":13677,"Ġìĺ¤ëŀĺëĲľ":13678,"Ġcore":13679,"ĠCatal":13680,"tered":13681,"ë°ķìĬ¤":13682,"Ġbond":13683,"ë°Ľê³ł":13684,"ĠíĸĪìľ¼ëĤĺ":13685,"ĠCleveland":13686,"Ġê¸īìłľ":13687,"RT":13688,"bishop":13689,"Ġcrown":13690,"Ġê³ĦíļįìĿĦ":13691,"Ġ77":13692,"Ġroof":13693,"ìĬ¹ìĿĦ":13694,"Ġê±":13695,"Ġë°ĺìĺģ":13696,"Ġì°½ìĽĲ":13697,"ellows":13698,"ĠëıĦë§Ŀ":13699,"Ġresigned":13700,"ĠëıĻëĤ¨":13701,"ì¤ĳíĻĶ":13702,"icit":13703,"ĠìĤ¬íĨł":13704,"Ġ69":13705,"attan":13706,"ìĭľì²Ń":13707,"ushed":13708,"ĠëĿ¼ìĿ´íĬ¸":13709,"Ġkick":13710,"ĠëıĦì¤ĳ":13711,"ĠBarry":13712,"ë°ĶìĿ¼":13713,"ĠBart":13714,"Ġë°°ìĹŃ":13715,"ë¶ĦêµĲ":13716,"Ġë£¨ìĿ´ìĬ¤":13717,"ĠíĮĢìĿ´":13718,"Ġìĥģëĭ¹íŀĪ":13719,"Ġceremony":13720,"Ġprofession":13721,"yg":13722,"ë¦¬ì½Ķ":13723,"ĠAgency":13724,"Ġcourts":13725,"cussion":13726,"ellite":13727,"ĠDean":13728,"Ġì°½ì¡°":13729,"ë³´ëĬĶ":13730,"Ġpromote":13731,"Ġë¥¼":13732,"ĠAlexand":13733,"Ġinjured":13734,"ĠëĦĵìĿĢ":13735,"íĹ¤ìĿ´":13736,"Ġterror":13737,"Ġnegative":13738,"ĠFurther":13739,"Ġë³ĳìĤ¬":13740,"ĠBomb":13741,"Ġê°ĢëĤĺ":13742,"Ġë¡ľë´ĩ":13743,"Ġincome":13744,"Ġguitarist":13745,"ĠíĿĶíŀĪ":13746,"acle":13747,"istant":13748,"ĠGran":13749,"Ġtrail":13750,"Ġdoor":13751,"éĸĢ":13752,"ì¸łíĤ¤":13753,"Ġê±°ëŀĺ":13754,"ĠíķĻìĬµ":13755,"ë¶ĦìĿ´":13756,"åı²":13757,"fish":13758,"Ġì¼Ī":13759,"Ġê·¸ìĹĲê²Į":13760,"ĠPuerto":13761,"ĠìĿĺì¡´":13762,"ĠìĿ´ìłľ":13763,"Ġpainter":13764,"Ġille":13765,"ĠíĻ©ê¸Ī":13766,"br":13767,"Ġvoted":13768,"Ġclimb":13769,"ĠìĨĮìĨįìľ¼ë¡ľ":13770,"ĠRoc":13771,"ĠìłĦê³µ":13772,"Ġviolence":13773,"Ġì¶ľë§Ī":13774,"Ġì£¼ìĸ´":13775,"ë¦´ëŁ¬":13776,"Kë¦¬ê·¸":13777,"Ġë¹Ļ":13778,"Ġ1870":13779,"Ġcontrolled":13780,"ĠLieutenant":13781,"íĻĶíķĻ":13782,"Ġoperates":13783,"Ġë²ķìłķ":13784,"ĠPsych":13785,"ĠíĺĦìĹŃ":13786,"ì£¼ìĻĢ":13787,"ĠìĨĮë°©":13788,"Women":13789,"Ġscheduled":13790,"Ġ101":13791,"ĠìŀĪìĹĪëĬĶëį°":13792,"Ãª":13793,"ĠRub":13794,"êµŃìĹĲ":13795,"Ġ67":13796,"Ġthrow":13797,"Ġflu":13798,"Ġproducing":13799,"Ġì¤ĳê³Ħ":13800,"insula":13801,"Bar":13802,"Ġnotably":13803,"ĠMind":13804,"ducational":13805,"ĠPlace":13806,"ĠìłĲìĹĲìĦľ":13807,"Ġviews":13808,"NN":13809,"Ġsoci":13810,"ĠJerry":13811,"ì¹ĺìķĦ":13812,"Ġë¸Įë£¨":13813,"Ġequivalent":13814,"800":13815,"Ġì«ĵ":13816,"Ġkid":13817,"ìĬ¬ëŁ¬":13818,"ë³´ìĿ´":13819,"inisters":13820,"Ġphilosophy":13821,"ĠBaltimore":13822,"íħĶëłĪë¹ĦìłĦ":13823,"Ġê·¼ëĮĢ":13824,"Ġcategory":13825,"ĠFund":13826,"Ġì¶ľìĹ°íķĺìĺĢê³ł":13827,"ĠìĿĳìļ©":13828,"Ġìłľê³µíķľëĭ¤":13829,"Ġê°ĢìĻĢ":13830,"íĨµíķ©":13831,"Ġfoundation":13832,"Ġì§ĢëĭĮ":13833,"Station":13834,"Sub":13835,"Ġsell":13836,"Ġintersection":13837,"íķ´ëıĦ":13838,"Ġrefuge":13839,"Ġelement":13840,"Personnel":13841,"ĠKo":13842,"ä¹ĭ":13843,"ë¹ĦìķĦìĿĺ":13844,"ĠHug":13845,"plete":13846,"ĠYouth":13847,"ĠWalker":13848,"Ġê°ĸì¶ĺ":13849,"mingham":13850,"Ġtor":13851,"ĠëĮĢìŀ¥":13852,"Ġteen":13853,"Ġvisual":13854,"600":13855,"Ġì½Ķë¡ľëĤĺ":13856,"ĠHend":13857,"èĪĪ":13858,"Ġweather":13859,"ĠMans":13860,"Ġê¸ĪìĨį":13861,"ĠìĻĢìĿ´":13862,"Ġrevolution":13863,"Ġassess":13864,"hu":13865,"ì§Ģë©°":13866,"Ġsole":13867,"Ġgain":13868,"Ġreally":13869,"Ġresear":13870,"Ġì§ĦíĻĶ":13871,"Ġimprove":13872,"Ġexerc":13873,"Ġì§Ħìŀħ":13874,"ĠBush":13875,"ĠMetro":13876,"power":13877,"Ġíĸīìłķêµ¬ìĹŃ":13878,"ìĿ´ìĥģ":13879,"ĠíħĮë§Ī":13880,"Ġri":13881,"ĠìĺĪìĤ°":13882,"Ġê³¨ëĵľ":13883,"antly":13884,"Ġkingdom":13885,"Ġíķ´ìĦ¤":13886,"ìĿ¸ëĵ¤ìĿĺ":13887,"ĠLiberal":13888,"Ġopin":13889,"Ġìĺ¤íŀĪëł¤":13890,"ĠìĥĿê²¨":13891,"ĠEnvironment":13892,"Ġideas":13893,"íĸĦ":13894,"ìłĦê¸°":13895,"ĠJimmy":13896,"ê²Ģì°°":13897,"Ġrepeated":13898,"Ġì¶©ì²Ńë¶ģëıĦ":13899,"App":13900,"Ġì°¨ìĿ´ê°Ģ":13901,"Ġtypical":13902,"ìłģìĿĺ":13903,"Ġê¸°ìĥģ":13904,"Ġíķľë²Ī":13905,"ĠGon":13906,"Ġitems":13907,"ĠNatural":13908,"ĠìĿ´ìļ©íķ´":13909,"å¦":13910,"Ġë²¡":13911,"ì¶°":13912,"Ġemployees":13913,"Ġgets":13914,"Ġlink":13915,"anne":13916,"çı":13917,"Ġë³´ìĺĢëĭ¤":13918,"Ġapplications":13919,"Ġjurisd":13920,"ĠëĮĢìĪĺ":13921,"ëł¹ìĿĦ":13922,"Ġìĭľì¦ĮìĿĦ":13923,"Ġë³Ģê²½ëĲĺìĹĪëĭ¤":13924,"ĠAlfred":13925,"Ġadvance":13926,"olph":13927,"ë²ķìĿĢ":13928,"ëłĪìĿ´ìĭľìķĦ":13929,"pop":13930,"ëıĦìĹĲìĦľ":13931,"Ġë¨¸ë¬¼":13932,"ìĬ¤íĶ¼":13933,"cious":13934,"ĠìĤ¬ìļ©íķĺê³ł":13935,"....":13936,"Ġresidential":13937,"Ġ1894":13938,"Ġones":13939,"cyclop":13940,"Ġdefensive":13941,"Bur":13942,"lig":13943,"ĠCrit":13944,"ĠFive":13945,"Ġíĥľìĸ´ëĤĺ":13946,"ĠDenmark":13947,"Ġopportunity":13948,"ë²ķìĿĺ":13949,"ìķ¨ë²Ķ":13950,"ìħĪ":13951,"ë£Įë¥¼":13952,"Ġë³ĢíĻĺ":13953,"åı¸":13954,"Ġwitness":13955,"eton":13956,"ĠìĬ¤ë§ĪíĬ¸":13957,"ĠìĭĿë¯¼ì§Ģ":13958,"Ġrivers":13959,"ĠExecutive":13960,"edding":13961,"ĠDigital":13962,"Ġsubstant":13963,"Ġcarbon":13964,"ĠìľłìĤ¬íķľ":13965,"Ġtur":13966,"Ġarmed":13967,"ĠJordan":13968,"Ġë©¸ë§Ŀ":13969,"Ġgolf":13970,"ĠStars":13971,"Ġê³µíĻĶ":13972,"Ġsave":13973,"Ġconsequ":13974,"ê°ĦìĹĲ":13975,"ëĭ¹íĸĪëĭ¤":13976,"orton":13977,"ĠìĹŃìĿĦ":13978,"Ġdivers":13979,"Ġíķ´ìĤ°":13980,"bridge":13981,"Ġpione":13982,"ĠRyan":13983,"ĠìĿ¸ìĥĿ":13984,"Ġvolunte":13985,"Ġconvent":13986,"tenance":13987,"ĠFried":13988,"1918":13989,"ĠOm":13990,"ìĦĿìĿ´":13991,"Ġreduce":13992,"Ġsession":13993,"ĠMess":13994,"ìĦłìľ¼ë¡ľ":13995,"ĠìĽĲëħĦ":13996,"ĠWard":13997,"aughters":13998,"hetic":13999,"Ġopposite":14000,"ê³łìĿĺ":14001,"Ġê·ľì¹Ļ":14002,"atures":14003,"ĠScient":14004,"east":14005,"Ġê²½ì£¼":14006,"ĠPeters":14007,"uins":14008,"ĠíıĲì§ĢëĲľ":14009,"ä¸į":14010,"Ġintelligence":14011,"Ġë°©íĸ¥ìľ¼ë¡ľ":14012,"ĠJohnny":14013,"1928":14014,"Ġê°ĢìĿĦ":14015,"Ġë¶Ģíķĺ":14016,"ìľ¨ìĿĦ":14017,"ĠNever":14018,"osph":14019,"Ġê¼Ń":14020,"ĠMVP":14021,"ĠìĿ´ìļ©íķľ":14022,"ì¶©ì²Ń":14023,"ĠëıĻìķĦ":14024,"going":14025,"ĠìĹ¬ê°Ŀì²łëıĦ":14026,"ĠFather":14027,"ĠMargaret":14028,"Ang":14029,"enberg":14030,"ìĸ¸ìĿĦ":14031,"ĠìºĶ":14032,"ĠíĽĦê¸°":14033,"ĠJess":14034,"ĠíĮ¨ìħĺ":14035,"ì°¨ìĽĲ":14036,"Ġskills":14037,"ĠëłĪìłĦëĵľ":14038,"ê·¸ìĿĺ":14039,"ĠCommander":14040,"Ġheat":14041,"ouses":14042,"Sportspeople":14043,"ĠíķŃë³µ":14044,"ĠReserve":14045,"Ġê¹ĬìĿĢ":14046,"ì¼°ëĭ¤":14047,"ĠëĮ":14048,"Ġdocuments":14049,"á¹":14050,"êµ¬ìĦ±":14051,"ĠBlood":14052,"fefef":14053,"ĠìĿ´íķĺ":14054,"ĠMorgan":14055,"Ġdivisions":14056,"fefefe":14057,"ìĹŃìĿ´":14058,"ĠSamuel":14059,"ĠControl":14060,"Ġìľłëªħíķĺëĭ¤":14061,"ĠìĿ¼ìĿ¼":14062,"Ġë°©ë²ķìĿĦ":14063,"Ġë§Īëĵľë¦¬ëĵľ":14064,"Ġreplace":14065,"ë¹Ĺ":14066,"Ġgang":14067,"ĠêµĲíĻĺ":14068,"ĠíķĻìĪł":14069,"ĠLl":14070,"ĠíĢ¸":14071,"ĠDanish":14072,"ĠJTBC":14073,"Ġvide":14074,"Mc":14075,"Ġimproved":14076,"Å¾":14077,"ìĿ¼ë¦¬":14078,"ë©į":14079,"George":14080,"ìħĢë¡ľ":14081,"Ġë¬¸ìĭł":14082,"ĠíĽĦìĨį":14083,"ĠìĿ´íĽĦìĹĲëĬĶ":14084,"Ġbelonged":14085,"Ġëĭ¨ëıħ":14086,"Ġelectronic":14087,"Ġseparated":14088,"Ġë¹łë¥´ê²Į":14089,"ìĹ¬ìĦľ":14090,"Ġshowing":14091,"ĠThus":14092,"Ġsinging":14093,"Ġgoods":14094,"ĠNCAA":14095,"ĠëĮĢê³µ":14096,"ĠìłĲìĿĦ":14097,"asa":14098,"Ġìŀ¡ì§Ģ":14099,"ĠGill":14100,"Pres":14101,"ĠBase":14102,"Ġë³´ëĥĪëĭ¤":14103,"ìĦ¸ë¡ľ":14104,"ìĭľë¦¬ì¦Ī":14105,"oking":14106,"ĠíĶĮëŀĺ":14107,"Ġjoining":14108,"who":14109,"Ġflat":14110,"Ġjump":14111,"Ġë·":14112,"Club":14113,"chi":14114,"å°ı":14115,"Ġprisoners":14116,"ê±°ìļ´":14117,"ë°Ķë¡ľ":14118,"Ġìķ¼ìĬ¤":14119,"Ġë¸ĮëĿ¼ìļ´":14120,"Ġaccompan":14121,"ĠìĦ±ìĨĮìĪĺìŀĲ":14122,"ĠKaz":14123,"ĠìĤ¬ê±´ìĿĦ":14124,"Ġpenal":14125,"ĠíĶĦë¡ľê·¸ëŀĺ":14126,"Ġroc":14127,"ĠMA":14128,"ĠëıĻìŀĳ":14129,"ìŀĳê°Ģ":14130,"Ġinvited":14131,"ìĦľê°Ģ":14132,"Ġstating":14133,"Ġinform":14134,"ĠSaturday":14135,"âĪ¼":14136,"Ġë³´ìŀ¥":14137,"ì°¨ê°Ģ":14138,"Ø§":14139,"ĠìĤ¬ìľł":14140,"ĠLib":14141,"íĻĶìĻĢ":14142,"Ġnothing":14143,"ĠGener":14144,"Ġbra":14145,"ĠSaf":14146,"ĠìĪĺìĨ¡":14147,"æľĥ":14148,"ĠíİĺìĿ´ì§Ģ":14149,"uzz":14150,"ê²ł":14151,"oca":14152,"Ġaccommod":14153,"Ġreality":14154,"ĠëĦ¤ìĿ´ë²Ħ":14155,"Ġfan":14156,"iph":14157,"ĠíĬ¹ì§ĳ":14158,"OK":14159,"boy":14160,"ĠWol":14161,"ì°¸ì¡°":14162,"ĠìĿ´ëģĮê³ł":14163,"final":14164,"yers":14165,"Ġexamples":14166,"Ġì§ģìĹħ":14167,"Ġdevice":14168,"ĠìĻĦìłĦ":14169,"Ġexhibition":14170,"ĠìĹŃìľ¼ë¡ľ":14171,"ĠAlbum":14172,"Ġengines":14173,"Ġê¸°ìĪłìĿĦ":14174,"Ġë²łìĿ´ìĬ¤ë³¼":14175,"ĠRow":14176,"Ġê²½ìĦ±":14177,"ĠìĦľë²Ħ":14178,"Ġbrig":14179,"Ġì¡°ìŀĳ":14180,"Ġë²Īì§¸ë¡ľ":14181,"ìļ°ì¹ĺ":14182,"Ġì¡°ì¢ħ":14183,"inian":14184,"Ġì¶ľê°Ħ":14185,"ĠìĬ¤íĭ°ë¸Ĳ":14186,"ĠKelly":14187,"Ġëĵ±ìŀ¥íķľëĭ¤":14188,"1929":14189,"Ġcolleges":14190,"ĠíķĺëĤĺëĬĶ":14191,"ì¼ĵëª¬":14192,"ĠìĺģìĽħ":14193,"ëģĶ":14194,"Ġproced":14195,"Ġproducers":14196,"Ġimprison":14197,"ìĶ¨ìĿĺ":14198,"Ġpurchase":14199,"ë³´ê³ł":14200,"Ġêµ¬ìĨį":14201,"1931":14202,"ĠRangers":14203,"ĠìĻ¸ë¶Ģ":14204,"Ġhttp":14205,"ë¬µ":14206,"ĠBetween":14207,"ĠìĹĨëĭ¤ê³ł":14208,"Ġwhy":14209,"ception":14210,"ĠWindows":14211,"Ġíľ":14212,"ĠëıĦì¿ł":14213,"Ġretail":14214,"Ġdetails":14215,"Cal":14216,"Pre":14217,"Ġì¡°ì¹´":14218,"ë¯¸ê°Ģ":14219,"mi":14220,"Ġcorpor":14221,"comp":14222,"ĠSupport":14223,"cell":14224,"Expatriate":14225,"çļĩ":14226,"âĢĺ":14227,"Ġ98":14228,"Ġheads":14229,"HA":14230,"íĨłìĿĺ":14231,"æ²³":14232,"ĠDonald":14233,"ĠRand":14234,"1914":14235,"ĠëĲĺë©´":14236,"Ġë©ĶìĿ¸":14237,"Ġcharges":14238,"Ġnom":14239,"ĠìĦłêµĲ":14240,"ĠìłĢëħģ":14241,"Ġmotion":14242,"Ġclean":14243,"Ġë¹łë¥¸":14244,"Ġjobs":14245,"iop":14246,"Ġìĭłì²Ń":14247,"ìĭĿìľ¼ë¡ľ":14248,"Ġíķ©ìĦ±":14249,"ĠGary":14250,"Ġagency":14251,"ĠìĹĲëıĦ":14252,"Ġrestored":14253,"ĠëĤĺëĪ":14254,"êµ°ìľ¼ë¡ľ":14255,"rot":14256,"ĠìĺģíĻĶìłľ":14257,"ãĥ©":14258,"Ġdies":14259,"ì²´ìĬ¤íĦ°":14260,"ëħĦìĹĲìĦľ":14261,"Ġê¸°êµ¬":14262,"ĠBed":14263,"etime":14264,"Ġeye":14265,"ìĹĲê²ĮìĦľ":14266,"ĠJosÃ©":14267,"Ġduty":14268,"ì§Ŀ":14269,"ĠSecret":14270,"æĶ¿":14271,"Ġcomed":14272,"ĠìĥģìĬ¹":14273,"Ġmeets":14274,"Ġarchae":14275,"ĠìĿ´ìľłëĬĶ":14276,"ĠLam":14277,"Ġgarden":14278,"ĠTrail":14279,"ĠíĽĦìĹĲëĬĶ":14280,"Ġê±´ë¦½":14281,"ìĿ´ìĹĪìľ¼ë©°":14282,"Ġíķĺë©´":14283,"Ġcompete":14284,"iah":14285,"Ġì¡°ìłĪ":14286,"ëĭ¨ê³Ħ":14287,"Ġë¶Īë²ķ":14288,"Ġcooper":14289,"ĠVancouver":14290,"ìĭľì¼°":14291,"éº":14292,"ĠíĶĦëŀŃ":14293,"ĠCampbell":14294,"ìķĪìĹĲ":14295,"lie":14296,"ĠìłĦíĽĦ":14297,"Ġì¹´ë¥´":14298,"Ġë¸Įë¦¬":14299,"LP":14300,"ãĢĤ":14301,"ĠìĿĺë¬´":14302,"éŃ":14303,"ìĤ°íĻĶ":14304,"ë¯¸ëĶĶìĸ´":14305,"ĠMes":14306,"ĠGT":14307,"Ġassass":14308,"ìĤ¬ìĿ¸":14309,"ĠLost":14310,"ĠìĥģíĴĪ":14311,"Ġfactors":14312,"ĠíĻĶìĿ´íĬ¸":14313,"ìĿ¸ëªħ":14314,"íģ¬ìĬ¤":14315,"Mark":14316,"Ġowners":14317,"Ġsurvived":14318,"ĠìŀĲìĿ´ìĸ¸ì¸ł":14319,"vi":14320,"íļĮê°Ģ":14321,"ĠWoman":14322,"Ġ96":14323,"Ġanniversary":14324,"ëī´ìĬ¤":14325,"ĠLocal":14326,"ìĪĺìĽĲ":14327,"çŁ":14328,"ë¿Ĳë§Į":14329,"ĠìĻ¼ìª½":14330,"ĠìĺĪì¸¡":14331,"ĠSud":14332,"ĠDaily":14333,"Ġ78":14334,"Ġìŀ¥êµĲ":14335,"Ġcalling":14336,"ĠStanley":14337,"ê°ľê°Ģ":14338,"Ġë¯¸ì¹ĺ":14339,"Ġbrown":14340,"ĠìĿ¸ëıĦëĦ¤ìĭľìķĦ":14341,"Ġëĭ¤ìļ´":14342,"Ġdoct":14343,"Ġìĭłíĺ¸":14344,"ë¥Ń":14345,"ĠLiverpool":14346,"ĠFranklin":14347,"ĠCollins":14348,"ĠMi":14349,"ì§ĢìŀĲ":14350,"ĠMarket":14351,"ĠìĹ°ëĮĢ":14352,"Ġcredited":14353,"Ġsurname":14354,"ĠChem":14355,"Ġë°Ľì§Ģ":14356,"ĠTaiwan":14357,"Ġ1885":14358,"Ġuniversities":14359,"ì£¼ìĿ¸":14360,"ĠìķŀìĹĲ":14361,"Ġreleg":14362,"dy":14363,"ĠRacing":14364,"ĠíĶĦëĿ¼":14365,"íħľ":14366,"Ġreserve":14367,"BE":14368,"åĨ":14369,"Ġadvantage":14370,"ë¥´ê¸°":14371,"íĬ¹ë³ĦìĭľìĿĺ":14372,"uits":14373,"Ġê³µíĻĶêµŃìĿĺ":14374,"ĠAthletic":14375,"Ġë¹łìł¸":14376,"å¸Ŀ":14377,"ureau":14378,"ĠìĤ¬ë¦½":14379,"Ġrecept":14380,"ê°ķìĿĺ":14381,"otional":14382,"Ġì£¼ê³ł":14383,"ë¯¸ë¥¼":14384,"ĠìĪĺëª©":14385,"ĠëķĮë¶ĢíĦ°":14386,"June":14387,"ĠLA":14388,"ĠChall":14389,"Ġëĵ±ê¸ī":14390,"away":14391,"ĠLane":14392,"ĠNav":14393,"ĠDal":14394,"ĠíĿī":14395,"æ¸":14396,"Ġìłķì§Ģ":14397,"Ġíļ¡":14398,"ìĨĮìĻĢ":14399,"rainian":14400,"iggest":14401,"ĠUkraine":14402,"1919":14403,"ashi":14404,"ĠFood":14405,"íĪ¬ëĭĪë²ĦìĬ¤":14406,"Ġinduct":14407,"Ġswimming":14408,"Ġbrain":14409,"Ġegg":14410,"Ġê²ĮìĬ¤íĬ¸":14411,"ëĲĺë©´":14412,"ĠìĬ¤ë¦´ëŁ¬":14413,"ĠThompson":14414,"Ġë§Īì¸ł":14415,"ê³µìĤ°":14416,"Ġíĸ¥ìĥģ":14417,"Ġmyth":14418,"lon":14419,"Ġëĳĺì§¸":14420,"ĠRound":14421,"Ġë§Īì¹¨":14422,"Ġê³µìĭĿìłģìľ¼ë¡ľ":14423,"abad":14424,"ĠíĨµíķ´ìĦľ":14425,"orer":14426,"Ġnor":14427,"ĠKu":14428,"Ġtank":14429,"Ġëħ¼ìĿĺ":14430,"Ġregularly":14431,"Ġstret":14432,"ëħĦìĿ´":14433,"Ġë³ĳìĽĲ":14434,"ting":14435,"ĠìĭłìķĻ":14436,"ĠPun":14437,"Ġdig":14438,"Ġdog":14439,"Ġìŀ¬ê°ľ":14440,"Michael":14441,"ìĨ¡ëĿ¼ìĿ´íĦ°":14442,"Ġìŀīê¸ĢëŀľëĵľìĿĺ":14443,"ìŀ¥ìķł":14444,"GM":14445,"ĠAqu":14446,"ĠAuthority":14447,"ĠJun":14448,"Ġprovincial":14449,"Ġì°°ìĬ¤":14450,"leans":14451,"íŀĪëĬĶ":14452,"ĠMorris":14453,"Ġë³µíķ©":14454,"ìłľê°ķìłĲê¸°ìĿĺ":14455,"ëª¨ë¥¼":14456,"Ġíķ¸":14457,"ĠChampion":14458,"Ġtransportation":14459,"è¼":14460,"fessional":14461,"ĠSeattle":14462,"ĠOfficer":14463,"ĠìĬ¤íĨłë¦¬":14464,"ĠìĬ¤íĶĦ":14465,"ĠìĥĿê¸´":14466,"ĠìĦľë¹ĦìĬ¤ë¥¼":14467,"ë¦¬ìĭľ":14468,"olia":14469,"ĠLank":14470,"Ġcomposition":14471,"Ġìķ¤ëĵľ":14472,"ìĩł":14473,"ishers":14474,"ê¸°ìĦľ":14475,"Ġìį":14476,"ĠìłĦì§ģ":14477,"ë§Īìĵ°":14478,"Ġì½Ķë¦¬ìķĦ":14479,"OU":14480,"ĠMap":14481,"Ġupd":14482,"Ġíķ´ìĦľ":14483,"Ġëĭ¬ëĿ¼":14484,"ĠëĵĿíĳľ":14485,"ĠNash":14486,"ĠKnow":14487,"ĠIan":14488,"ailand":14489,"Ġcolonial":14490,"rm":14491,"Ġë»":14492,"ìĺĮ":14493,"ĠBroadcasting":14494,"uru":14495,"ìĪĺìĿ´ëĭ¤":14496,"Ġì§Ģê¸ī":14497,"ĠRobinson":14498,"trans":14499,"anian":14500,"Ġaccused":14501,"ĠìĹĲíĶ¼ìĨĮëĵľ":14502,"ĠìĪĺíĽĪìŀĲ":14503,"ĠíļĮìłĦ":14504,"Ġëĭ¤ë¥´ëĭ¤":14505,"estyle":14506,"Ġrich":14507,"ìķµ":14508,"ê¸°ëıħêµĲ":14509,"Ġfactor":14510,"ìĦ¸íķľ":14511,"ì¦ĪëĭĪ":14512,"Ġmales":14513,"ë©´ìĿĢ":14514,"ĠìĦ¸ìĿ¸íĬ¸":14515,"æīĢ":14516,"Ġgradu":14517,"Ġworth":14518,"Ġìĺ¤ì¹´":14519,"Ġfine":14520,"roke":14521,"Ġdepend":14522,")âĢĻ":14523,"ë¥ĺê°Ģ":14524,"Ä«":14525,"Ġíĺ¼ëŀĢ":14526,"ĠBeg":14527,"ĠNBC":14528,"ĠHampshire":14529,"ë¶ĢëĮĢ":14530,"ìĭłê²½":14531,"bat":14532,"http":14533,"Ġdriving":14534,"ĠYugoslav":14535,"Ġë°ľë§¤ëĲľ":14536,"ĠPalest":14537,"ĠíķľëķĮ":14538,"inding":14539,"Crit":14540,"Ġstorage":14541,"ĠìľĦíķ´ìĦľëĬĶ":14542,"Ġfranchise":14543,"Ġclin":14544,"ĠNelson":14545,"íĮĲìĿĦ":14546,"ĠìĭľìĤ¬":14547,"Ġaffected":14548,"iece":14549,"Ġì¥Ĳ":14550,"ë°ķì¥Ĳ":14551,"Ġbudget":14552,"ê¸°ìĹĲìĦľ":14553,"ĠHit":14554,"íķĻìĽĲ":14555,"ĠOnce":14556,"Two":14557,"êµŃìľ¼ë¡ľ":14558,"ì¹´ìĿĺ":14559,"Ġìĥģë¥Ļ":14560,"Ġaf":14561,"ĠLanguage":14562,
[...]
